{
  "version": "1.0",
  "truncation": null,
  "padding": null,
  "added_tokens": [
    {
      "id": 0,
      "content": "<pad>",
      "single_word": false,
      "lstrip": false,
      "rstrip": false,
      "normalized": false,
      "special": true
    },
    {
      "id": 1,
      "content": "<eos>",
      "single_word": false,
      "lstrip": false,
      "rstrip": false,
      "normalized": false,
      "special": true
    },
    {
      "id": 2,
      "content": "<bos>",
      "single_word": false,
      "lstrip": false,
      "rstrip": false,
      "normalized": false,
      "special": true
    },
    {
      "id": 3,
      "content": "<unk>",
      "single_word": false,
      "lstrip": false,
      "rstrip": false,
      "normalized": false,
      "special": true
    },
    {
      "id": 4,
      "content": "<image>",
      "single_word": false,
      "lstrip": false,
      "rstrip": false,
      "normalized": false,
      "special": true
    }
  ],
  "normalizer": {
    "type": "Replace",
    "pattern": {
      "String": " "
    },
    "content": "▁"
  },
  "pre_tokenizer": {
    "type": "Split",
    "pattern": {
      "String": " "
    },
    "behavior": "MergedWithPrevious",
    "invert": false
  },
  "post_processor": {
    "type": "TemplateProcessing",
    "single": [
      {
        "SpecialToken": {
          "id": "<bos>",
          "type_id": 0
        }
      },
      {
        "Sequence": {
          "id": "A",
          "type_id": 0
        }
      }
    ],
    "pair": [
      {
        "SpecialToken": {
          "id": "<bos>",
          "type_id": 0
        }
      },
      {
        "Sequence": {
          "id": "A",
          "type_id": 0
        }
      },
      {
        "SpecialToken": {
          "id": "<bos>",
          "type_id": 1
        }
      },
      {
        "Sequence": {
          "id": "B",
          "type_id": 1
        }
      }
    ],
    "special_tokens": {
      "<bos>": {
        "id": "<bos>",
        "ids": [
          2
        ],
        "tokens": [
          "<bos>"
        ]
      }
    }
  },
  "decoder": {
    "type": "Sequence",
    "decoders": [
      {
        "type": "Replace",
        "pattern": {
          "String": "▁"
        },
        "content": " "
      },
      {
        "type": "ByteFallback"
      },
      {
        "type": "Fuse"
      }
    ]
  },
  "model": {
    "type": "BPE",
    "dropout": null,
    "unk_token": "<unk>",
    "continuing_subword_prefix": null,
    "end_of_word_suffix": null,
    "fuse_unk": true,
    "byte_fallback": true,
    "ignore_merges": false,
    "vocab": {
      "<pad>": 0,
      "<eos>": 1,
      "<bos>": 2,
      "<unk>": 3,
      "<image>": 4,
      "\n": 5,
      "!": 6,
      "\"": 7,
      "#": 8,
      "$": 9,
      "%": 10,
      "&": 11,
      "'": 12,
      "(": 13,
      ")": 14,
      "*": 15,
      "+": 16,
      ",": 17,
      "-": 18,
      ".": 19,
      "/": 20,
      "0": 21,
      "1": 22,
      "2": 23,
      "3": 24,
      "4": 25,
      "5": 26,
      "6": 27,
      "7": 28,
      "8": 29,
      "9": 30,
      ":": 31,
      ";": 32,
      "<": 33,
      "=": 34,
      ">": 35,
      "?": 36,
      "@": 37,
      "A": 38,
      "B": 39,
      "C": 40,
      "D": 41,
      "E": 42,
      "F": 43,
      "G": 44,
      "H": 45,
      "I": 46,
      "J": 47,
      "K": 48,
      "L": 49,
      "M": 50,
      "N": 51,
      "O": 52,
      "P": 53,
      "Q": 54,
      "R": 55,
      "S": 56,
      "T": 57,
      "U": 58,
      "V": 59,
      "W": 60,
      "X": 61,
      "Y": 62,
      "Z": 63,
      "[": 64,
      "\\": 65,
      "]": 66,
      "_": 67,
      "`": 68,
      "a": 69,
      "b": 70,
      "c": 71,
      "d": 72,
      "e": 73,
      "f": 74,
      "g": 75,
      "h": 76,
      "i": 77,
      "j": 78,
      "k": 79,
      "l": 80,
      "m": 81,
      "n": 82,
      "o": 83,
      "p": 84,
      "q": 85,
      "r": 86,
      "s": 87,
      "t": 88,
      "u": 89,
      "v": 90,
      "w": 91,
      "x": 92,
      "y": 93,
      "z": 94,
      "}": 95,
      " ": 96,
      "ä": 97,
      "ñ": 98,
      "—": 99,
      "’": 100,
      "”": 101,
      "▁": 102,
      "e▁": 103,
      "n▁": 104,
      "a▁": 105,
      "s▁": 106,
      "in": 107,
      "th": 108,
      "g▁": 109,
      "ing▁": 110,
      "d▁": 111,
      "an": 112,
      "t▁": 113,
      "er": 114,
      "ar": 115,
      "A▁": 116,
      "on▁": 117,
      "the▁": 118,
      "in▁": 119,
      "re": 120,
      "it": 121,
      "ro": 122,
      "is▁": 123,
      "f▁": 124,
      "an▁": 125,
      "of▁": 126,
      "to": 127,
      "y▁": 128,
      "la": 129,
      "al": 130,
      "wi": 131,
      "th▁": 132,
      "and▁": 133,
      "er▁": 134,
      "st": 135,
      "with▁": 136,
      "ra": 137,
      "ck": 138,
      "man▁": 139,
      "wo": 140,
      "ou": 141,
      "le": 142,
      "ch": 143,
      "le▁": 144,
      "lo": 145,
      "ir": 146,
      "at": 147,
      "l▁": 148,
      "ho": 149,
      "ding▁": 150,
      "a▁b": 151,
      "en": 152,
      "ed▁": 153,
      "at▁": 154,
      "wh": 155,
      "bo": 156,
      "en▁": 157,
      "do": 158,
      "co": 159,
      "es▁": 160,
      "p▁": 161,
      "ri": 162,
      "si": 163,
      "on▁a▁": 164,
      "ck▁": 165,
      "to▁": 166,
      "pla": 167,
      "ite▁": 168,
      "or": 169,
      "ear": 170,
      "un": 171,
      "il": 172,
      "el": 173,
      "sh": 174,
      "ta": 175,
      "Th": 176,
      "white▁": 177,
      "sk": 178,
      "in▁the▁": 179,
      "ting▁": 180,
      "on▁the▁": 181,
      "in▁a▁": 182,
      "ur": 183,
      "are▁": 184,
      "all▁": 185,
      "wo▁": 186,
      "ple▁": 187,
      "om": 188,
      "se": 189,
      "pe": 190,
      "be": 191,
      "ge▁": 192,
      "sit": 193,
      "ic": 194,
      "king▁": 195,
      "on": 196,
      "ba": 197,
      "w▁": 198,
      "stan": 199,
      "oun": 200,
      "tra": 201,
      "The▁": 202,
      ",▁": 203,
      "ying▁": 204,
      "s.": 205,
      "sitting▁": 206,
      "wn▁": 207,
      "ne": 208,
      "gro": 209,
      "lu": 210,
      "of▁a▁": 211,
      "et": 212,
      "woman▁": 213,
      "A▁man▁": 214,
      "ople▁": 215,
      "sid": 216,
      "gh": 217,
      "with▁a▁": 218,
      "gra": 219,
      "up▁": 220,
      "lack▁": 221,
      "ch▁": 222,
      "k▁": 223,
      "li": 224,
      "air": 225,
      "boar": 226,
      "wal": 227,
      "standing▁": 228,
      "ing": 229,
      "tab": 230,
      "et▁": 231,
      "people▁": 232,
      "ff": 233,
      "bu": 234,
      "ss": 235,
      "red▁": 236,
      "gre": 237,
      "hol": 238,
      "ti": 239,
      "e.": 240,
      "ver": 241,
      "per": 242,
      "wat": 243,
      "d.": 244,
      "fro": 245,
      "lue▁": 246,
      "wear": 247,
      "as▁": 248,
      "par": 249,
      "ing▁a▁": 250,
      "lar": 251,
      "ca": 252,
      "t▁to▁": 253,
      "se▁": 254,
      "stre": 255,
      "ea": 256,
      "Two▁": 257,
      "al▁": 258,
      "fi": 259,
      "po": 260,
      "holding▁": 261,
      "ds▁": 262,
      "pa": 263,
      "no": 264,
      "ss▁": 265,
      "nex": 266,
      "pi": 267,
      "m▁": 268,
      "room": 269,
      "next▁to▁": 270,
      "top▁": 271,
      "black▁": 272,
      "side▁": 273,
      "large▁": 274,
      "two▁": 275,
      "tre": 276,
      "ear▁": 277,
      "ts▁": 278,
      "ru": 279,
      "plat": 280,
      "wa": 281,
      "han": 282,
      "or▁": 283,
      "car": 284,
      ".▁": 285,
      "pers": 286,
      "mo": 287,
      "de": 288,
      "green▁": 289,
      "um": 290,
      "oo": 291,
      "lan": 292,
      "a▁s": 293,
      "di": 294,
      "ten": 295,
      "person▁": 296,
      "shir": 297,
      "clo": 298,
      "groun": 299,
      "bro": 300,
      "by▁": 301,
      "blue▁": 302,
      "fiel": 303,
      "cou": 304,
      "ers▁": 305,
      "fron": 306,
      "up▁of▁": 307,
      "dog▁": 308,
      "pho": 309,
      "dy▁": 310,
      "oung▁": 311,
      "table": 312,
      "som": 313,
      "loo": 314,
      "hor": 315,
      "his▁": 316,
      "men▁": 317,
      "front▁": 318,
      "tor": 319,
      "e▁is▁": 320,
      "ther▁": 321,
      "that▁": 322,
      "ele": 323,
      "down▁": 324,
      "ball▁": 325,
      "sno": 326,
      "room▁": 327,
      "sig": 328,
      "wearing▁": 329,
      "tenn": 330,
      "woo": 331,
      "young▁": 332,
      "ce▁": 333,
      "and▁a▁": 334,
      "playing▁": 335,
      "ve▁": 336,
      "ve": 337,
      "gir": 338,
      "A▁woman▁": 339,
      "sm": 340,
      "group▁of▁": 341,
      "am": 342,
      "train▁": 343,
      "play": 344,
      "has▁": 345,
      "in▁front▁": 346,
      "plan": 347,
      "ma": 348,
      "ce": 349,
      "sur": 350,
      "skat": 351,
      "der▁": 352,
      "flo": 353,
      "gi": 354,
      "ver▁": 355,
      "tennis▁": 356,
      "street▁": 357,
      "ut": 358,
      "ge": 359,
      "ild": 360,
      "whi": 361,
      "low▁": 362,
      "table▁": 363,
      "and▁white▁": 364,
      "foo": 365,
      "zz": 366,
      "board▁": 367,
      "some▁": 368,
      "win": 369,
      "ul": 370,
      "ol": 371,
      "pp": 372,
      "near▁": 373,
      "yc": 374,
      "on▁a▁b": 375,
      "air▁": 376,
      "st▁": 377,
      "brown▁": 378,
      "walking▁": 379,
      "ee": 380,
      "ke▁": 381,
      "while▁": 382,
      "mp": 383,
      "raff": 384,
      "riding▁": 385,
      "cat▁": 386,
      "out": 387,
      "the": 388,
      "at▁a▁": 389,
      "it▁": 390,
      "ree▁": 391,
      "kit": 392,
      "hin": 393,
      "su": 394,
      "ght▁": 395,
      "pizz": 396,
      "girl▁": 397,
      "boy▁": 398,
      "roa": 399,
      "shirt▁": 400,
      "yel": 401,
      "giraff": 402,
      "e▁of▁": 403,
      "hind▁": 404,
      "park": 405,
      "phan": 406,
      "a▁man▁": 407,
      "behind▁": 408,
      "eat": 409,
      "wood": 410,
      "looking▁": 411,
      "skate": 412,
      "con": 413,
      "er.": 414,
      "back": 415,
      "bre": 416,
      "elephan": 417,
      "cro": 418,
      "of▁the▁": 419,
      "for▁": 420,
      "a▁ba": 421,
      "sho": 422,
      "other▁": 423,
      "yellow▁": 424,
      "s▁are▁": 425,
      "ski": 426,
      "ed": 427,
      "seball▁": 428,
      "An▁": 429,
      "A▁group▁of▁": 430,
      "surf": 431,
      "vi": 432,
      "water▁": 433,
      "man": 434,
      "for": 435,
      "fri": 436,
      "t.": 437,
      "small▁": 438,
      "holding▁a▁": 439,
      "ving▁": 440,
      "eb": 441,
      "motor": 442,
      "wearing▁a▁": 443,
      "gla": 444,
      "all": 445,
      "colo": 446,
      "on▁top▁": 447,
      "thro": 448,
      "gh▁": 449,
      "tur": 450,
      "ran": 451,
      "snow": 452,
      "street": 453,
      "es": 454,
      "ilding": 455,
      "op": 456,
      "cyc": 457,
      "next▁to▁a▁": 458,
      "pic": 459,
      "side": 460,
      "her▁": 461,
      "r▁": 462,
      "lin": 463,
      "A▁person▁": 464,
      "zeb": 465,
      "wooden▁": 466,
      "ic▁": 467,
      "windo": 468,
      "ent▁": 469,
      "s▁and▁": 470,
      "ter": 471,
      "over▁": 472,
      "grass▁": 473,
      "tle▁": 474,
      "sign▁": 475,
      "led▁": 476,
      "out▁": 477,
      "this▁": 478,
      "lying▁": 479,
      "y.": 480,
      "ne▁": 481,
      "bi": 482,
      "at▁the▁": 483,
      "from▁": 484,
      "fen": 485,
      "motorcyc": 486,
      "backgroun": 487,
      "run": 488,
      "cover": 489,
      "'s▁": 490,
      "one▁": 491,
      "a▁bo": 492,
      "parked▁": 493,
      "sc": 494,
      "bea": 495,
      "grass": 496,
      "brel": 497,
      "ink▁": 498,
      "ile": 499,
      "and": 500,
      "oran": 501,
      "umbrel": 502,
      "da": 503,
      "fa": 504,
      "lon": 505,
      "kitch": 506,
      "ter▁": 507,
      "ks▁": 508,
      "player▁": 509,
      "ilding▁": 510,
      "rea": 511,
      "food▁": 512,
      "sto": 513,
      "A▁young▁": 514,
      "a▁bu": 515,
      "a▁black▁": 516,
      "ther": 517,
      "lea": 518,
      "water": 519,
      "pizza▁": 520,
      "that▁is▁": 521,
      "cit": 522,
      "ound▁": 523,
      "ga": 524,
      "ha": 525,
      "ly▁": 526,
      "lap": 527,
      "ben": 528,
      "lou": 529,
      "hea": 530,
      "ted▁": 531,
      "tru": 532,
      "gu": 533,
      "gam": 534,
      "ugh▁": 535,
      "met": 536,
      "ses▁": 537,
      "mal": 538,
      "board": 539,
      "ir▁": 540,
      "toile": 541,
      "field▁": 542,
      "tu": 543,
      "sitting▁on▁a▁": 544,
      "tain": 545,
      "trees▁": 546,
      "bath": 547,
      "plate▁": 548,
      "through▁": 549,
      "around▁": 550,
      "sign": 551,
      "comp": 552,
      "track": 553,
      "a▁blue▁": 554,
      "sh▁": 555,
      "qu": 556,
      "ke": 557,
      "laying▁": 558,
      "sky▁": 559,
      "E▁": 560,
      "their▁": 561,
      "tow": 562,
      "clou": 563,
      "cat": 564,
      "bus▁": 565,
      "in▁front▁of▁a▁": 566,
      "building": 567,
      "veral▁": 568,
      "on▁it": 569,
      "ittle▁": 570,
      "bir": 571,
      "bear▁": 572,
      "cti": 573,
      "hi": 574,
      "dre": 575,
      "wall": 576,
      "chil": 577,
      "flying▁": 578,
      "bri": 579,
      "les▁": 580,
      "me": 581,
      "covered▁": 582,
      "plane▁": 583,
      "Man▁": 584,
      "each▁": 585,
      "sa": 586,
      "Three▁": 587,
      "couple▁": 588,
      "comput": 589,
      "snow▁": 590,
      "dog": 591,
      "in▁front▁of▁": 592,
      "in▁the▁backgroun": 593,
      "cour": 594,
      "ite": 595,
      "moun": 596,
      "little▁": 597,
      "orange▁": 598,
      "cu": 599,
      "top": 600,
      "ar▁": 601,
      "is▁a▁": 602,
      "old▁": 603,
      "de▁": 604,
      "child▁": 605,
      "horse▁": 606,
      "ati": 607,
      "under▁": 608,
      "clock▁": 609,
      "sta": 610,
      "sw": 611,
      "ing▁the▁": 612,
      "dd": 613,
      "ws▁": 614,
      "mi": 615,
      "baseball▁": 616,
      "so": 617,
      "sidewal": 618,
      "man▁is▁": 619,
      "A▁large▁": 620,
      "sits▁": 621,
      "light▁": 622,
      "flow": 623,
      "sbe": 624,
      "kitchen▁": 625,
      "city▁": 626,
      "wall▁": 627,
      "wn": 628,
      "wor": 629,
      "dir": 630,
      "ping▁": 631,
      "ki": 632,
      "go": 633,
      "sky": 634,
      "jum": 635,
      "stri": 636,
      "outside▁": 637,
      "three▁": 638,
      "desk": 639,
      "tree▁": 640,
      "pictur": 641,
      "ves▁": 642,
      "tri": 643,
      "gray▁": 644,
      "te▁": 645,
      "building▁": 646,
      "mer": 647,
      "te": 648,
      "dar": 649,
      "elephant▁": 650,
      "into▁": 651,
      "anan": 652,
      "ire▁": 653,
      "women▁": 654,
      "field.": 655,
      "on▁top▁of▁a▁": 656,
      "fo": 657,
      "shirt": 658,
      "coun": 659,
      "cle": 660,
      "sp": 661,
      "field": 662,
      "Pe": 663,
      "plate": 664,
      "very▁": 665,
      "cket▁": 666,
      "hil": 667,
      "sand": 668,
      "long▁": 669,
      "giraffe▁": 670,
      "ch.": 671,
      "ew▁": 672,
      "people▁are▁": 673,
      "TH": 674,
      "es.": 675,
      "ni": 676,
      "Ther": 677,
      "way▁": 678,
      "its▁": 679,
      "bathroom▁": 680,
      "People▁": 681,
      "our▁": 682,
      "ani": 683,
      "cel": 684,
      "tall▁": 685,
      "toge": 686,
      "oce": 687,
      "lic": 688,
      "a▁large▁": 689,
      "va": 690,
      "shee": 691,
      "ja": 692,
      "zebra": 693,
      "toilet▁": 694,
      "d▁of▁": 695,
      "a▁woman▁": 696,
      "umbrella": 697,
      "ys▁": 698,
      "table.": 699,
      "truck▁": 700,
      "fu": 701,
      "down▁a▁": 702,
      "road▁": 703,
      "are": 704,
      "ded▁": 705,
      "S▁": 706,
      "form": 707,
      "ong▁": 708,
      "chair": 709,
      "A▁b": 710,
      "s,▁": 711,
      "l▁of▁": 712,
      "mall▁": 713,
      "car▁": 714,
      "sha": 715,
      "near▁a▁": 716,
      "dr": 717,
      "ra▁": 718,
      "com": 719,
      "color": 720,
      "sing▁": 721,
      "pink▁": 722,
      "dark▁": 723,
      "eating▁": 724,
      "fil": 725,
      "couple▁of▁": 726,
      "window": 727,
      "open▁": 728,
      "ty▁": 729,
      "der": 730,
      "ball": 731,
      "skateboar": 732,
      "rown▁": 733,
      "pan": 734,
      "ground": 735,
      "metal▁": 736,
      "watch": 737,
      "pre": 738,
      "ligh": 739,
      "A▁man▁is▁": 740,
      "sses▁": 741,
      "roun": 742,
      "stu": 743,
      "motorcycle▁": 744,
      "rying▁": 745,
      "phone▁": 746,
      "sil": 747,
      "s.▁": 748,
      "bear": 749,
      "phone": 750,
      "street.": 751,
      "skateboard▁": 752,
      "of": 753,
      "a▁white▁": 754,
      "cks▁": 755,
      "fire▁": 756,
      "laptop▁": 757,
      "pie": 758,
      "ning▁": 759,
      "cket": 760,
      "bow": 761,
      "many▁": 762,
      "This▁": 763,
      "ing.": 764,
      "back▁": 765,
      "train": 766,
      "stands▁": 767,
      "ful": 768,
      "irro": 769,
      "ch▁of▁": 770,
      "frisbe": 771,
      "i▁": 772,
      "down▁the▁": 773,
      "dou": 774,
      "shor": 775,
      "sun": 776,
      "N▁": 777,
      "banan": 778,
      "es▁of▁": 779,
      "white": 780,
      "ildre": 781,
      "dri": 782,
      "ink": 783,
      "it.": 784,
      "ted": 785,
      "mirro": 786,
      "zebra▁": 787,
      "ction▁": 788,
      "ful▁": 789,
      "dis": 790,
      "filled▁": 791,
      "A▁white▁": 792,
      "computer▁": 793,
      "wing▁": 794,
      "door▁": 795,
      "o▁": 796,
      "dress": 797,
      "riding▁a▁": 798,
      "iling▁": 799,
      "another▁": 800,
      "sandwi": 801,
      "ble▁": 802,
      "A▁small▁": 803,
      "ging▁": 804,
      "living▁": 805,
      "cake▁": 806,
      "ad": 807,
      "a▁person▁": 808,
      "abo": 809,
      "sheep▁": 810,
      "ls▁": 811,
      "glass▁": 812,
      "crow": 813,
      "ment▁": 814,
      "road": 815,
      "area▁": 816,
      "ildren▁": 817,
      "mar": 818,
      "grey▁": 819,
      "along▁": 820,
      "photo▁": 821,
      "A▁group▁of▁people▁": 822,
      "pped▁": 823,
      "eng": 824,
      "ground▁": 825,
      "cross▁": 826,
      "door": 827,
      "in▁an▁": 828,
      "camer": 829,
      "ps▁": 830,
      "some": 831,
      "hy": 832,
      "teddy▁": 833,
      "inside▁": 834,
      "pain": 835,
      "pro": 836,
      "A▁black▁": 837,
      "Se": 838,
      "picture▁": 839,
      "sle": 840,
      "photo": 841,
      "rol": 842,
      "a▁bi": 843,
      "this▁is▁a▁": 844,
      "behind▁the▁": 845,
      "ling▁": 846,
      "cur": 847,
      "hyd": 848,
      "me▁": 849,
      "tal": 850,
      "mu": 851,
      "hydran": 852,
      "close▁": 853,
      "a▁baseball▁": 854,
      "fe": 855,
      "fru": 856,
      "ped▁": 857,
      "floor": 858,
      "above▁": 859,
      "app": 860,
      "e▁are▁": 861,
      "a▁small▁": 862,
      "t▁of▁": 863,
      ",▁and▁": 864,
      "Two▁men▁": 865,
      "ts": 866,
      "dirt▁": 867,
      "play▁": 868,
      "mou": 869,
      "icyc": 870,
      "on.": 871,
      "ce.": 872,
      "colored▁": 873,
      "hat▁": 874,
      "giraffes▁": 875,
      "vege": 876,
      "bed▁": 877,
      "on▁top▁of▁": 878,
      "unch▁of▁": 879,
      "head▁": 880,
      "la▁": 881,
      "pu": 882,
      "stand▁": 883,
      "Several▁": 884,
      "slee": 885,
      "filled▁with▁": 886,
      "hou": 887,
      "coo": 888,
      "ice▁": 889,
      "grassy▁": 890,
      "male▁": 891,
      "wood▁": 892,
      "s▁.": 893,
      "je": 894,
      "tennis▁cour": 895,
      "by▁a▁": 896,
      "bed": 897,
      "off▁": 898,
      "bird▁": 899,
      "suit": 900,
      "pass": 901,
      "window▁": 902,
      "children▁": 903,
      "being▁": 904,
      "to▁the▁": 905,
      "cc": 906,
      "glasses▁": 907,
      "por": 908,
      "pizza": 909,
      "rest": 910,
      "tak": 911,
      "cell▁": 912,
      "cor": 913,
      "dur": 914,
      "water.": 915,
      "bench▁": 916,
      "ard▁": 917,
      "and▁black▁": 918,
      "A▁cat▁": 919,
      "has▁a▁": 920,
      "sitting▁on▁the▁": 921,
      "en.": 922,
      "le.": 923,
      "view▁": 924,
      "ers": 925,
      "ddle▁": 926,
      "cut": 927,
      "hel": 928,
      "b▁": 929,
      "beach▁": 930,
      "oth": 931,
      "area": 932,
      "running▁": 933,
      "boat": 934,
      "ce▁of▁": 935,
      "several▁": 936,
      "x▁": 937,
      "ser": 938,
      "looks▁": 939,
      "sidewalk▁": 940,
      "parking▁": 941,
      "room.": 942,
      "rid": 943,
      "taking▁": 944,
      "pur": 945,
      "nu": 946,
      "chair▁": 947,
      "traff": 948,
      "ent": 949,
      "pe▁": 950,
      "mountain": 951,
      "tennis▁ra": 952,
      "umbrella▁": 953,
      "fence▁": 954,
      "ds": 955,
      "hand▁": 956,
      "ture": 957,
      "fire▁hydran": 958,
      "A▁dog▁": 959,
      "ffer": 960,
      "day": 961,
      "boat▁": 962,
      "tain▁": 963,
      "dressed▁": 964,
      "park▁": 965,
      "elephants▁": 966,
      "A▁boy▁": 967,
      "horse": 968,
      "suit▁": 969,
      "up": 970,
      "ches▁": 971,
      "lady▁": 972,
      "a▁brown▁": 973,
      "sit▁": 974,
      "thing▁": 975,
      "fferent▁": 976,
      "stati": 977,
      "e.▁": 978,
      "vegetable": 979,
      "get": 980,
      "du": 981,
      "is▁standing▁": 982,
      "hair▁": 983,
      "boo": 984,
      "fla": 985,
      "horses▁": 986,
      "jumping▁": 987,
      "game▁": 988,
      "Wo": 989,
      "hanging▁": 990,
      "jacket▁": 991,
      "ry▁": 992,
      "for▁a▁": 993,
      "on▁his▁": 994,
      "cre": 995,
      "different▁": 996,
      "wave▁": 997,
      "her": 998,
      "airplane▁": 999,
      "IN": 1000,
      "low": 1001,
      "ous▁": 1002,
      "silver▁": 1003,
      "A▁couple▁of▁": 1004,
      "hot▁": 1005,
      "baby▁": 1006,
      "animal": 1007,
      "carrying▁": 1008,
      "per▁": 1009,
      "beside▁": 1010,
      "There▁is▁": 1011,
      "ched▁": 1012,
      "sitting▁on▁": 1013,
      "Wh": 1014,
      "ner▁": 1015,
      "Som": 1016,
      "stop▁": 1017,
      "traffic▁": 1018,
      "A▁man▁in▁a▁": 1019,
      "ss.": 1020,
      "dy▁of▁": 1021,
      "across▁": 1022,
      "bus": 1023,
      "ccer▁": 1024,
      "desk▁": 1025,
      "ari": 1026,
      "holds▁": 1027,
      "hand": 1028,
      "vel": 1029,
      "flowers▁": 1030,
      "ffed▁": 1031,
      "IS▁": 1032,
      "White▁": 1033,
      "floor▁": 1034,
      "together▁": 1035,
      "uni": 1036,
      "board.": 1037,
      "ger": 1038,
      "laptop": 1039,
      "mon": 1040,
      "piece▁of▁": 1041,
      "Woman▁": 1042,
      "hill": 1043,
      "swing": 1044,
      "guy▁": 1045,
      "THE▁": 1046,
      "slic": 1047,
      "ocean": 1048,
      "middle▁": 1049,
      "be▁": 1050,
      "s▁on▁the▁": 1051,
      "talking▁": 1052,
      "graz": 1053,
      "iting▁": 1054,
      "sidewalk": 1055,
      "full▁of▁": 1056,
      "living▁room▁": 1057,
      "through▁the▁": 1058,
      "clear▁": 1059,
      "with▁a▁b": 1060,
      "pul": 1061,
      "ready▁": 1062,
      "A▁girl▁": 1063,
      "s▁on▁a▁": 1064,
      "ski▁": 1065,
      "ex": 1066,
      "day▁": 1067,
      "cco": 1068,
      "kite▁": 1069,
      "s▁on▁": 1070,
      "A▁little▁": 1071,
      "slo": 1072,
      "road.": 1073,
      "stuffed▁": 1074,
      "stru": 1075,
      "to▁a▁": 1076,
      "A▁man▁in▁": 1077,
      "with▁the▁": 1078,
      "with▁white▁": 1079,
      "che": 1080,
      "on▁it.": 1081,
      "who": 1082,
      "sandwich▁": 1083,
      "ft▁": 1084,
      "paper▁": 1085,
      "ccoli": 1086,
      "sti": 1087,
      "four▁": 1088,
      "il▁": 1089,
      "bru": 1090,
      "gga": 1091,
      "a▁bath": 1092,
      "ine▁": 1093,
      "that▁are▁": 1094,
      "with▁his▁": 1095,
      "aga": 1096,
      "es▁and▁": 1097,
      "chee": 1098,
      "tennis▁player▁": 1099,
      "off": 1100,
      "vase▁": 1101,
      "visi": 1102,
      "again": 1103,
      "standing▁in▁a▁": 1104,
      "ima": 1105,
      "playing▁a▁": 1106,
      "ab": 1107,
      "cow▁": 1108,
      "with▁two▁": 1109,
      "against▁": 1110,
      "sitting▁on▁a▁b": 1111,
      "standing▁on▁a▁": 1112,
      "over": 1113,
      "reen▁": 1114,
      "cing▁": 1115,
      "taken▁": 1116,
      "and▁blue▁": 1117,
      "us": 1118,
      "picture": 1119,
      "passeng": 1120,
      "zebras▁": 1121,
      "bot": 1122,
      "row▁": 1123,
      "ant▁": 1124,
      "bla": 1125,
      "ved▁": 1126,
      "ching▁": 1127,
      "posing▁": 1128,
      "gg": 1129,
      "rock": 1130,
      "mat": 1131,
      "with▁an▁": 1132,
      "ator": 1133,
      "baseball▁player▁": 1134,
      "plate▁of▁": 1135,
      "in▁the▁background": 1136,
      "jo": 1137,
      "cutting▁": 1138,
      "key": 1139,
      "G▁": 1140,
      "looking▁at▁": 1141,
      "hair": 1142,
      "er▁is▁": 1143,
      "right▁": 1144,
      "couch▁": 1145,
      "lar▁": 1146,
      "we": 1147,
      "walk▁": 1148,
      "smiling▁": 1149,
      "es▁are▁": 1150,
      "ov": 1151,
      "broccoli": 1152,
      "purple▁": 1153,
      "ci": 1154,
      "blu": 1155,
      "fence": 1156,
      "fore": 1157,
      "Two▁people▁": 1158,
      "prepar": 1159,
      "brown": 1160,
      "each▁other▁": 1161,
      "going▁": 1162,
      "sitting▁in▁a▁": 1163,
      "lugga": 1164,
      "scen": 1165,
      "gerator": 1166,
      "na": 1167,
      "din": 1168,
      "emp": 1169,
      "soccer▁": 1170,
      "refri": 1171,
      "tele": 1172,
      "over▁a▁": 1173,
      "hal": 1174,
      "skiing▁": 1175,
      "a▁building": 1176,
      "in▁the▁middle▁": 1177,
      "skis▁": 1178,
      "by▁the▁": 1179,
      "suitca": 1180,
      "ts▁of▁": 1181,
      "cak": 1182,
      "cab": 1183,
      "plate.": 1184,
      "bik": 1185,
      "skateboard": 1186,
      "ms▁": 1187,
      "sky▁is▁": 1188,
      "on▁the▁side▁": 1189,
      "dog▁is▁": 1190,
      "A▁red▁": 1191,
      "a▁sno": 1192,
      "Four▁": 1193,
      "trees": 1194,
      "fire▁hydrant▁": 1195,
      "tracks": 1196,
      "se.": 1197,
      "ck.": 1198,
      "bat": 1199,
      "shel": 1200,
      "through▁a▁": 1201,
      "ocean▁": 1202,
      "contain": 1203,
      "brea": 1204,
      "ready▁to▁": 1205,
      "colorful▁": 1206,
      "black▁and▁white▁": 1207,
      "ssor": 1208,
      "cora": 1209,
      "air▁of▁": 1210,
      "gar": 1211,
      "beach": 1212,
      "down": 1213,
      "this▁is▁": 1214,
      "grass.": 1215,
      "form▁": 1216,
      "mb": 1217,
      "skate▁": 1218,
      "refrigerator": 1219,
      "mic": 1220,
      "big▁": 1221,
      "sitting▁at▁a▁": 1222,
      "getting▁": 1223,
      "shing▁": 1224,
      "driving▁": 1225,
      "lean": 1226,
      "ked▁": 1227,
      "ench▁": 1228,
      "in▁the▁background.": 1229,
      "from▁the▁": 1230,
      "cow": 1231,
      "on▁the▁ground": 1232,
      "rail": 1233,
      "decora": 1234,
      "show": 1235,
      "double▁": 1236,
      "mountain▁": 1237,
      "cker▁": 1238,
      "players▁": 1239,
      "who▁": 1240,
      "micro": 1241,
      "a▁big▁": 1242,
      "image▁": 1243,
      "ty": 1244,
      "counter▁": 1245,
      "cont": 1246,
      "from▁a▁": 1247,
      "in▁the▁air": 1248,
      "de▁of▁": 1249,
      "inter": 1250,
      "surroun": 1251,
      "table▁with▁": 1252,
      "A▁train▁": 1253,
      "vari": 1254,
      "teddy▁bear▁": 1255,
      "fle": 1256,
      "bike▁": 1257,
      "pair▁of▁": 1258,
      "red": 1259,
      "a▁group▁of▁": 1260,
      "shirt▁is▁": 1261,
      "ING▁": 1262,
      "ct": 1263,
      "pat": 1264,
      "deo▁": 1265,
      "near▁the▁": 1266,
      "standing▁next▁to▁": 1267,
      "clouds▁": 1268,
      "tower▁": 1269,
      "is": 1270,
      "striped▁": 1271,
      "ER": 1272,
      "fre": 1273,
      "older▁": 1274,
      "icycle▁": 1275,
      "fur": 1276,
      "grazing▁": 1277,
      "a▁building▁": 1278,
      "woman▁is▁": 1279,
      "ulti": 1280,
      "es▁a▁": 1281,
      "s▁in▁the▁": 1282,
      "There▁are▁": 1283,
      "green": 1284,
      "staur": 1285,
      "travel": 1286,
      "motorcycle": 1287,
      "mirror": 1288,
      "sink▁": 1289,
      "food": 1290,
      "something▁": 1291,
      "umb": 1292,
      "standing▁in▁the▁": 1293,
      "pole": 1294,
      "tan▁": 1295,
      "restaur": 1296,
      "stic▁": 1297,
      "dress▁": 1298,
      "waiting▁": 1299,
      "brick▁": 1300,
      "covered▁in▁": 1301,
      "roll": 1302,
      "Black▁": 1303,
      "remo": 1304,
      "D▁": 1305,
      "grap": 1306,
      "sink": 1307,
      "hic": 1308,
      "pit": 1309,
      "s▁in▁": 1310,
      "mirror▁": 1311,
      "that▁has▁": 1312,
      "cked▁": 1313,
      "a▁red▁": 1314,
      "Lar": 1315,
      "Some▁": 1316,
      "spe": 1317,
      "airplan": 1318,
      "made▁of▁": 1319,
      "lank": 1320,
      "camera▁": 1321,
      "have▁": 1322,
      "painted▁": 1323,
      "adul": 1324,
      "ste": 1325,
      "ge.": 1326,
      "way": 1327,
      "cho": 1328,
      "sky.": 1329,
      "birds▁": 1330,
      "ght": 1331,
      "frisbee▁": 1332,
      "cross": 1333,
      "bananas▁": 1334,
      "in▁his▁": 1335,
      "man▁wearing▁": 1336,
      "Large▁": 1337,
      "pil": 1338,
      "airpor": 1339,
      "into▁the▁": 1340,
      "shi": 1341,
      "s▁of▁": 1342,
      "cows▁": 1343,
      "tree": 1344,
      "ny▁": 1345,
      "empty▁": 1346,
      "ves": 1347,
      "jean": 1348,
      "leaves▁": 1349,
      "AR": 1350,
      "sian▁": 1351,
      "side.": 1352,
      "c▁": 1353,
      "fruit▁": 1354,
      "around▁a▁": 1355,
      "cabin": 1356,
      "behind▁a▁": 1357,
      "like▁": 1358,
      "cloudy▁": 1359,
      "video▁": 1360,
      "seat": 1361,
      "for▁the▁": 1362,
      "line▁": 1363,
      "hat": 1364,
      "perform": 1365,
      "cat▁is▁": 1366,
      "cell▁phone": 1367,
      "The▁man▁is▁": 1368,
      "count": 1369,
      "surfboard▁": 1370,
      "display": 1371,
      "girls▁": 1372,
      "A▁brown▁": 1373,
      "dogs▁": 1374,
      "men": 1375,
      "T▁": 1376,
      "next▁to▁the▁": 1377,
      "televisi": 1378,
      "working▁": 1379,
      "A▁woman▁is▁": 1380,
      "head": 1381,
      "sel": 1382,
      "black▁and▁": 1383,
      "can": 1384,
      "d▁.": 1385,
      "made▁": 1386,
      "bet": 1387,
      "pole▁": 1388,
      "up▁of▁a▁": 1389,
      "slope": 1390,
      "A▁bathroom▁": 1391,
      "in▁the▁air▁": 1392,
      "vehic": 1393,
      "shirt▁and▁": 1394,
      "hill▁": 1395,
      "herd▁of▁": 1396,
      "A▁young▁boy▁": 1397,
      "stat": 1398,
      "m.": 1399,
      "enclo": 1400,
      "ffe": 1401,
      "ween▁": 1402,
      "walks▁": 1403,
      "bar": 1404,
      "ball.": 1405,
      "no▁": 1406,
      "black": 1407,
      "passenger▁": 1408,
      "d.▁": 1409,
      "stone▁": 1410,
      "hu": 1411,
      "sitting▁on▁top▁of▁a▁": 1412,
      "walk": 1413,
      "cra": 1414,
      "wine▁": 1415,
      "between▁": 1416,
      "cking▁": 1417,
      "high▁": 1418,
      "peop": 1419,
      "sand▁": 1420,
      "col": 1421,
      "mark": 1422,
      "clu": 1423,
      "Fri": 1424,
      "a▁sur": 1425,
      "bench": 1426,
      "cha": 1427,
      "A▁person▁is▁": 1428,
      "sweat": 1429,
      "donu": 1430,
      "face▁": 1431,
      "ju": 1432,
      "A▁young▁man▁": 1433,
      "AN": 1434,
      "at▁an▁": 1435,
      "camera": 1436,
      "woman": 1437,
      "a▁bow": 1438,
      "concre": 1439,
      "look▁": 1440,
      "m▁.": 1441,
      "blue": 1442,
      "ts▁and▁": 1443,
      "photograp": 1444,
      "tea": 1445,
      "there▁is▁": 1446,
      "white▁and▁": 1447,
      "bran": 1448,
      "street▁.": 1449,
      "ve.": 1450,
      "round▁": 1451,
      "display▁": 1452,
      "age▁": 1453,
      "trees.": 1454,
      "any▁": 1455,
      "cloth": 1456,
      "leaning▁": 1457,
      "over▁the▁": 1458,
      "enjo": 1459,
      "let": 1460,
      "bl": 1461,
      "into▁a▁": 1462,
      "numb": 1463,
      "spo": 1464,
      "decker▁": 1465,
      "skateboarder▁": 1466,
      "dra": 1467,
      "hit▁": 1468,
      "plate▁with▁": 1469,
      "doing▁a▁": 1470,
      "teddy▁bear": 1471,
      "out▁to▁": 1472,
      "cen": 1473,
      "uti": 1474,
      "multi": 1475,
      "refle": 1476,
      "boys▁": 1477,
      "set▁": 1478,
      "train▁is▁": 1479,
      "ced▁": 1480,
      "under▁a▁": 1481,
      "during▁the▁": 1482,
      "A▁baseball▁player▁": 1483,
      "re.": 1484,
      "coffe": 1485,
      "Frisbe": 1486,
      "gs▁": 1487,
      "ob": 1488,
      "swi": 1489,
      "a▁close▁": 1490,
      "standing▁on▁": 1491,
      "tie▁": 1492,
      "on▁a▁white▁": 1493,
      "cli": 1494,
      "person": 1495,
      "drin": 1496,
      "area.": 1497,
      "cut▁": 1498,
      "in▁a▁b": 1499,
      "sleeping▁": 1500,
      "le▁of▁": 1501,
      "mal▁": 1502,
      "kids▁": 1503,
      "Young▁": 1504,
      "jacket": 1505,
      "Bo": 1506,
      "outdoor▁": 1507,
      "stor": 1508,
      "wall.": 1509,
      "watching▁": 1510,
      "snowy▁": 1511,
      "ned▁": 1512,
      "plastic▁": 1513,
      "An▁old▁": 1514,
      "lots▁of▁": 1515,
      "trick▁": 1516,
      "boarder▁": 1517,
      "hands▁": 1518,
      "ag": 1519,
      "stra": 1520,
      "set": 1521,
      "traveling▁": 1522,
      "stop▁sign▁": 1523,
      "row▁of▁": 1524,
      "squ": 1525,
      "open": 1526,
      "ey": 1527,
      "chi": 1528,
      "jet▁": 1529,
      "snow.": 1530,
      "kni": 1531,
      "et.": 1532,
      "pping▁": 1533,
      "cheese▁": 1534,
      "in▁a▁blue▁": 1535,
      "in▁the▁sky": 1536,
      "bowl▁": 1537,
      "e▁.": 1538,
      "ram": 1539,
      "in▁a▁field▁": 1540,
      "t▁is▁": 1541,
      "sse": 1542,
      "rock▁": 1543,
      "A▁child▁": 1544,
      "luggage▁": 1545,
      "cake": 1546,
      "dressed▁in▁": 1547,
      "s▁with▁": 1548,
      "zoo": 1549,
      "monit": 1550,
      "carro": 1551,
      "dough": 1552,
      "Two▁women▁": 1553,
      "on▁a▁table": 1554,
      "This▁is▁a▁": 1555,
      "parking▁lo": 1556,
      "two▁people▁": 1557,
      "ers.": 1558,
      "surfa": 1559,
      "a▁boy▁": 1560,
      "dge▁": 1561,
      "sau": 1562,
      "toy▁": 1563,
      "elephant": 1564,
      "Wi": 1565,
      "photograph": 1566,
      "statu": 1567,
      "swinging▁": 1568,
      "picture▁of▁a▁": 1569,
      "side▁of▁": 1570,
      "trun": 1571,
      "and▁woman▁": 1572,
      "ards▁": 1573,
      "atta": 1574,
      "and▁a▁woman▁": 1575,
      "broccoli▁": 1576,
      "animal▁": 1577,
      "eating▁a▁": 1578,
      "a▁bunch▁of▁": 1579,
      "mm": 1580,
      "and▁yellow▁": 1581,
      "t-": 1582,
      "nut": 1583,
      "ground.": 1584,
      "street▁sign▁": 1585,
      "ap": 1586,
      "distan": 1587,
      "corner▁": 1588,
      "picture▁of▁": 1589,
      "a▁bathroom▁": 1590,
      "truck": 1591,
      "on▁.": 1592,
      "Many▁": 1593,
      "ON▁": 1594,
      "wave": 1595,
      "s▁a▁": 1596,
      "sci": 1597,
      "topped▁": 1598,
      "female▁": 1599,
      "box": 1600,
      "work": 1601,
      "couch": 1602,
      "ure▁": 1603,
      "above▁the▁": 1604,
      "utiful▁": 1605,
      "in▁a▁white▁": 1606,
      "is▁on▁the▁": 1607,
      "about▁to▁": 1608,
      "the▁man▁is▁": 1609,
      "time▁": 1610,
      "fe▁": 1611,
      "id▁": 1612,
      "lines▁": 1613,
      "cal": 1614,
      "he▁": 1615,
      "a▁young▁": 1616,
      "left▁": 1617,
      "rain": 1618,
      "bask": 1619,
      "ine": 1620,
      "s▁in▁a▁": 1621,
      "she": 1622,
      "in▁the▁water": 1623,
      "kid▁": 1624,
      "making▁": 1625,
      "A▁black▁and▁white▁": 1626,
      "star": 1627,
      "A▁very▁": 1628,
      "standing▁next▁to▁a▁": 1629,
      "shado": 1630,
      "tennis▁racket": 1631,
      "lights▁": 1632,
      "was▁": 1633,
      "ers▁are▁": 1634,
      "late▁": 1635,
      "banana": 1636,
      "less▁": 1637,
      "cer": 1638,
      "various▁": 1639,
      "bal": 1640,
      "street▁sign": 1641,
      "double▁decker▁": 1642,
      "water▁.": 1643,
      "concrete▁": 1644,
      "dan": 1645,
      "surfing▁": 1646,
      "together": 1647,
      "refrigerator▁": 1648,
      "crowd▁of▁": 1649,
      "light": 1650,
      "window.": 1651,
      "fence.": 1652,
      "surrounded▁": 1653,
      "house▁": 1654,
      "shes▁": 1655,
      "an▁old▁": 1656,
      "a▁couple▁of▁": 1657,
      "half▁": 1658,
      "to▁be▁": 1659,
      "bus▁is▁": 1660,
      "can▁": 1661,
      "tan": 1662,
      "lot▁of▁": 1663,
      "at▁ni": 1664,
      "track▁": 1665,
      "paper": 1666,
      "blue▁sky▁": 1667,
      "day.": 1668,
      "ll▁": 1669,
      "ate▁": 1670,
      "den▁": 1671,
      "coffee▁": 1672,
      "A▁giraffe▁": 1673,
      "man▁in▁": 1674,
      "a▁body▁of▁": 1675,
      "game.": 1676,
      "cqu": 1677,
      "cher▁": 1678,
      "along▁the▁": 1679,
      "enjoying▁": 1680,
      "pile▁of▁": 1681,
      "cup": 1682,
      "ving▁a▁": 1683,
      "blank": 1684,
      "other": 1685,
      "cla": 1686,
      "a▁surf": 1687,
      "Asian▁": 1688,
      "a▁snow": 1689,
      "hoo": 1690,
      "beach.": 1691,
      "a▁cat▁": 1692,
      "on▁a▁table.": 1693,
      "number▁": 1694,
      "min": 1695,
      "bb": 1696,
      "san": 1697,
      "y▁of▁": 1698,
      "t▁.": 1699,
      "skier▁": 1700,
      "guit": 1701,
      "a▁dog▁": 1702,
      "toilet": 1703,
      "A▁bunch▁of▁": 1704,
      "cabinet": 1705,
      "on▁her▁": 1706,
      "bag": 1707,
      "scissor": 1708,
      "arm▁": 1709,
      "with▁some▁": 1710,
      "tennis▁court": 1711,
      "under": 1712,
      "clouds": 1713,
      "coming▁": 1714,
      "cell": 1715,
      "sing": 1716,
      "post": 1717,
      "surf▁": 1718,
      "A▁f": 1719,
      "tracks▁": 1720,
      "way.": 1721,
      "water▁is▁": 1722,
      "blo": 1723,
      "building.": 1724,
      "flying▁a▁": 1725,
      "A▁kitchen▁": 1726,
      "sed▁": 1727,
      "body▁of▁": 1728,
      "taking▁a▁": 1729,
      "in▁front▁of▁the▁": 1730,
      "bat▁": 1731,
      "ocean.": 1732,
      "standing▁in▁": 1733,
      "Green▁": 1734,
      "carri": 1735,
      "sunny▁": 1736,
      "iti": 1737,
      "ird▁": 1738,
      "preparing▁": 1739,
      "bright▁": 1740,
      "meat▁": 1741,
      "pants▁": 1742,
      "wet▁": 1743,
      "edge▁": 1744,
      "boards▁": 1745,
      "lined▁": 1746,
      "doing▁": 1747,
      "cars▁": 1748,
      "blue▁sky": 1749,
      "color▁": 1750,
      "\"▁": 1751,
      "men▁are▁": 1752,
      "and▁some▁": 1753,
      "girl▁is▁": 1754,
      "cell▁phone▁": 1755,
      "ction": 1756,
      "on▁an▁": 1757,
      "past▁": 1758,
      "es▁.": 1759,
      "hot▁dog▁": 1760,
      "rain▁": 1761,
      "kites▁": 1762,
      "rick▁": 1763,
      "food.": 1764,
      "Ba": 1765,
      "interse": 1766,
      "and▁red▁": 1767,
      "trying▁": 1768,
      "People▁are▁": 1769,
      "with▁black▁": 1770,
      "tree.": 1771,
      "uniform": 1772,
      "Ch": 1773,
      "shorts▁": 1774,
      "drinking▁": 1775,
      "attached▁": 1776,
      "mil": 1777,
      "adult▁": 1778,
      "a▁building.": 1779,
      "plane▁is▁": 1780,
      "A▁blue▁": 1781,
      "of▁an▁": 1782,
      "in▁a▁red▁": 1783,
      "on▁it▁": 1784,
      "surrounded▁by▁": 1785,
      "reading▁": 1786,
      "les": 1787,
      "outside": 1788,
      "a▁bus": 1789,
      "bowl": 1790,
      "counter": 1791,
      "holding▁an▁": 1792,
      "blon": 1793,
      "ven": 1794,
      "met▁": 1795,
      "part": 1796,
      "towards▁": 1797,
      "other.": 1798,
      "there▁are▁": 1799,
      "game": 1800,
      "arm": 1801,
      "fli": 1802,
      "green▁grass▁": 1803,
      "boy▁is▁": 1804,
      "sitting▁in▁": 1805,
      "itting▁": 1806,
      "glo": 1807,
      "park.": 1808,
      "skateboard.": 1809,
      "with▁her▁": 1810,
      "uniform▁": 1811,
      "stand": 1812,
      "short▁": 1813,
      "There▁is▁a▁": 1814,
      "qui": 1815,
      "nea": 1816,
      "waves▁": 1817,
      "controll": 1818,
      "kin": 1819,
      "up▁a▁": 1820,
      "ed.": 1821,
      "stee": 1822,
      "giraffe": 1823,
      "ation▁": 1824,
      "ramp": 1825,
      "polic": 1826,
      "home▁": 1827,
      "gather": 1828,
      "choco": 1829,
      "box▁": 1830,
      "surfer▁": 1831,
      "trying▁to▁": 1832,
      "wr": 1833,
      "they▁": 1834,
      "whe": 1835,
      "looking▁at▁a▁": 1836,
      "frisbee": 1837,
      "sitting▁in▁the▁": 1838,
      "on▁a▁plate": 1839,
      "RE": 1840,
      "s▁and▁a▁": 1841,
      "tar": 1842,
      "river": 1843,
      "a▁ball▁": 1844,
      "resting▁": 1845,
      "ily▁": 1846,
      "playing▁tenn": 1847,
      "restaurant▁": 1848,
      "surfboard": 1849,
      "screen▁": 1850,
      "ol▁": 1851,
      "flower▁": 1852,
      "side▁of▁a▁": 1853,
      "smo": 1854,
      "One▁": 1855,
      "river▁": 1856,
      "who▁is▁": 1857,
      "room▁with▁": 1858,
      "girl": 1859,
      "coat▁": 1860,
      "clock▁tower▁": 1861,
      "bag▁": 1862,
      "seat▁": 1863,
      "poin": 1864,
      "helmet▁": 1865,
      "p.": 1866,
      "pet": 1867,
      "a▁close▁up▁of▁a▁": 1868,
      "with▁red▁": 1869,
      "an▁image▁": 1870,
      "wearing▁a▁black▁": 1871,
      "using▁a▁": 1872,
      "keyboard▁": 1873,
      "lit▁": 1874,
      "parking▁met": 1875,
      "IN▁": 1876,
      "two▁men▁": 1877,
      "ard": 1878,
      "wearing▁a▁white▁": 1879,
      "glasse": 1880,
      "standing▁on▁the▁": 1881,
      "whit": 1882,
      "ges▁": 1883,
      "wil": 1884,
      "kitchen": 1885,
      "Blue▁": 1886,
      "view▁of▁a▁": 1887,
      "Red▁": 1888,
      "ck▁of▁": 1889,
      "shin": 1890,
      "train▁stati": 1891,
      "work▁": 1892,
      "past": 1893,
      "gri": 1894,
      "sits▁on▁a▁": 1895,
      "in▁white▁": 1896,
      "outdoor": 1897,
      "ler▁": 1898,
      "with▁many▁": 1899,
      "city▁street▁": 1900,
      "wel": 1901,
      "a▁boo": 1902,
      "blic▁": 1903,
      "ally▁": 1904,
      "zed▁": 1905,
      "using▁": 1906,
      "nit": 1907,
      "in▁the▁middle▁of▁a▁": 1908,
      "a▁green▁": 1909,
      "a▁baby▁": 1910,
      "chocolate▁": 1911,
      "in▁a▁field": 1912,
      "Pers": 1913,
      "under▁the▁": 1914,
      "television▁": 1915,
      "cloud": 1916,
      "rin": 1917,
      "ride▁": 1918,
      "oven▁": 1919,
      "bun": 1920,
      "person▁is▁": 1921,
      "people": 1922,
      "fruit": 1923,
      "ired▁": 1924,
      "remote▁": 1925,
      "a▁black▁and▁white▁": 1926,
      "bor": 1927,
      "umbrella.": 1928,
      "ron": 1929,
      "sty": 1930,
      "mouth▁": 1931,
      "ight▁": 1932,
      "hot": 1933,
      "public▁": 1934,
      "A▁herd▁of▁": 1935,
      "on▁a▁skateboard▁": 1936,
      "background": 1937,
      "crowd▁": 1938,
      "TV": 1939,
      "and▁two▁": 1940,
      "decorated▁": 1941,
      "mouth": 1942,
      "out▁of▁": 1943,
      "A▁little▁girl▁": 1944,
      "enclosu": 1945,
      "catch▁": 1946,
      "around▁the▁": 1947,
      "on▁the▁table": 1948,
      "kne": 1949,
      "ger▁": 1950,
      "room▁with▁a▁": 1951,
      "hitting▁": 1952,
      "A▁man▁with▁a▁": 1953,
      "haired▁": 1954,
      "sun▁": 1955,
      "do▁": 1956,
      "it's▁": 1957,
      "len": 1958,
      "guitar▁": 1959,
      "giraffe▁is▁": 1960,
      "jec": 1961,
      "in▁color": 1962,
      "Two▁young▁": 1963,
      "fee": 1964,
      "table▁with▁a▁": 1965,
      "F▁": 1966,
      "Person▁": 1967,
      "each▁other.": 1968,
      "meal▁": 1969,
      "stair": 1970,
      "A▁guy▁": 1971,
      "rides▁": 1972,
      "motorcycles▁": 1973,
      "getting▁ready▁to▁": 1974,
      "Wii▁": 1975,
      "dish▁": 1976,
      "pper": 1977,
      "ating▁": 1978,
      "red▁and▁white▁": 1979,
      "Brown▁": 1980,
      "ary▁": 1981,
      "lush▁": 1982,
      "tennis▁court▁": 1983,
      "leaves": 1984,
      "house": 1985,
      "with▁their▁": 1986,
      "place▁": 1987,
      "along▁a▁": 1988,
      "bicyc": 1989,
      "slope.": 1990,
      "book": 1991,
      "fire": 1992,
      "cake.": 1993,
      "playing▁with▁a▁": 1994,
      "ces▁": 1995,
      "kitchen.": 1996,
      "on▁the▁beach▁": 1997,
      "both▁": 1998,
      "af": 1999,
      "onal▁": 2000,
      "offic": 2001,
      "skateboarding▁": 2002,
      "floor.": 2003,
      "tooth": 2004,
      "A▁young▁girl▁": 2005,
      "in▁the▁fore": 2006,
      "alle": 2007,
      "doughnu": 2008,
      "Small▁": 2009,
      "was▁taken▁": 2010,
      "a▁train▁": 2011,
      "snow▁covered▁": 2012,
      "tee": 2013,
      "forest": 2014,
      "stum": 2015,
      ",▁one▁": 2016,
      "swimm": 2017,
      "Gro": 2018,
      "white.": 2019,
      "cir": 2020,
      "plate▁is▁": 2021,
      "these▁": 2022,
      "A▁yellow▁": 2023,
      "dining▁": 2024,
      "pon": 2025,
      "sitting▁next▁to▁": 2026,
      "tub▁": 2027,
      "blue▁and▁": 2028,
      "animals▁": 2029,
      "view▁of▁": 2030,
      "moving▁": 2031,
      "go▁": 2032,
      "during▁a▁": 2033,
      "ered▁": 2034,
      "not▁": 2035,
      "IT": 2036,
      "sting▁": 2037,
      "is▁white": 2038,
      "an▁orange▁": 2039,
      "bread▁": 2040,
      "with▁green▁": 2041,
      "wheel": 2042,
      "ere▁": 2043,
      "each▁other": 2044,
      "sidewalk.": 2045,
      "seen▁": 2046,
      "looking▁at▁the▁": 2047,
      "andwi": 2048,
      "holding▁a▁b": 2049,
      "wearing▁a▁blue▁": 2050,
      "yellow": 2051,
      "holds▁a▁": 2052,
      "scene▁": 2053,
      "ears▁": 2054,
      "tray▁": 2055,
      "a▁bike▁": 2056,
      "ten▁": 2057,
      "sitting▁next▁to▁a▁": 2058,
      "case▁": 2059,
      "desk.": 2060,
      "spor": 2061,
      "para": 2062,
      "shower▁": 2063,
      "ugh": 2064,
      "standing▁in▁front▁of▁a▁": 2065,
      "RO": 2066,
      "dire": 2067,
      "shown▁": 2068,
      "on▁the▁side▁of▁the▁": 2069,
      "thday▁": 2070,
      "dish": 2071,
      "top.": 2072,
      "vel▁": 2073,
      "and▁the▁": 2074,
      "clock": 2075,
      "been▁": 2076,
      "A▁baby▁": 2077,
      "suitcase▁": 2078,
      "ings▁": 2079,
      "playing▁tennis▁": 2080,
      "in▁a▁black▁": 2081,
      "Fi": 2082,
      "This▁is▁": 2083,
      "tub": 2084,
      "base": 2085,
      "pizza.": 2086,
      "wearing▁black▁": 2087,
      "on▁a▁wooden▁": 2088,
      "plane": 2089,
      "Tre": 2090,
      "graff": 2091,
      "in▁the▁background▁.": 2092,
      "cement▁": 2093,
      "in▁blue▁": 2094,
      "photo▁of▁a▁": 2095,
      "a▁boat▁": 2096,
      "watch▁": 2097,
      "boats▁": 2098,
      "wave.": 2099,
      "sunglasses▁": 2100,
      "tv": 2101,
      "tennis▁racket▁": 2102,
      "Frisbee▁": 2103,
      "rist": 2104,
      "struction▁": 2105,
      "OF▁": 2106,
      "bott": 2107,
      "police▁": 2108,
      "A▁living▁room▁": 2109,
      "loa": 2110,
      "across▁the▁": 2111,
      "sted▁": 2112,
      "jumps▁": 2113,
      "foot": 2114,
      "a▁tennis▁": 2115,
      "ft": 2116,
      "people▁walking▁": 2117,
      "pizza▁with▁": 2118,
      "bur": 2119,
      "k.": 2120,
      "in▁her▁": 2121,
      "sitting▁on▁a▁bench▁": 2122,
      "ood▁": 2123,
      "polar▁": 2124,
      "climb": 2125,
      "race▁": 2126,
      "ture▁": 2127,
      "is▁walking▁": 2128,
      "tou": 2129,
      "struc": 2130,
      "phon": 2131,
      "vase": 2132,
      "on▁the▁ground▁": 2133,
      "ly": 2134,
      "sala": 2135,
      "furnit": 2136,
      "A▁zebra▁": 2137,
      "is▁brown": 2138,
      "a▁ball": 2139,
      "boarding▁": 2140,
      "ction▁of▁": 2141,
      "toma": 2142,
      "photograph▁": 2143,
      "an▁elephant▁": 2144,
      "ts▁are▁": 2145,
      "them": 2146,
      "dry▁": 2147,
      "tile▁": 2148,
      "fol": 2149,
      "orange": 2150,
      "the▁sky▁is▁": 2151,
      "An▁older▁": 2152,
      "cand": 2153,
      "in▁the▁snow▁": 2154,
      "undernea": 2155,
      "paved▁": 2156,
      "Y▁": 2157,
      "pen": 2158,
      "windows▁": 2159,
      "ame▁": 2160,
      "decorati": 2161,
      "LA": 2162,
      "wra": 2163,
      "pal": 2164,
      "A▁green▁": 2165,
      "tie": 2166,
      "au": 2167,
      "man▁with▁": 2168,
      "on▁a▁beach▁": 2169,
      "stove▁": 2170,
      "tracks.": 2171,
      "topped▁with▁": 2172,
      "ring▁": 2173,
      "buses▁": 2174,
      "nice▁": 2175,
      "boy": 2176,
      ",▁a▁": 2177,
      "a▁bus▁": 2178,
      "wer▁": 2179,
      "basket": 2180,
      "little▁girl▁": 2181,
      "Group▁of▁": 2182,
      "ated▁": 2183,
      "A▁man▁riding▁": 2184,
      "MA": 2185,
      "and▁green▁": 2186,
      "t▁with▁": 2187,
      "game▁of▁": 2188,
      "sli": 2189,
      "ac": 2190,
      "across▁a▁": 2191,
      "ppy▁": 2192,
      "gold▁": 2193,
      "item": 2194,
      "slice▁of▁": 2195,
      "oul": 2196,
      "few▁": 2197,
      "um▁": 2198,
      "against▁a▁": 2199,
      "cup▁": 2200,
      "donut": 2201,
      "pool▁": 2202,
      "A▁man▁with▁": 2203,
      "shaped▁": 2204,
      "wearing▁a▁red▁": 2205,
      "curtain": 2206,
      "The▁man▁": 2207,
      "path▁": 2208,
      "a▁snow▁": 2209,
      "in▁black▁": 2210,
      "rocks▁": 2211,
      "on▁the▁street": 2212,
      "costum": 2213,
      "shed▁": 2214,
      "pulling▁": 2215,
      "choo": 2216,
      "in▁it": 2217,
      "kite": 2218,
      "ther.": 2219,
      "TO": 2220,
      "back▁of▁a▁": 2221,
      "Pho": 2222,
      "den": 2223,
      "gathered▁": 2224,
      "mach": 2225,
      "tered▁": 2226,
      "topp": 2227,
      "cooking▁": 2228,
      "hot▁dog": 2229,
      "typ": 2230,
      "chick": 2231,
      "toothbru": 2232,
      "An▁elephant▁": 2233,
      "one▁is▁": 2234,
      "city": 2235,
      "ment": 2236,
      "leg": 2237,
      "A▁lady▁": 2238,
      "covered▁with▁": 2239,
      "stripe": 2240,
      "re▁": 2241,
      "but": 2242,
      "plays▁": 2243,
      "stage▁": 2244,
      "inside▁of▁a▁": 2245,
      "plate▁of▁food▁": 2246,
      "ese▁": 2247,
      "on▁their▁": 2248,
      "Do": 2249,
      "botto": 2250,
      "ant": 2251,
      "a▁bea": 2252,
      "where▁": 2253,
      "beautiful▁": 2254,
      "on▁a▁bo": 2255,
      "just▁": 2256,
      "number▁of▁": 2257,
      "The▁sky▁is▁": 2258,
      "tennis▁court.": 2259,
      "ity▁": 2260,
      "showing▁": 2261,
      "WI": 2262,
      "tiled▁": 2263,
      "underneath▁": 2264,
      "LO": 2265,
      "t▁of▁a▁": 2266,
      "posing▁for▁a▁": 2267,
      "trail": 2268,
      "A▁woman▁in▁a▁": 2269,
      "Some": 2270,
      "vy▁": 2271,
      "beside▁a▁": 2272,
      "tarma": 2273,
      "swimming▁": 2274,
      "group▁of▁people▁": 2275,
      "ion": 2276,
      "laying▁down▁": 2277,
      "mirror.": 2278,
      "phone.": 2279,
      "patter": 2280,
      "monitor": 2281,
      "wet": 2282,
      "scre": 2283,
      "cru": 2284,
      "in▁a▁grassy▁": 2285,
      "laying▁on▁a▁": 2286,
      "ssi": 2287,
      "ey▁": 2288,
      "inclu": 2289,
      "them▁": 2290,
      "market▁": 2291,
      "with▁no▁": 2292,
      "sitting▁down▁": 2293,
      "a▁brick▁": 2294,
      "playing▁tennis": 2295,
      "with▁a▁white▁": 2296,
      "buildings▁": 2297,
      "cooked▁": 2298,
      "ling▁a▁": 2299,
      "gol": 2300,
      "put": 2301,
      "amily▁": 2302,
      "in▁a▁field.": 2303,
      "A▁man▁and▁a▁woman▁": 2304,
      "dirty▁": 2305,
      "on▁the▁road": 2306,
      "cloth▁": 2307,
      "ery▁": 2308,
      "skiers▁": 2309,
      "up▁to▁": 2310,
      "time": 2311,
      "sandy▁": 2312,
      "el▁": 2313,
      "sign.": 2314,
      "in▁the▁distan": 2315,
      "sser": 2316,
      "ces▁of▁": 2317,
      "Bu": 2318,
      "and▁brown▁": 2319,
      "van": 2320,
      "team▁": 2321,
      "side▁of▁the▁": 2322,
      "high": 2323,
      "crowd▁of▁people▁": 2324,
      "sitting▁at▁a▁table▁": 2325,
      "del": 2326,
      "todd": 2327,
      "cks": 2328,
      "Three▁people▁": 2329,
      "and▁a▁s": 2330,
      "bear▁is▁": 2331,
      "field▁of▁": 2332,
      "Black▁and▁white▁": 2333,
      "A▁bird▁": 2334,
      "office▁": 2335,
      "line▁of▁": 2336,
      "lake▁": 2337,
      "them.": 2338,
      "drink▁": 2339,
      "A▁man▁holding▁a▁": 2340,
      "close": 2341,
      "inten": 2342,
      "as▁he▁": 2343,
      "clean▁": 2344,
      "riding▁a▁skateboard▁": 2345,
      "a▁girl▁": 2346,
      "A▁tennis▁player▁": 2347,
      "dinner▁": 2348,
      "sub": 2349,
      "flat▁": 2350,
      "with▁a▁red▁": 2351,
      "jeans▁": 2352,
      "cell▁phone.": 2353,
      "is▁made▁of▁": 2354,
      "ster▁": 2355,
      "racket": 2356,
      "wearing▁blue▁": 2357,
      "snowboarder▁": 2358,
      "hand.": 2359,
      "computer": 2360,
      "dirt": 2361,
      "clear": 2362,
      "chain▁": 2363,
      "near": 2364,
      "the▁man▁": 2365,
      "after▁": 2366,
      "catch": 2367,
      "stopped▁": 2368,
      "musi": 2369,
      "objec": 2370,
      "pants": 2371,
      "construction▁": 2372,
      "pillow": 2373,
      "A▁skateboarder▁": 2374,
      "with▁people▁": 2375,
      "inside▁a▁": 2376,
      "knife▁": 2377,
      "hill.": 2378,
      "airport▁": 2379,
      "A▁little▁boy▁": 2380,
      "in▁their▁": 2381,
      "bicycle▁": 2382,
      "in▁the▁water▁": 2383,
      "together.": 2384,
      "railroad▁": 2385,
      "huge▁": 2386,
      "shadow▁": 2387,
      "man's▁": 2388,
      "tran": 2389,
      "photo▁of▁": 2390,
      "on▁white▁": 2391,
      "ige▁": 2392,
      "cta": 2393,
      "equi": 2394,
      "bathroom": 2395,
      "tion▁": 2396,
      "bush": 2397,
      "tennis▁racqu": 2398,
      "ry": 2399,
      "painting▁": 2400,
      "iti▁": 2401,
      "A▁man▁wearing▁a▁": 2402,
      "guys▁": 2403,
      "signs▁": 2404,
      "growing▁": 2405,
      "Gra": 2406,
      "with▁blue▁": 2407,
      "a▁busy▁": 2408,
      "on▁a▁bea": 2409,
      "traffic▁light▁": 2410,
      "list": 2411,
      "ball▁.": 2412,
      "Gir": 2413,
      "sandwich": 2414,
      "ton": 2415,
      "ench": 2416,
      "cap▁": 2417,
      "court": 2418,
      "in▁it.": 2419,
      "with▁its▁": 2420,
      "es▁to▁": 2421,
      "rail▁": 2422,
      "rocky▁": 2423,
      "ramp▁": 2424,
      "is▁on▁a▁": 2425,
      "Two▁giraffes▁": 2426,
      "on▁the▁beach": 2427,
      "set▁of▁": 2428,
      "car.": 2429,
      "that▁has▁a▁": 2430,
      "wire": 2431,
      "frisbee.": 2432,
      "crea": 2433,
      "smile": 2434,
      "AND▁": 2435,
      "cial▁": 2436,
      "ce▁is▁": 2437,
      ".▁▁": 2438,
      "ctri": 2439,
      "pan▁": 2440,
      "in▁a▁green▁": 2441,
      "A▁man▁and▁woman▁": 2442,
      "bikes▁": 2443,
      "city▁street.": 2444,
      "RA": 2445,
      "A▁pair▁of▁": 2446,
      "2▁": 2447,
      "pieces▁of▁": 2448,
      "A▁close▁": 2449,
      "in▁red▁": 2450,
      "country▁": 2451,
      "Pi": 2452,
      "on▁the▁wall": 2453,
      "grass▁is▁": 2454,
      "helmet": 2455,
      "fra": 2456,
      "A▁table▁": 2457,
      "frien": 2458,
      "on▁its▁": 2459,
      "Photo▁": 2460,
      "seated▁": 2461,
      "ev": 2462,
      "trees▁are▁": 2463,
      "displayed▁": 2464,
      "in▁the▁snow.": 2465,
      "a▁sandwi": 2466,
      "appears▁": 2467,
      "a▁yellow▁": 2468,
      "derly▁": 2469,
      "A▁street▁": 2470,
      "jump▁": 2471,
      "he▁is▁": 2472,
      "leather▁": 2473,
      ",▁while▁": 2474,
      "ting": 2475,
      "har": 2476,
      "a▁giraffe▁": 2477,
      "wire▁": 2478,
      "which▁": 2479,
      "tel▁": 2480,
      "chool▁": 2481,
      "is▁parked▁": 2482,
      "a▁brid": 2483,
      "on▁some▁": 2484,
      "ban": 2485,
      "spa": 2486,
      "A▁plate▁": 2487,
      "wearing▁white▁": 2488,
      "on▁a▁table▁": 2489,
      "with▁a▁large▁": 2490,
      "corn": 2491,
      "steel▁": 2492,
      "laptop.": 2493,
      "donuts▁": 2494,
      "placed▁": 2495,
      "link▁": 2496,
      "chur": 2497,
      "in▁the▁grass▁": 2498,
      "vegetables▁": 2499,
      "Si": 2500,
      "fast▁": 2501,
      "store▁": 2502,
      "pot": 2503,
      "bed.": 2504,
      "a▁man▁is▁": 2505,
      "tower": 2506,
      "forest▁": 2507,
      "watching▁a▁": 2508,
      "pota": 2509,
      "Co": 2510,
      "sal": 2511,
      "items▁": 2512,
      "on▁the▁side▁of▁a▁": 2513,
      "glass▁of▁": 2514,
      "A▁couple▁": 2515,
      "train▁tracks": 2516,
      "pack▁": 2517,
      "shoul": 2518,
      "walking▁down▁a▁": 2519,
      "on▁a▁bed▁": 2520,
      "book▁": 2521,
      "out▁of▁a▁": 2522,
      "Boy▁": 2523,
      "Men▁": 2524,
      "ican▁": 2525,
      "as▁a▁": 2526,
      "wed": 2527,
      "runway": 2528,
      "vehicle▁": 2529,
      "a▁scen": 2530,
      "in▁the▁background▁": 2531,
      "pepper": 2532,
      "in▁its▁": 2533,
      "square▁": 2534,
      "cream▁": 2535,
      "in▁the▁water.": 2536,
      "desser": 2537,
      "back▁of▁": 2538,
      "counter.": 2539,
      "by": 2540,
      "tray": 2541,
      "full▁": 2542,
      "A▁wooden▁": 2543,
      "zebras▁are▁": 2544,
      "motor▁": 2545,
      "computer.": 2546,
      "A▁pizza▁": 2547,
      "equip": 2548,
      "les.": 2549,
      "A▁man▁on▁a▁": 2550,
      "sea": 2551,
      "anana▁": 2552,
      "pave": 2553,
      "away▁": 2554,
      "holding▁the▁": 2555,
      "shelf▁": 2556,
      "him": 2557,
      "Gi": 2558,
      "an▁open▁": 2559,
      "during▁the▁day": 2560,
      "A▁horse▁": 2561,
      "lam": 2562,
      "ici": 2563,
      "others▁": 2564,
      "meat": 2565,
      "swing▁": 2566,
      "crowded▁": 2567,
      "sitting▁on▁top▁of▁": 2568,
      "cal▁": 2569,
      ",▁with▁": 2570,
      "during▁": 2571,
      "fork▁": 2572,
      "blue▁and▁white▁": 2573,
      "read▁": 2574,
      "city▁street": 2575,
      "ts.": 2576,
      "drink": 2577,
      "with▁brown▁": 2578,
      "clothing▁": 2579,
      "TH▁": 2580,
      "having▁": 2581,
      "graffiti▁": 2582,
      "take▁": 2583,
      "shows▁": 2584,
      "lush▁green▁": 2585,
      "bike": 2586,
      "pes▁": 2587,
      "video▁game▁": 2588,
      "on▁table": 2589,
      "a▁bird▁": 2590,
      "in▁the▁snow": 2591,
      "gray": 2592,
      "talking▁on▁a▁": 2593,
      "same▁": 2594,
      "toa": 2595,
      "perched▁": 2596,
      "A▁group▁of▁men▁": 2597,
      "umbrellas▁": 2598,
      "snowboard": 2599,
      "someone▁": 2600,
      "cellphone▁": 2601,
      "electri": 2602,
      "surfboard.": 2603,
      "chair.": 2604,
      "a▁sto": 2605,
      "A▁stop▁sign▁": 2606,
      "stea": 2607,
      "multiple▁": 2608,
      "serving▁": 2609,
      "side▁by▁": 2610,
      "sor": 2611,
      "and▁one▁": 2612,
      "chairs▁": 2613,
      "Five▁": 2614,
      "five▁": 2615,
      "windows": 2616,
      "statue▁": 2617,
      "thi": 2618,
      "city.": 2619,
      "station": 2620,
      "on▁a▁ba": 2621,
      "Trees▁": 2622,
      "on▁a▁street▁": 2623,
      "glasses": 2624,
      "prin": 2625,
      "roof▁": 2626,
      "path": 2627,
      "gear▁": 2628,
      "coat": 2629,
      "bowl▁of▁": 2630,
      "ged▁": 2631,
      "with▁several▁": 2632,
      "CK": 2633,
      "nch▁": 2634,
      "a▁back": 2635,
      "putting▁": 2636,
      "apple▁": 2637,
      "a▁be": 2638,
      "an▁image▁of▁a▁": 2639,
      "iling": 2640,
      "platform": 2641,
      "ely▁": 2642,
      "mouse▁": 2643,
      "feeding▁": 2644,
      "▁a▁": 2645,
      "The▁woman▁is▁": 2646,
      "ffy▁": 2647,
      "fall": 2648,
      "pra": 2649,
      "ural▁": 2650,
      "sty▁": 2651,
      "performing▁": 2652,
      "she▁": 2653,
      "brushing▁": 2654,
      "in▁mi": 2655,
      "tor▁": 2656,
      "on▁a▁sunny▁": 2657,
      "eling▁": 2658,
      "a▁bot": 2659,
      "s,▁and▁": 2660,
      "monitor▁": 2661,
      "below▁": 2662,
      "setting▁": 2663,
      "standing▁on▁top▁of▁a▁": 2664,
      "flying▁a▁kite▁": 2665,
      "bottom▁": 2666,
      "planes▁": 2667,
      "elderly▁": 2668,
      "ber": 2669,
      "a▁group▁of▁people▁": 2670,
      "standing▁around▁": 2671,
      "cap": 2672,
      "microwave▁": 2673,
      "eat▁": 2674,
      "row": 2675,
      "clean": 2676,
      "fan": 2677,
      "A▁bus▁": 2678,
      "bra": 2679,
      "fram": 2680,
      "ARE▁": 2681,
      "blanket▁": 2682,
      "wears▁": 2683,
      "throw": 2684,
      "Several▁people▁": 2685,
      "assor": 2686,
      "are▁playing▁": 2687,
      "green▁grass": 2688,
      "top▁of▁a▁": 2689,
      "a▁stop▁": 2690,
      "urin": 2691,
      "temp": 2692,
      "skir": 2693,
      "cats▁": 2694,
      "land▁": 2695,
      "intersection▁": 2696,
      "sou": 2697,
      "yard▁": 2698,
      "cart▁": 2699,
      "station▁": 2700,
      "Ro": 2701,
      "A▁picture▁of▁a▁": 2702,
      "Girl▁": 2703,
      "A▁man▁wearing▁": 2704,
      "a▁bask": 2705,
      "style▁": 2706,
      "jet": 2707,
      "banana▁": 2708,
      "A▁B": 2709,
      "snowboard▁": 2710,
      "vin": 2711,
      "d-": 2712,
      "new": 2713,
      "THER": 2714,
      "preparing▁to▁": 2715,
      "arms▁": 2716,
      "toward▁": 2717,
      "double▁decker▁bus▁": 2718,
      "tank▁": 2719,
      "a▁snowy▁": 2720,
      "run▁": 2721,
      "al.": 2722,
      "dge": 2723,
      "A▁young▁woman▁": 2724,
      "sheep": 2725,
      "L▁": 2726,
      "suitcase": 2727,
      "Zeb": 2728,
      "well▁": 2729,
      "WITH▁": 2730,
      "bel": 2731,
      "od": 2732,
      "Giraff": 2733,
      "A▁clock▁": 2734,
      "train.": 2735,
      "variet": 2736,
      "fresh▁": 2737,
      "green▁trees▁": 2738,
      "ump": 2739,
      "verti": 2740,
      "inside▁of▁": 2741,
      "pick": 2742,
      "trunk▁": 2743,
      "these▁are▁": 2744,
      "engine▁": 2745,
      "figh": 2746,
      "pose▁": 2747,
      "dern▁": 2748,
      "shelf": 2749,
      "pede": 2750,
      "doing▁a▁trick▁": 2751,
      "range▁": 2752,
      "pret": 2753,
      "es,▁": 2754,
      "hard▁": 2755,
      "hotel▁": 2756,
      "carpe": 2757,
      "passing▁": 2758,
      "staring▁": 2759,
      "plaid▁": 2760,
      "ght.": 2761,
      "stret": 2762,
      "facing▁": 2763,
      "MAN▁": 2764,
      "que▁": 2765,
      "toddler▁": 2766,
      "in▁the▁air.": 2767,
      "black▁and▁white": 2768,
      "out▁of▁the▁": 2769,
      "walking▁down▁the▁": 2770,
      "bears▁": 2771,
      "laptop▁computer▁": 2772,
      "Cat▁": 2773,
      "ctator": 2774,
      "ence▁": 2775,
      "neck▁": 2776,
      "fenced▁": 2777,
      "topping": 2778,
      "CH": 2779,
      "ST": 2780,
      "racket▁": 2781,
      "pulling▁a▁": 2782,
      "ld▁": 2783,
      "him▁.": 2784,
      "body▁of▁water": 2785,
      "kite.": 2786,
      "AT▁": 2787,
      "jump": 2788,
      "itary▁": 2789,
      "while▁another▁": 2790,
      "TV▁": 2791,
      "on▁skis▁": 2792,
      "The▁water▁is▁": 2793,
      "with▁long▁": 2794,
      "a▁bed▁": 2795,
      "a▁long▁": 2796,
      "LE": 2797,
      "flowers": 2798,
      "shion": 2799,
      "a▁surfboard▁": 2800,
      "lun": 2801,
      "standing▁in▁front▁of▁": 2802,
      "donut▁": 2803,
      "A▁mo": 2804,
      "with": 2805,
      "sweater▁": 2806,
      "school▁": 2807,
      "get▁": 2808,
      "court.": 2809,
      "deser": 2810,
      "pea": 2811,
      "he": 2812,
      "reaching▁": 2813,
      "enclosure": 2814,
      "racing▁": 2815,
      "des▁": 2816,
      "runs▁": 2817,
      "area▁with▁": 2818,
      "sheet": 2819,
      "Mo": 2820,
      "hit▁the▁": 2821,
      "eri": 2822,
      "platform▁": 2823,
      "break": 2824,
      "a▁scene▁": 2825,
      "tomato": 2826,
      "mas▁": 2827,
      "sitting▁in▁front▁of▁a▁": 2828,
      "oven": 2829,
      "motorcycle.": 2830,
      "right": 2831,
      "pulled▁": 2832,
      "Two▁people▁are▁": 2833,
      "bottle▁": 2834,
      "ral▁": 2835,
      "dog.": 2836,
      "people.": 2837,
      "a▁bowl▁of▁": 2838,
      "toilet.": 2839,
      "laying▁on▁the▁": 2840,
      "arran": 2841,
      "vie": 2842,
      "throwing▁": 2843,
      "little▁boy▁": 2844,
      "post▁": 2845,
      "skate▁board▁": 2846,
      "tage▁": 2847,
      "ON▁THE▁": 2848,
      "one▁of▁": 2849,
      "appli": 2850,
      "town▁": 2851,
      "om▁": 2852,
      "nap": 2853,
      "foot▁": 2854,
      "fac": 2855,
      "reflection▁": 2856,
      "A▁long▁": 2857,
      "with▁a▁clock▁": 2858,
      "brown▁and▁white▁": 2859,
      "feet▁": 2860,
      "on▁a▁bench▁": 2861,
      "stain": 2862,
      "A▁cat▁is▁": 2863,
      "microphone▁": 2864,
      "a▁slic": 2865,
      "leaf": 2866,
      "plant▁": 2867,
      "airplane": 2868,
      "design": 2869,
      "bridge▁": 2870,
      "wedding▁": 2871,
      "Sk": 2872,
      "sidewalk▁.": 2873,
      "comfor": 2874,
      "man▁in▁a▁": 2875,
      "cover▁": 2876,
      "Two▁men▁are▁": 2877,
      "ff▁": 2878,
      "mounted▁": 2879,
      "ke.": 2880,
      "dark": 2881,
      ",▁and▁a▁": 2882,
      "plants▁": 2883,
      "long": 2884,
      "kers▁": 2885,
      "there▁is▁a▁": 2886,
      "in▁background": 2887,
      "on▁a▁snowy▁": 2888,
      "in▁the▁ocean.": 2889,
      "in▁the▁photo": 2890,
      "sitting▁at▁": 2891,
      "outside.": 2892,
      "toilet▁and▁": 2893,
      "performing▁a▁": 2894,
      "plates▁": 2895,
      "neck": 2896,
      "it▁is▁": 2897,
      "salad▁": 2898,
      "pizza▁is▁": 2899,
      "giraffes▁are▁": 2900,
      "in▁a▁small▁": 2901,
      "chain▁link▁": 2902,
      "scoo": 2903,
      "poses▁": 2904,
      "am▁": 2905,
      "giant▁": 2906,
      "sink.": 2907,
      "football▁": 2908,
      "Sno": 2909,
      "fly▁": 2910,
      "playing▁a▁game▁of▁": 2911,
      "a▁book▁": 2912,
      "tree▁bran": 2913,
      "pretty▁": 2914,
      "a▁tall▁": 2915,
      "vest▁": 2916,
      "sticking▁": 2917,
      "lined▁up▁": 2918,
      "variety▁of▁": 2919,
      "E▁IS▁": 2920,
      "light.": 2921,
      "pitcher▁": 2922,
      "er▁.": 2923,
      "camera.": 2924,
      "Ele": 2925,
      "benches▁": 2926,
      "les▁and▁": 2927,
      "baseball▁players▁": 2928,
      "ramp.": 2929,
      "ette▁": 2930,
      "bench.": 2931,
      "out▁the▁": 2932,
      "plate▁with▁a▁": 2933,
      "in▁a▁bath": 2934,
      "lay": 2935,
      "in▁a▁parking▁lo": 2936,
      "a▁su": 2937,
      "ristmas▁": 2938,
      "shore": 2939,
      "adverti": 2940,
      "buildings.": 2941,
      "outfi": 2942,
      "railing▁": 2943,
      "WO": 2944,
      "fes": 2945,
      "roof": 2946,
      "flu": 2947,
      "tv▁": 2948,
      "standing▁outside▁": 2949,
      "with▁one▁": 2950,
      "attemp": 2951,
      "xing▁": 2952,
      "ing.▁": 2953,
      "building▁is▁": 2954,
      "ctron": 2955,
      "pizzas▁": 2956,
      "AT": 2957,
      "In": 2958,
      "cup▁of▁": 2959,
      "chicken▁": 2960,
      "a▁box▁": 2961,
      "a▁snow▁covered▁": 2962,
      "applian": 2963,
      "a▁sho": 2964,
      "having▁a▁": 2965,
      "a▁bicycle▁": 2966,
      "A▁group▁of▁people▁are▁": 2967,
      "shirt.": 2968,
      "shoes▁": 2969,
      "oranges▁": 2970,
      "cute▁": 2971,
      "HO": 2972,
      "ven▁": 2973,
      "with▁a▁blue▁": 2974,
      "Dog▁": 2975,
      "glass": 2976,
      "airplane▁is▁": 2977,
      "polar▁bear▁": 2978,
      "cting▁": 2979,
      "ton▁": 2980,
      "in▁the▁middle▁of▁the▁": 2981,
      "what▁": 2982,
      "rider▁": 2983,
      "on▁a▁plate.": 2984,
      "at▁a▁table▁": 2985,
      "A▁bed▁": 2986,
      "a▁baseball▁player▁": 2987,
      "eath▁": 2988,
      "truck.": 2989,
      "vases▁": 2990,
      "types▁of▁": 2991,
      "fessi": 2992,
      "CO": 2993,
      "l.": 2994,
      "Three▁men▁": 2995,
      "produ": 2996,
      "ban▁": 2997,
      "in▁the▁ocean": 2998,
      "camera▁.": 2999,
      "spla": 3000,
      "a▁wooden▁": 3001,
      "ble": 3002,
      "track.": 3003,
      "ctive▁": 3004,
      "dy": 3005,
      "Two▁children▁": 3006,
      "on▁a▁bi": 3007,
      "mountain.": 3008,
      "zoo▁": 3009,
      "horse.": 3010,
      "batter▁": 3011,
      "furniture▁": 3012,
      "cy▁": 3013,
      "wide▁": 3014,
      "floating▁": 3015,
      "in▁the▁sky.": 3016,
      "brown▁and▁": 3017,
      "airport": 3018,
      "on▁the▁floor": 3019,
      "spea": 3020,
      "n.": 3021,
      "nic▁": 3022,
      "A▁tall▁": 3023,
      "A▁big▁": 3024,
      "rela": 3025,
      "divi": 3026,
      "flag▁": 3027,
      "A▁surfer▁": 3028,
      "field▁.": 3029,
      "building▁with▁": 3030,
      "stuffed▁animal": 3031,
      "tie.": 3032,
      "picture.": 3033,
      "and▁other▁": 3034,
      "clouds▁in▁the▁sky": 3035,
      "at▁night▁": 3036,
      "racqu": 3037,
      "t-shirt▁": 3038,
      "instru": 3039,
      "beige▁": 3040,
      "poles▁": 3041,
      "elephant▁is▁": 3042,
      "A▁motorcycle▁": 3043,
      "too": 3044,
      "elephants▁are▁": 3045,
      "beneath▁": 3046,
      "in▁the▁grass": 3047,
      "moti": 3048,
      "palm▁": 3049,
      "court▁": 3050,
      "carrying▁a▁": 3051,
      "ER▁": 3052,
      "birthday▁": 3053,
      "atter▁": 3054,
      "remote▁cont": 3055,
      "thick▁": 3056,
      "tricks▁": 3057,
      "dancing▁": 3058,
      "at.": 3059,
      "ong": 3060,
      "supp": 3061,
      "Stre": 3062,
      "is▁holding▁a▁": 3063,
      "couch.": 3064,
      "skating▁": 3065,
      "catcher▁": 3066,
      "mercial▁": 3067,
      "pointing▁": 3068,
      "in▁a▁large▁": 3069,
      "throw▁": 3070,
      "off▁the▁": 3071,
      "electron": 3072,
      "face": 3073,
      "truck▁is▁": 3074,
      "appears▁to▁be▁": 3075,
      "playing▁the▁": 3076,
      "stick▁": 3077,
      "intendo▁": 3078,
      "p▁.": 3079,
      "red▁and▁": 3080,
      "dee": 3081,
      "keyboard": 3082,
      "a▁sandwich▁": 3083,
      "AL": 3084,
      "turned▁": 3085,
      "busy▁": 3086,
      "on▁the▁street▁": 3087,
      "tial▁": 3088,
      "on▁a▁bu": 3089,
      "fish▁": 3090,
      "playing▁with▁": 3091,
      "runway.": 3092,
      "attached▁to▁": 3093,
      "subway▁": 3094,
      "A▁male▁": 3095,
      "military▁": 3096,
      "potato": 3097,
      "hold▁": 3098,
      "park▁bench▁": 3099,
      "clothes▁": 3100,
      "The▁people▁are▁": 3101,
      "on▁top▁of▁the▁": 3102,
      "sail": 3103,
      "dev": 3104,
      "Pic": 3105,
      "scar": 3106,
      "man▁wearing▁a▁": 3107,
      "ves.": 3108,
      "wall▁is▁": 3109,
      "sk▁": 3110,
      "a▁horse▁": 3111,
      "blanket": 3112,
      "holding▁up▁": 3113,
      "pract": 3114,
      "IR": 3115,
      "prote": 3116,
      "wii▁": 3117,
      "ellow▁": 3118,
      "feat": 3119,
      "standing▁near▁": 3120,
      "looks▁like▁": 3121,
      "surface": 3122,
      "making▁a▁": 3123,
      "Train▁": 3124,
      "lamp": 3125,
      "him▁": 3126,
      "clut": 3127,
      "cheese": 3128,
      "by.": 3129,
      "mess": 3130,
      "A▁female▁": 3131,
      "forest.": 3132,
      "phones▁": 3133,
      "wooded▁": 3134,
      "under▁an▁": 3135,
      "EN": 3136,
      "arrow▁": 3137,
      "on▁a▁skateboard": 3138,
      "shorts": 3139,
      "sheep▁are▁": 3140,
      "cted▁": 3141,
      "green▁and▁": 3142,
      "ring": 3143,
      "ior▁": 3144,
      "Pizz": 3145,
      "end▁": 3146,
      "ical▁": 3147,
      "cast": 3148,
      "gril": 3149,
      "pole.": 3150,
      "between▁two▁": 3151,
      "up.": 3152,
      "LE▁": 3153,
      "says▁": 3154,
      "on▁the▁ground.": 3155,
      "wall▁.": 3156,
      "is▁black": 3157,
      "tarmac": 3158,
      "erse": 3159,
      "fessional▁": 3160,
      "buildings": 3161,
      "balan": 3162,
      "blond▁": 3163,
      "runway▁": 3164,
      "a▁man▁wearing▁a▁": 3165,
      "sink▁and▁": 3166,
      "screen": 3167,
      "grey": 3168,
      "ang": 3169,
      "cat▁laying▁": 3170,
      "ure": 3171,
      "plates▁of▁": 3172,
      "on▁ski": 3173,
      "lond▁": 3174,
      "throwing▁a▁": 3175,
      "age": 3176,
      "van▁": 3177,
      "to▁catch▁": 3178,
      "above▁a▁": 3179,
      "A▁bathroom▁with▁a▁": 3180,
      "the▁cat▁is▁": 3181,
      "ken▁": 3182,
      "jerse": 3183,
      "als▁": 3184,
      "check": 3185,
      "parking▁meter▁": 3186,
      "a▁bottle▁": 3187,
      "slope▁": 3188,
      "iness▁": 3189,
      "living▁room.": 3190,
      "egg": 3191,
      "swinging▁a▁": 3192,
      "Amer": 3193,
      "occer▁": 3194,
      "atop▁": 3195,
      "sh.": 3196,
      "ead▁": 3197,
      "train▁on▁the▁": 3198,
      "player": 3199,
      "trees▁and▁": 3200,
      "orn": 3201,
      "teen": 3202,
      "jeans": 3203,
      "is.": 3204,
      "tro": 3205,
      "ts▁.": 3206,
      "with▁a▁black▁": 3207,
      "on▁a▁bed": 3208,
      "covering▁the▁": 3209,
      "writ": 3210,
      "rug": 3211,
      "held▁": 3212,
      "A▁couple▁of▁people▁": 3213,
      "beside▁the▁": 3214,
      "center▁": 3215,
      "foun": 3216,
      "in▁a▁room.": 3217,
      "shopping▁": 3218,
      "container▁": 3219,
      "fet": 3220,
      "wea": 3221,
      "legs▁": 3222,
      "pastu": 3223,
      "store": 3224,
      "tail": 3225,
      "bedroom▁": 3226,
      "fire▁hydrant": 3227,
      "ate": 3228,
      "An▁orange▁": 3229,
      "site▁": 3230,
      "bow▁": 3231,
      "onion": 3232,
      "field▁with▁": 3233,
      "Clo": 3234,
      "man▁holding▁": 3235,
      "A▁toilet▁": 3236,
      "A▁group▁of▁young▁": 3237,
      "desk▁with▁a▁": 3238,
      "calm▁": 3239,
      "including▁": 3240,
      "a▁gray▁": 3241,
      "two▁women▁": 3242,
      "winter▁": 3243,
      "slices▁of▁": 3244,
      "scene": 3245,
      "The▁person▁is▁": 3246,
      "mountains▁": 3247,
      "train▁on▁": 3248,
      "as▁the▁": 3249,
      "ation": 3250,
      "list▁": 3251,
      "A▁row▁of▁": 3252,
      "is▁sitting▁": 3253,
      "pedestri": 3254,
      "spectator": 3255,
      "icing▁": 3256,
      "one": 3257,
      "bananas": 3258,
      "UN": 3259,
      "flowers.": 3260,
      "deep▁": 3261,
      "ans▁": 3262,
      "lows▁": 3263,
      "rope▁": 3264,
      "sof": 3265,
      "laugh": 3266,
      "kneeling▁": 3267,
      "A▁boat▁": 3268,
      "lawn▁": 3269,
      "three▁people▁": 3270,
      "pati": 3271,
      "sauce▁": 3272,
      "smiles▁": 3273,
      "with▁lots▁of▁": 3274,
      "a▁beach▁": 3275,
      "crossing▁": 3276,
      "Little▁": 3277,
      "Yellow▁": 3278,
      "thing": 3279,
      "a▁bear▁": 3280,
      "A▁young▁child▁": 3281,
      "flying▁through▁the▁": 3282,
      "Man▁is▁": 3283,
      "commercial▁": 3284,
      "ckey▁": 3285,
      "a▁bir": 3286,
      "stacked▁": 3287,
      "photo▁was▁taken▁": 3288,
      "against▁the▁": 3289,
      "ters▁": 3290,
      "suit▁and▁": 3291,
      "cutting▁a▁": 3292,
      "To": 3293,
      "t▁and▁": 3294,
      "river.": 3295,
      "Bi": 3296,
      "bushes▁": 3297,
      "church▁": 3298,
      "in▁a▁kitchen▁": 3299,
      "while▁a▁": 3300,
      "An▁airplane▁": 3301,
      "fore▁": 3302,
      "steps▁": 3303,
      "eaten▁": 3304,
      "vintage▁": 3305,
      "et▁of▁": 3306,
      "eep▁": 3307,
      "used▁": 3308,
      "french▁": 3309,
      "blur": 3310,
      "rink": 3311,
      "A▁snowboarder▁": 3312,
      "war": 3313,
      "silver": 3314,
      "standing▁next▁to▁each▁other▁": 3315,
      "ham": 3316,
      "tall": 3317,
      "case": 3318,
      "so▁": 3319,
      "teeth▁": 3320,
      "living▁room": 3321,
      "on▁a▁blue▁": 3322,
      "covering▁": 3323,
      "him.": 3324,
      "Someone▁": 3325,
      "A▁street▁sign▁": 3326,
      "in▁a▁park▁": 3327,
      "light▁brown▁": 3328,
      "ground▁is▁": 3329,
      "3▁": 3330,
      "A▁P": 3331,
      "picnic▁": 3332,
      "house.": 3333,
      "self▁": 3334,
      "hat▁and▁": 3335,
      "tin": 3336,
      "ze▁": 3337,
      "art▁": 3338,
      "outside▁.": 3339,
      "stripes": 3340,
      "a▁bowl▁": 3341,
      "-haired▁": 3342,
      "fin": 3343,
      "gging▁": 3344,
      "sits▁on▁the▁": 3345,
      "ceram": 3346,
      "single▁": 3347,
      "stly▁": 3348,
      "watches▁": 3349,
      "alone▁": 3350,
      "pack": 3351,
      "out▁a▁": 3352,
      "reads▁": 3353,
      "A▁dog▁is▁": 3354,
      "mouth.": 3355,
      "daytime": 3356,
      "base▁": 3357,
      "two▁giraffes▁": 3358,
      "pizza▁on▁a▁": 3359,
      "as▁they▁": 3360,
      "oven.": 3361,
      "pen▁": 3362,
      "Baseball▁": 3363,
      "see": 3364,
      "ds▁of▁": 3365,
      "mak": 3366,
      "books▁": 3367,
      "bit": 3368,
      "ders▁": 3369,
      "bread": 3370,
      "station.": 3371,
      "ddle": 3372,
      "light▁blue▁": 3373,
      "spra": 3374,
      "cows▁are▁": 3375,
      "woman's▁": 3376,
      "ath": 3377,
      "The▁cat▁is▁": 3378,
      "sign▁is▁": 3379,
      "equipment▁": 3380,
      "onto▁": 3381,
      "small": 3382,
      "among▁": 3383,
      "vol": 3384,
      "Air": 3385,
      "key▁": 3386,
      "truck▁parked▁": 3387,
      "daytime▁": 3388,
      "doughnut": 3389,
      "left": 3390,
      "make▁": 3391,
      "sure▁": 3392,
      "sla": 3393,
      "with▁yellow▁": 3394,
      "tied▁": 3395,
      "es.▁": 3396,
      "stick": 3397,
      "Pa": 3398,
      "A▁picture▁of▁": 3399,
      "turn▁": 3400,
      "writing▁": 3401,
      "floral▁": 3402,
      "head.": 3403,
      "sliced▁": 3404,
      "a▁very▁": 3405,
      "lays▁": 3406,
      "towel": 3407,
      "overlooking▁": 3408,
      "driving▁down▁a▁": 3409,
      "ladi": 3410,
      "ssing▁": 3411,
      "wav": 3412,
      "ment▁of▁": 3413,
      "on▁a▁white▁plate": 3414,
      "in▁the▁wil": 3415,
      "carriage▁": 3416,
      "near▁some▁": 3417,
      "dock▁": 3418,
      "net▁": 3419,
      "surrounding▁": 3420,
      "standing": 3421,
      "top▁of▁": 3422,
      "rolling▁": 3423,
      "served▁": 3424,
      "a▁guy▁": 3425,
      "rug▁": 3426,
      "trick": 3427,
      "the▁other▁": 3428,
      "on▁the▁beach.": 3429,
      "before▁": 3430,
      "Tall▁": 3431,
      "body▁": 3432,
      "dogs▁are▁": 3433,
      "and▁an▁": 3434,
      "Two▁zebras▁": 3435,
      "on▁a▁baseball▁": 3436,
      "lap▁": 3437,
      "ulp": 3438,
      "bathroom.": 3439,
      "pin": 3440,
      "aroun": 3441,
      "riding▁on▁a▁": 3442,
      "a▁box": 3443,
      "in▁an▁open▁": 3444,
      "circu": 3445,
      "A▁skier▁": 3446,
      "A▁woman▁in▁": 3447,
      "towel▁": 3448,
      "direction": 3449,
      "cake▁with▁": 3450,
      "workers▁": 3451,
      "lamp▁": 3452,
      "The▁young▁": 3453,
      "A▁man▁that▁is▁": 3454,
      "vegetables.": 3455,
      "bus.": 3456,
      "cast▁": 3457,
      "pillow▁": 3458,
      "A▁plate▁of▁": 3459,
      "veg": 3460,
      "wrapped▁": 3461,
      "in▁the▁ocean▁": 3462,
      "Children▁": 3463,
      "mix": 3464,
      "takes▁": 3465,
      "Elephan": 3466,
      "The▁two▁": 3467,
      "A▁person▁on▁a▁": 3468,
      "compet": 3469,
      "hotdog▁": 3470,
      "electric▁": 3471,
      "view": 3472,
      "pitch": 3473,
      "them▁.": 3474,
      "police▁offic": 3475,
      "ali": 3476,
      "table▁is▁": 3477,
      "eyes▁": 3478,
      "watching▁the▁": 3479,
      "airport.": 3480,
      "woman▁wearing▁": 3481,
      "building▁.": 3482,
      "tim": 3483,
      "background▁": 3484,
      "American▁": 3485,
      "a▁bed": 3486,
      "a▁bench▁": 3487,
      "on▁the▁plate": 3488,
      "dium▁": 3489,
      "gaz": 3490,
      "red,▁": 3491,
      "off▁a▁": 3492,
      "is▁sitting▁on▁a▁": 3493,
      "a▁tennis▁ball▁": 3494,
      "A▁computer▁": 3495,
      "surfboards▁": 3496,
      "plane▁flying▁": 3497,
      "professional▁": 3498,
      "Pizza▁": 3499,
      "▁▁": 3500,
      "zebra▁is▁": 3501,
      "fully▁": 3502,
      "towards▁the▁": 3503,
      "cle▁": 3504,
      "A▁vase▁": 3505,
      "power▁": 3506,
      "ds▁are▁": 3507,
      "bathroom▁with▁a▁": 3508,
      "a▁baseball▁bat▁": 3509,
      "flag": 3510,
      "fer": 3511,
      "A▁sandwich▁": 3512,
      "A▁woman▁holding▁a▁": 3513,
      "in▁this▁": 3514,
      "on▁display": 3515,
      "is▁shown▁": 3516,
      "cattle▁": 3517,
      "Car": 3518,
      "Christmas▁": 3519,
      "flies▁": 3520,
      "A▁smiling▁": 3521,
      "door.": 3522,
      "a▁lady▁": 3523,
      "white▁and▁blue▁": 3524,
      "DO": 3525,
      "sco": 3526,
      "a▁number▁of▁": 3527,
      "the▁woman▁is▁": 3528,
      "ches▁of▁": 3529,
      "lands": 3530,
      "horses▁are▁": 3531,
      "containing▁": 3532,
      "the▁train▁is▁": 3533,
      "is▁being▁": 3534,
      "coa": 3535,
      "riding▁a▁wave▁": 3536,
      "scissors▁": 3537,
      "tennis▁racquet▁": 3538,
      "onto▁a▁": 3539,
      "kitten▁": 3540,
      "green.": 3541,
      "blue.": 3542,
      "tat": 3543,
      "computers▁": 3544,
      "decorative▁": 3545,
      "elephant.": 3546,
      "home": 3547,
      "a▁bar": 3548,
      "card": 3549,
      "rides▁a▁": 3550,
      "in▁the▁foreground": 3551,
      "Two▁dogs▁": 3552,
      "and▁a▁man▁": 3553,
      "sized▁": 3554,
      "meat▁and▁": 3555,
      "blonde▁": 3556,
      "tially▁": 3557,
      "ceramic▁": 3558,
      "the▁ball▁": 3559,
      "rice▁": 3560,
      "stove": 3561,
      "on▁display▁": 3562,
      "fridge▁": 3563,
      "on▁it.▁": 3564,
      "stainless▁": 3565,
      "Hor": 3566,
      "on▁a▁dirt▁": 3567,
      "surf▁board▁": 3568,
      "stil": 3569,
      "ction.": 3570,
      "vegetable▁": 3571,
      "catching▁a▁": 3572,
      "in▁water": 3573,
      "closed▁": 3574,
      "street▁with▁": 3575,
      "fashion": 3576,
      "upside▁": 3577,
      "trunk": 3578,
      "group▁": 3579,
      "giraffes": 3580,
      "restaurant": 3581,
      "A▁cow▁": 3582,
      "spread▁": 3583,
      "drawn▁": 3584,
      "oni▁": 3585,
      "colle": 3586,
      "climbing▁": 3587,
      "trash▁": 3588,
      "singing▁": 3589,
      "Street▁": 3590,
      "keyboard.": 3591,
      "surface▁": 3592,
      "P▁": 3593,
      "pel": 3594,
      "a▁bright▁": 3595,
      "in▁the▁grass.": 3596,
      "up▁the▁": 3597,
      "shirtless▁": 3598,
      "bird": 3599,
      "shiny▁": 3600,
      "Food▁": 3601,
      "vest": 3602,
      "thin▁": 3603,
      "on▁plate": 3604,
      "enn": 3605,
      "curtain▁": 3606,
      "yar": 3607,
      "The▁train▁is▁": 3608,
      "sofa▁": 3609,
      "ark▁": 3610,
      "trail▁": 3611,
      "pres": 3612,
      "curb": 3613,
      "patch▁of▁": 3614,
      "DING▁": 3615,
      "ons▁": 3616,
      "kitchen▁with▁": 3617,
      "spen": 3618,
      "news": 3619,
      "A▁man▁holding▁": 3620,
      "some▁people▁": 3621,
      "bathroom▁with▁": 3622,
      "horse▁is▁": 3623,
      "The▁dog▁is▁": 3624,
      "Two▁girls▁": 3625,
      "outside▁of▁a▁": 3626,
      "Afri": 3627,
      "Nintendo▁": 3628,
      "lies▁": 3629,
      "A▁baseball▁": 3630,
      "the▁dog▁is▁": 3631,
      "our": 3632,
      "les▁are▁": 3633,
      "curb▁": 3634,
      "who▁are▁": 3635,
      "golden▁": 3636,
      "shoes": 3637,
      "UR": 3638,
      "outf": 3639,
      "a▁body▁of▁water": 3640,
      "fing": 3641,
      "gent": 3642,
      "lettu": 3643,
      "ya": 3644,
      "tour": 3645,
      "hat▁is▁": 3646,
      "enclosure.": 3647,
      "sofa": 3648,
      "in▁the▁middle▁of▁": 3649,
      "a▁child▁": 3650,
      "A▁sign▁": 3651,
      "at▁night.": 3652,
      "mostly▁": 3653,
      "a▁man▁in▁a▁": 3654,
      "gue▁": 3655,
      "ment.": 3656,
      "ct▁": 3657,
      "as▁she▁": 3658,
      "ceiling▁": 3659,
      "outside▁of▁": 3660,
      "ench.": 3661,
      "grass▁.": 3662,
      "igh": 3663,
      "tail▁": 3664,
      "urban▁": 3665,
      "line": 3666,
      "baseball": 3667,
      "waves": 3668,
      "conver": 3669,
      "lif": 3670,
      "A▁man▁in▁a▁blue▁": 3671,
      "tire▁": 3672,
      "on▁the▁sidewalk": 3673,
      "partially▁": 3674,
      "bowls▁": 3675,
      "A▁piece▁of▁": 3676,
      "inside": 3677,
      "fishing▁": 3678,
      "stuffed▁animal▁": 3679,
      "girls▁are▁": 3680,
      "large": 3681,
      "ull▁": 3682,
      "elephants": 3683,
      "leading▁": 3684,
      "night▁": 3685,
      "disc": 3686,
      "playing▁soccer▁": 3687,
      "cele": 3688,
      "sy": 3689,
      "modern▁": 3690,
      "a▁soccer▁": 3691,
      "grass▁and▁": 3692,
      "selling▁": 3693,
      "machine▁": 3694,
      "BO": 3695,
      "shirts▁": 3696,
      "doughnut▁": 3697,
      "band▁": 3698,
      "apples▁": 3699,
      "bicycles▁": 3700,
      "stun": 3701,
      "while▁holding▁": 3702,
      "a▁clear▁": 3703,
      "docked▁": 3704,
      "in▁the▁sky▁": 3705,
      "on▁the▁grass": 3706,
      "Old▁": 3707,
      "rol▁": 3708,
      "an▁a": 3709,
      "lone▁": 3710,
      "has▁been▁": 3711,
      "at▁the▁beach": 3712,
      "video▁gam": 3713,
      "dro": 3714,
      "ting.": 3715,
      "rest▁": 3716,
      "a▁bag▁": 3717,
      "front": 3718,
      "sandwiches▁": 3719,
      "dru": 3720,
      "man.": 3721,
      "road▁.": 3722,
      "breakfast▁": 3723,
      "ever": 3724,
      "family▁": 3725,
      "bus▁parked▁": 3726,
      "car▁is▁": 3727,
      "ns▁": 3728,
      "gravel▁": 3729,
      "poles": 3730,
      "a▁tree▁": 3731,
      "beds▁": 3732,
      "posit": 3733,
      "walkway▁": 3734,
      "TA": 3735,
      "WH": 3736,
      "narrow▁": 3737,
      "anti": 3738,
      "A▁fire▁hydrant▁": 3739,
      "on▁top": 3740,
      "about▁": 3741,
      "fashioned▁": 3742,
      "hear": 3743,
      "A▁few▁": 3744,
      "on▁the▁floor▁": 3745,
      "The▁woman▁": 3746,
      "next▁to▁some▁": 3747,
      "on▁a▁field.": 3748,
      "place": 3749,
      "pper▁": 3750,
      "enjoying▁the▁": 3751,
      "veggi": 3752,
      "ering▁": 3753,
      "day▁.": 3754,
      "dead▁": 3755,
      "table▁and▁": 3756,
      "motorcycle▁parked▁": 3757,
      "horses": 3758,
      "teeth": 3759,
      "show▁": 3760,
      "comm": 3761,
      "swinging▁a▁b": 3762,
      "edge▁of▁a▁": 3763,
      "gy": 3764,
      "A▁S": 3765,
      "aged▁": 3766,
      "A▁teddy▁bear▁": 3767,
      "it.▁": 3768,
      "A▁man▁standing▁": 3769,
      "train▁track": 3770,
      "pot▁": 3771,
      "riding▁a▁horse▁": 3772,
      "another▁man▁": 3773,
      "Tenn": 3774,
      "on.▁": 3775,
      "sculp": 3776,
      "frame▁": 3777,
      "Sh": 3778,
      "ats▁": 3779,
      "working▁on▁a▁": 3780,
      "a▁bridge▁": 3781,
      "walking▁in▁the▁": 3782,
      "enclosure▁": 3783,
      "the▁water▁is▁": 3784,
      "cars": 3785,
      "Tennis▁": 3786,
      "two▁zebras▁": 3787,
      "trucks▁": 3788,
      "on▁the▁sidewalk▁": 3789,
      "for▁sal": 3790,
      "audi": 3791,
      "part▁of▁a▁": 3792,
      "ds▁.": 3793,
      "ggy▁": 3794,
      "A▁man▁and▁": 3795,
      "area▁.": 3796,
      "a▁close▁up▁of▁": 3797,
      "id": 3798,
      "tted▁": 3799,
      "young▁boy▁": 3800,
      "luggage.": 3801,
      "bat.": 3802,
      "toothbrush▁": 3803,
      "child": 3804,
      "on▁a▁skateboard.": 3805,
      "children▁are▁": 3806,
      "cakes▁": 3807,
      "past▁a▁": 3808,
      "on▁a▁tennis▁court.": 3809,
      "REE": 3810,
      "on▁and▁": 3811,
      "a▁baseball▁game.": 3812,
      "prepares▁to▁": 3813,
      "IN▁THE▁": 3814,
      "pine▁": 3815,
      "in▁an▁orange▁": 3816,
      "approa": 3817,
      "carrots▁": 3818,
      "event▁": 3819,
      "on▁the▁table.": 3820,
      "A▁view▁of▁a▁": 3821,
      "wooden▁table": 3822,
      "ballo": 3823,
      "is▁in▁": 3824,
      "by▁some▁": 3825,
      "back.": 3826,
      "sweater": 3827,
      "tennis▁racket.": 3828,
      ",▁with▁a▁": 3829,
      "brush▁": 3830,
      "even": 3831,
      "life▁": 3832,
      "on▁the▁street.": 3833,
      "Man▁in▁": 3834,
      "jacket▁is▁": 3835,
      "y▁.": 3836,
      "veget": 3837,
      "shop▁": 3838,
      "ce▁.": 3839,
      "dark▁brown▁": 3840,
      "restauran": 3841,
      "crou": 3842,
      "kitchen▁with▁a▁": 3843,
      "french▁fri": 3844,
      "ori": 3845,
      "ter.": 3846,
      "ting▁a▁": 3847,
      "walking▁on▁a▁": 3848,
      "competiti": 3849,
      "six▁": 3850,
      "lid▁": 3851,
      "a▁man▁wearing▁": 3852,
      "snowboarding▁": 3853,
      "fence▁is▁": 3854,
      "zebras": 3855,
      "leafy▁": 3856,
      "A▁crowd▁of▁people▁": 3857,
      "to▁his▁": 3858,
      "flock▁of▁": 3859,
      "tennis▁ball▁": 3860,
      "area▁of▁": 3861,
      "A▁man▁in▁a▁black▁": 3862,
      "a▁zebra▁": 3863,
      "a▁ball.": 3864,
      "landsca": 3865,
      "br": 3866,
      "the▁plane▁is▁": 3867,
      "sleeve▁": 3868,
      "street▁signs▁": 3869,
      "Snow▁": 3870,
      "umbrellas.": 3871,
      "on▁ground": 3872,
      "enter": 3873,
      "in▁a▁pink▁": 3874,
      "boys▁are▁": 3875,
      "fluffy▁": 3876,
      "pri": 3877,
      "gular▁": 3878,
      "rocks": 3879,
      "Woo": 3880,
      "whee": 3881,
      "wind": 3882,
      "food▁and▁": 3883,
      "going▁down▁the▁": 3884,
      "adults▁": 3885,
      "A▁beautiful▁": 3886,
      "young▁girl▁": 3887,
      "bananas.": 3888,
      "ile▁": 3889,
      "bare▁": 3890,
      "a▁row▁of▁": 3891,
      "is▁holding▁": 3892,
      "A▁woman▁with▁": 3893,
      "cut▁in▁": 3894,
      "the▁plate▁is▁": 3895,
      "paint▁": 3896,
      "vegetables": 3897,
      "PE": 3898,
      "remot": 3899,
      "pow": 3900,
      "front▁of▁": 3901,
      "women▁are▁": 3902,
      "I▁": 3903,
      "it▁.": 3904,
      "happy▁": 3905,
      "sprink": 3906,
      "cake▁is▁": 3907,
      "branches▁": 3908,
      "white▁plate▁": 3909,
      "gentle": 3910,
      "An▁elderly▁": 3911,
      "mud": 3912,
      "suitcases▁": 3913,
      "broccoli▁and▁": 3914,
      "an▁airplane▁": 3915,
      "on▁a▁plate▁": 3916,
      "sitting▁around▁a▁": 3917,
      "trees▁in▁the▁background": 3918,
      "talking▁to▁": 3919,
      "airplanes▁": 3920,
      "ed▁by▁": 3921,
      "woman▁with▁": 3922,
      "A▁kid▁": 3923,
      "BE": 3924,
      "out▁in▁the▁": 3925,
      "stack▁of▁": 3926,
      "outfit▁": 3927,
      "son▁": 3928,
      "A▁small▁child▁": 3929,
      "drives▁": 3930,
      "wood▁floor": 3931,
      "on▁a▁beach.": 3932,
      "fighter▁": 3933,
      "on▁side▁of▁": 3934,
      "rect": 3935,
      "riding▁the▁": 3936,
      "shar": 3937,
      "leg▁": 3938,
      "tiles▁": 3939,
      "tennis▁ball": 3940,
      "gran": 3941,
      "on▁stage▁": 3942,
      "blue▁sky.": 3943,
      "wearing▁red▁": 3944,
      "background.": 3945,
      "checkered▁": 3946,
      "A▁gray▁": 3947,
      "a▁building▁.": 3948,
      "sheet▁": 3949,
      "cau": 3950,
      "garden▁": 3951,
      "lake.": 3952,
      "eled▁": 3953,
      "a▁man▁on▁a▁": 3954,
      "mush": 3955,
      "partment▁": 3956,
      "kin▁": 3957,
      "A▁white▁plate▁": 3958,
      "waiting▁for▁": 3959,
      "a▁beautiful▁": 3960,
      "mat▁": 3961,
      "walking▁on▁": 3962,
      "shirt▁,▁": 3963,
      "trains▁": 3964,
      "on▁the▁side▁of▁": 3965,
      "Po": 3966,
      "A▁boy▁is▁": 3967,
      "pool▁.": 3968,
      "dirt.": 3969,
      "nat": 3970,
      "wag": 3971,
      "land": 3972,
      "face.": 3973,
      "goo": 3974,
      "ket": 3975,
      "WHIT": 3976,
      "laptop▁computer.": 3977,
      "vehicles▁": 3978,
      "they▁are▁": 3979,
      "gn▁": 3980,
      "smiling": 3981,
      "stainless▁steel▁": 3982,
      "music▁": 3983,
      "the▁woman▁": 3984,
      "while▁holding▁a▁": 3985,
      "free": 3986,
      "doughnuts▁": 3987,
      "standing▁together▁": 3988,
      "driving▁down▁the▁": 3989,
      "sink,▁": 3990,
      "berri": 3991,
      "restaurant.": 3992,
      "with▁three▁": 3993,
      "del▁": 3994,
      "Wom": 3995,
      "pe.": 3996,
      "up▁and▁": 3997,
      "parked": 3998,
      "cowboy▁": 3999,
      "straw": 4000,
      "on▁a▁bed.": 4001,
      "cloudy": 4002,
      "on▁the▁bed": 4003,
      "standing▁and▁": 4004,
      "bird▁is▁": 4005,
      "tex": 4006,
      "Some▁people▁are▁": 4007,
      "pillows▁": 4008,
      "s▁of▁a▁": 4009,
      "brick": 4010,
      "collar": 4011,
      "bottles▁": 4012,
      "Gu": 4013,
      "tment▁of▁": 4014,
      "cabinet▁": 4015,
      "side▁by▁side▁": 4016,
      "only▁": 4017,
      "on▁a▁bus": 4018,
      "cluttered▁": 4019,
      "ilt▁": 4020,
      "green▁and▁white▁": 4021,
      "surfers▁": 4022,
      "fabri": 4023,
      "ladies▁": 4024,
      "falling▁": 4025,
      "tun": 4026,
      "ward▁": 4027,
      "indoor▁": 4028,
      "log": 4029,
      "lunch▁": 4030,
      "shal": 4031,
      "a▁tennis▁player▁": 4032,
      "liner▁": 4033,
      "scra": 4034,
      "a▁man▁holding▁a▁": 4035,
      "arti": 4036,
      "picture▁is▁": 4037,
      "passenger▁train▁": 4038,
      "wing": 4039,
      "large▁white▁": 4040,
      "mother▁": 4041,
      "hay▁": 4042,
      "laying▁on▁": 4043,
      "down.": 4044,
      "sol": 4045,
      "landing▁": 4046,
      "a▁sa": 4047,
      "An▁open▁": 4048,
      "takes▁a▁": 4049,
      "Giraffe▁": 4050,
      "hun": 4051,
      "fig": 4052,
      "playing▁a▁game▁": 4053,
      "Lo": 4054,
      "and▁a▁dog▁": 4055,
      "playing▁a▁video▁": 4056,
      "at▁night": 4057,
      "volle": 4058,
      "next▁to▁each▁other▁": 4059,
      "a▁body▁of▁water▁": 4060,
      "d,▁": 4061,
      "is▁in▁the▁": 4062,
      "A▁man▁stands▁": 4063,
      "asian▁": 4064,
      "A▁car▁": 4065,
      "A▁laptop▁": 4066,
      "A▁plate▁of▁food▁": 4067,
      "stop": 4068,
      "trees▁behind▁the▁": 4069,
      "hands.": 4070,
      "ship▁": 4071,
      "fun": 4072,
      "party▁": 4073,
      "fix": 4074,
      "tennis▁mat": 4075,
      "at▁the▁beach▁": 4076,
      "grassy▁field.": 4077,
      "worker▁": 4078,
      "clock.": 4079,
      "A▁woman▁with▁a▁": 4080,
      "ws▁of▁": 4081,
      "cutting▁board▁": 4082,
      "tank▁top▁": 4083,
      "dividu": 4084,
      "laughing▁": 4085,
      "rubb": 4086,
      "drinks▁": 4087,
      "sliding▁": 4088,
      "most▁": 4089,
      "chain": 4090,
      "shining▁": 4091,
      "SK": 4092,
      "you": 4093,
      "bending▁": 4094,
      "Gre": 4095,
      "see▁": 4096,
      "ers▁and▁": 4097,
      "that▁says▁": 4098,
      "sitting▁on▁a▁couch▁": 4099,
      "fruits▁and▁": 4100,
      "Plan": 4101,
      "Ski": 4102,
      "toy": 4103,
      "and▁a▁white▁": 4104,
      "cycle▁": 4105,
      "ground▁.": 4106,
      "A▁black▁dog▁": 4107,
      "exten": 4108,
      "down▁a▁snowy▁": 4109,
      "train▁station▁": 4110,
      "RI": 4111,
      "man▁holding▁a▁": 4112,
      "dow▁": 4113,
      "cardboard▁": 4114,
      "a▁clock▁": 4115,
      "THIS▁": 4116,
      "A▁white▁toilet▁": 4117,
      "smoke▁": 4118,
      "new▁": 4119,
      "basketball▁": 4120,
      "antique▁": 4121,
      "Wooden▁": 4122,
      "traffic": 4123,
      "gets▁": 4124,
      "lanket▁": 4125,
      "cloudy▁sky": 4126,
      "umpire▁": 4127,
      "uses▁": 4128,
      "a▁pair▁of▁": 4129,
      "A▁bowl▁of▁": 4130,
      "a▁base": 4131,
      "A▁blond▁": 4132,
      "sit▁on▁a▁": 4133,
      "edge▁of▁": 4134,
      "cigar": 4135,
      "Wat": 4136,
      "rack▁": 4137,
      "his▁head▁": 4138,
      "down▁a▁snow▁covered▁": 4139,
      "fruits▁": 4140,
      "mit": 4141,
      "sitting▁and▁": 4142,
      "standing▁near▁a▁": 4143,
      "front.": 4144,
      "anana": 4145,
      "cooki": 4146,
      "fire▁hydrant.": 4147,
      "bike▁is▁": 4148,
      "ments▁": 4149,
      "in▁the▁distance": 4150,
      "runn": 4151,
      "taking▁a▁s": 4152,
      "fountain▁": 4153,
      "ss.▁": 4154,
      "These▁": 4155,
      "net": 4156,
      "An▁Asian▁": 4157,
      "stone": 4158,
      "bench▁is▁": 4159,
      "sausa": 4160,
      "basket▁": 4161,
      "candles▁": 4162,
      "standing▁by▁a▁": 4163,
      "boat▁is▁": 4164,
      "half": 4165,
      "Par": 4166,
      "us▁": 4167,
      "display▁of▁": 4168,
      "during▁the▁day▁": 4169,
      "wheel▁": 4170,
      "Pla": 4171,
      "park▁.": 4172,
      "A▁grey▁": 4173,
      "ripe▁": 4174,
      "safet": 4175,
      "crossing▁the▁": 4176,
      "in▁some▁": 4177,
      "ches": 4178,
      "socc": 4179,
      "Photo▁was▁taken▁": 4180,
      "lad": 4181,
      "playing▁frisbee▁": 4182,
      "craft▁": 4183,
      "lender▁": 4184,
      "THERE▁IS▁": 4185,
      "advertise": 4186,
      "youn": 4187,
      "an▁outdoor▁": 4188,
      "lake": 4189,
      "part▁": 4190,
      "swings▁": 4191,
      "on▁a▁street.": 4192,
      "has▁two▁": 4193,
      "boats▁are▁": 4194,
      "person's▁": 4195,
      "train▁station.": 4196,
      "a▁slice▁of▁": 4197,
      "mel": 4198,
      "ledge▁": 4199,
      "train▁tracks▁": 4200,
      "nam": 4201,
      "and▁is▁": 4202,
      "with▁other▁": 4203,
      "but▁": 4204,
      "A▁man▁in▁a▁white▁": 4205,
      "electronic▁": 4206,
      "loun": 4207,
      "on▁the▁water": 4208,
      "umbrellas": 4209,
      "toilet,▁": 4210,
      "mouth▁.": 4211,
      "iron▁": 4212,
      "shore▁": 4213,
      "object▁": 4214,
      "PLA": 4215,
      "blin": 4216,
      "pol": 4217,
      "skateboards▁": 4218,
      "ion▁": 4219,
      "A▁truck▁": 4220,
      "an▁empty▁": 4221,
      "char": 4222,
      "lush▁green▁field.": 4223,
      "soup▁": 4224,
      "a▁sink▁": 4225,
      "during▁the▁day.": 4226,
      "opened▁": 4227,
      "stop▁sign": 4228,
      "a▁bottle▁of▁": 4229,
      "gate▁": 4230,
      "resid": 4231,
      "on▁a▁green▁": 4232,
      "white▁lines▁": 4233,
      "brown▁dog▁": 4234,
      "grassy▁field": 4235,
      "A▁man▁riding▁a▁skateboard▁": 4236,
      "looking▁down▁": 4237,
      "read": 4238,
      "Frisbee.": 4239,
      "A▁room▁": 4240,
      "ening▁": 4241,
      "with▁a▁dog▁": 4242,
      "different▁types▁of▁": 4243,
      "waits▁": 4244,
      "holding▁an▁umbrella▁": 4245,
      "pastri": 4246,
      "A▁family▁": 4247,
      "kind▁of▁": 4248,
      "zy▁": 4249,
      "in▁a▁city▁": 4250,
      "woman▁in▁": 4251,
      "pool": 4252,
      "cloud▁": 4253,
      "shallow▁": 4254,
      "Con": 4255,
      "a▁pizza▁": 4256,
      "in▁a▁yellow▁": 4257,
      "image▁of▁a▁": 4258,
      "birds▁are▁": 4259,
      "cheese▁and▁": 4260,
      "open.": 4261,
      "led▁up▁": 4262,
      "African▁": 4263,
      "hom": 4264,
      "There▁are▁two▁": 4265,
      "a▁table▁": 4266,
      "a▁little▁": 4267,
      "er.▁": 4268,
      "in▁a▁bathroom▁": 4269,
      "hair▁is▁": 4270,
      "ker▁": 4271,
      "lur": 4272,
      "television.": 4273,
      "sports▁": 4274,
      "sides▁": 4275,
      "wine": 4276,
      "pepperoni▁": 4277,
      "arranged▁": 4278,
      "suits▁": 4279,
      "Motor": 4280,
      "nood": 4281,
      "by▁.": 4282,
      "walking▁across▁a▁": 4283,
      "market": 4284,
      "safety▁": 4285,
      "La": 4286,
      "ps": 4287,
      "sin": 4288,
      "in▁sky": 4289,
      "ents▁": 4290,
      "dian▁": 4291,
      "costume▁": 4292,
      "A▁bear▁": 4293,
      "pass▁": 4294,
      "traffic▁sign": 4295,
      "visible▁": 4296,
      "dessert▁": 4297,
      "celebra": 4298,
      "IC": 4299,
      "Re": 4300,
      "young▁man▁": 4301,
      "riding▁a▁motorcycle▁": 4302,
      "a▁plane▁": 4303,
      "a▁silver▁": 4304,
      "and▁orange▁": 4305,
      "mobi": 4306,
      "skis.": 4307,
      "An▁empty▁": 4308,
      "vegetables▁and▁": 4309,
      "waiting▁to▁": 4310,
      "a▁backpack▁": 4311,
      "fly": 4312,
      "oli": 4313,
      "a▁banana▁": 4314,
      "riding▁on▁the▁": 4315,
      "sitting▁on▁a▁bench": 4316,
      "walking": 4317,
      "teddy▁bear.": 4318,
      "zoo.": 4319,
      "tour▁": 4320,
      "surfer▁is▁": 4321,
      "on▁it's▁": 4322,
      "sits▁in▁a▁": 4323,
      "propel": 4324,
      "structure▁": 4325,
      "SE": 4326,
      "photo▁is▁": 4327,
      "A▁train▁is▁": 4328,
      "an▁image▁of▁": 4329,
      "ting▁to▁": 4330,
      "while▁the▁": 4331,
      "covered▁in▁snow": 4332,
      "individu": 4333,
      "white▁plate": 4334,
      "knif": 4335,
      "standing▁by▁": 4336,
      "green▁leaves▁": 4337,
      "teddy▁bears▁": 4338,
      "Big▁": 4339,
      "wash": 4340,
      "cross▁country▁": 4341,
      "ron▁": 4342,
      "A▁close": 4343,
      "plain": 4344,
      "design▁": 4345,
      "umm": 4346,
      "on▁a▁black▁": 4347,
      "focu": 4348,
      "head▁of▁a▁": 4349,
      "sitting▁in▁a▁chair▁": 4350,
      "assorted▁": 4351,
      "Women▁": 4352,
      "able▁": 4353,
      "angular▁": 4354,
      "like▁a▁": 4355,
      "tub.": 4356,
      "friends▁": 4357,
      "bath▁": 4358,
      "letter": 4359,
      "W▁": 4360,
      "ka": 4361,
      "er▁and▁": 4362,
      "ster": 4363,
      "standing▁around▁a▁": 4364,
      "desktop▁": 4365,
      "in▁the▁field": 4366,
      "baked▁": 4367,
      "loading▁": 4368,
      "delici": 4369,
      "ot": 4370,
      "A▁plane▁": 4371,
      "sleep▁": 4372,
      "game▁.": 4373,
      "hands": 4374,
      "a▁surf▁": 4375,
      "a▁body▁of▁water.": 4376,
      "outdoors": 4377,
      "on▁a▁beach": 4378,
      "upside▁down▁": 4379,
      "Vari": 4380,
      "good▁": 4381,
      "a▁male▁": 4382,
      "lo▁": 4383,
      "assortment▁of▁": 4384,
      "a▁bath▁": 4385,
      "a▁blue▁and▁white▁": 4386,
      "stripes▁": 4387,
      "shade▁": 4388,
      "dark▁blue▁": 4389,
      "serve▁": 4390,
      "train▁station": 4391,
      "deck▁": 4392,
      "smile▁": 4393,
      "wall▁of▁": 4394,
      "outside▁a▁": 4395,
      "down▁the▁street▁": 4396,
      "business▁": 4397,
      "messy▁": 4398,
      "wee": 4399,
      "her▁.": 4400,
      "wall▁behind▁": 4401,
      "gogg": 4402,
      "frame": 4403,
      "mea": 4404,
      "bul": 4405,
      "rub": 4406,
      "doors": 4407,
      "jacket▁and▁": 4408,
      "cano": 4409,
      "Zebra▁": 4410,
      "Multi": 4411,
      "SH": 4412,
      "in▁a▁kitchen.": 4413,
      "gged▁": 4414,
      "A▁brown▁dog▁": 4415,
      "atten": 4416,
      "computer▁monitor": 4417,
      "doors▁": 4418,
      "Wii": 4419,
      "A▁pile▁of▁": 4420,
      "bright": 4421,
      "CK▁": 4422,
      "ital▁": 4423,
      "rai": 4424,
      "umer": 4425,
      "sitting▁on▁a▁table.": 4426,
      "color.": 4427,
      "in▁a▁bed": 4428,
      "tree▁is▁": 4429,
      "clocks▁": 4430,
      "wine.": 4431,
      "filled▁with▁lots▁of▁": 4432,
      "refrigerator.": 4433,
      "still▁": 4434,
      "age.": 4435,
      "nose▁": 4436,
      "in▁mid▁": 4437,
      "hole▁": 4438,
      "separ": 4439,
      "with▁a▁green▁": 4440,
      "table.▁": 4441,
      "taken▁during▁the▁day": 4442,
      "passengers▁": 4443,
      "on▁a▁busy▁": 4444,
      "very▁large▁": 4445,
      "outdoors▁": 4446,
      "ish▁": 4447,
      "a▁young▁boy▁": 4448,
      "SI": 4449,
      "dge.": 4450,
      "skin": 4451,
      "uter▁": 4452,
      "skier▁is▁": 4453,
      "pitch▁": 4454,
      "stall": 4455,
      "fur▁": 4456,
      "Ad": 4457,
      "wooden▁bench▁": 4458,
      "A▁young▁man▁is▁": 4459,
      "A▁large▁white▁": 4460,
      "mountains": 4461,
      "photograph▁of▁a▁": 4462,
      "without▁": 4463,
      "relaxing▁": 4464,
      "seag": 4465,
      "posite▁": 4466,
      "talks▁": 4467,
      "paper.": 4468,
      "ornate▁": 4469,
      "bar▁": 4470,
      "grill▁": 4471,
      "a▁metal▁": 4472,
      "along": 4473,
      "ice": 4474,
      "skiing": 4475,
      "Zebra": 4476,
      "vase.": 4477,
      "s,▁a▁": 4478,
      "loaded▁": 4479,
      "pavement▁": 4480,
      "ale▁": 4481,
      "A▁woman▁wearing▁a▁": 4482,
      "tower.": 4483,
      "striped▁shirt▁": 4484,
      "patterned▁": 4485,
      "A▁city▁": 4486,
      "padd": 4487,
      "purse▁": 4488,
      "into▁the▁air▁": 4489,
      "television": 4490,
      "story▁": 4491,
      "in▁bed▁": 4492,
      "on▁a▁field▁": 4493,
      "gather▁": 4494,
      "cellphone": 4495,
      "practicing▁": 4496,
      "ctor▁": 4497,
      "is▁playing▁": 4498,
      "The▁plate▁is▁": 4499,
      "surf▁board": 4500,
      "Dark▁": 4501,
      "sna": 4502,
      "A▁hand▁": 4503,
      "holding▁up▁a▁": 4504,
      "next▁to▁each▁other": 4505,
      "a▁man▁that▁is▁": 4506,
      "leaves.": 4507,
      "many▁people▁": 4508,
      "crowd▁.": 4509,
      "guitar▁.": 4510,
      "wetsuit▁": 4511,
      "on▁a▁small▁": 4512,
      "A▁batter▁": 4513,
      "animals▁are▁": 4514,
      "multi▁": 4515,
      "wild▁": 4516,
      "a▁stop▁sign▁": 4517,
      "hard": 4518,
      "a▁few▁": 4519,
      "body▁of▁water▁": 4520,
      "allen▁": 4521,
      "in▁the▁wood": 4522,
      "with▁an▁umbrella▁": 4523,
      "in▁a▁bow": 4524,
      "sea▁": 4525,
      "riding▁skis▁": 4526,
      "thou": 4527,
      "on▁a▁surfboard▁": 4528,
      "Gray▁": 4529,
      "riding▁a▁bike▁": 4530,
      "sphal": 4531,
      "Six▁": 4532,
      "kno": 4533,
      "whole▁": 4534,
      "vendo": 4535,
      "flip▁": 4536,
      "transit▁": 4537,
      "bunch▁of▁": 4538,
      "The▁large▁": 4539,
      "Two▁boys▁": 4540,
      "opposite▁": 4541,
      "jersey▁": 4542,
      "written▁": 4543,
      "father▁": 4544,
      "middle": 4545,
      "bee": 4546,
      "with▁a▁lot▁of▁": 4547,
      "room▁.": 4548,
      "chairs": 4549,
      "an▁elephant": 4550,
      "on▁a▁red▁": 4551,
      "grass▁covered▁": 4552,
      "wall▁with▁": 4553,
      "attached▁to▁a▁": 4554,
      "volley": 4555,
      "road.▁": 4556,
      "cri": 4557,
      "don": 4558,
      "fancy▁": 4559,
      "Kit": 4560,
      "playing▁baseball▁": 4561,
      "skis": 4562,
      "fea": 4563,
      "lines": 4564,
      "remote": 4565,
      "A▁bench▁": 4566,
      "groom▁": 4567,
      "windows.": 4568,
      "carrot": 4569,
      "a▁stone▁": 4570,
      "A▁black▁cat▁": 4571,
      "shelves▁": 4572,
      "mini": 4573,
      "locat": 4574,
      "with▁a▁yellow▁": 4575,
      "hotdog": 4576,
      "posing▁for▁a▁picture▁": 4577,
      "log▁": 4578,
      "field.▁": 4579,
      "on▁top▁of▁it.": 4580,
      "A▁couple▁of▁men▁": 4581,
      "corner▁of▁a▁": 4582,
      "glasses.": 4583,
      "scarf▁": 4584,
      "Sur": 4585,
      "fir": 4586,
      "cat.": 4587,
      "sticks▁": 4588,
      "multicolored▁": 4589,
      "der.": 4590,
      "parked▁in▁a▁": 4591,
      "ice▁cream▁": 4592,
      "game▁controll": 4593,
      "transpor": 4594,
      "steam▁": 4595,
      "OR": 4596,
      "rear▁": 4597,
      "sleeved▁": 4598,
      "brick▁building▁": 4599,
      "Com": 4600,
      "metal": 4601,
      "flying▁kites▁": 4602,
      "at▁an▁outdoor▁": 4603,
      "legs": 4604,
      "carpet▁": 4605,
      "dic": 4606,
      "a▁piece▁of▁": 4607,
      "white▁and▁black▁": 4608,
      "with▁a▁man▁": 4609,
      "Four▁people▁": 4610,
      "the▁grass▁is▁": 4611,
      "at▁a▁skate▁": 4612,
      "bride▁": 4613,
      "y,▁": 4614,
      "A▁silver▁": 4615,
      "ers▁.": 4616,
      "grassy▁field▁": 4617,
      "ised▁": 4618,
      "h▁": 4619,
      "on▁top.": 4620,
      "the▁bus▁is▁": 4621,
      "pie▁": 4622,
      "jumping▁in▁the▁air▁": 4623,
      "A▁girl▁is▁": 4624,
      "sitting▁in▁front▁of▁": 4625,
      "train▁traveling▁": 4626,
      "conne": 4627,
      "works▁": 4628,
      "apple": 4629,
      "hand▁.": 4630,
      "A▁man▁in▁a▁red▁": 4631,
      "residen": 4632,
      "eg": 4633,
      "bull▁": 4634,
      "scooter▁": 4635,
      "rural▁": 4636,
      "bage▁": 4637,
      "woman▁holding▁": 4638,
      "fried▁": 4639,
      "snow▁.": 4640,
      "worn▁": 4641,
      "pasture": 4642,
      "circular▁": 4643,
      "she▁is▁": 4644,
      "doing▁tricks▁": 4645,
      "A▁lot▁of▁": 4646,
      "place.": 4647,
      "pick▁": 4648,
      "some▁food▁": 4649,
      "art": 4650,
      "in▁it▁": 4651,
      "iling.": 4652,
      "in▁the▁sand▁": 4653,
      "in▁a▁park": 4654,
      "in▁a▁park.": 4655,
      "with▁a▁small▁": 4656,
      "air.": 4657,
      "standing▁up▁": 4658,
      "foam▁": 4659,
      "blowing▁": 4660,
      "M▁": 4661,
      "An▁adult▁": 4662,
      "wall▁behind▁the▁": 4663,
      "hoodi": 4664,
      "himself▁": 4665,
      "Nintendo▁Wii▁": 4666,
      "fallen▁": 4667,
      "riz": 4668,
      "tables▁": 4669,
      "holding▁a▁bat▁": 4670,
      "A▁lone▁": 4671,
      "walking▁in▁": 4672,
      "street.▁": 4673,
      "tomato▁": 4674,
      "wires▁": 4675,
      "IL": 4676,
      "riding▁horses▁": 4677,
      "on▁a▁sidewalk▁": 4678,
      "hat.": 4679,
      "suppor": 4680,
      "THIS▁IS▁": 4681,
      "corner.": 4682,
      "ei": 4683,
      "and▁her▁": 4684,
      "and▁gray▁": 4685,
      "doll▁": 4686,
      "train▁car": 4687,
      "termin": 4688,
      "meal": 4689,
      "bent▁": 4690,
      "an▁older▁": 4691,
      "grass▁field.": 4692,
      "parked▁on▁": 4693,
      "heavy▁": 4694,
      "ado": 4695,
      "side.▁": 4696,
      "black▁dog▁": 4697,
      "push": 4698,
      "gat": 4699,
      "pou": 4700,
      "uten": 4701,
      "model▁": 4702,
      "looking▁out▁": 4703,
      "eating▁grass▁": 4704,
      "together▁.": 4705,
      "on▁bed": 4706,
      "fake▁": 4707,
      "muddy▁": 4708,
      "delicious▁": 4709,
      "walking▁through▁a▁": 4710,
      "counter▁top": 4711,
      "smoking▁": 4712,
      "jun": 4713,
      "yard": 4714,
      "clock▁tower": 4715,
      "black.": 4716,
      "bowl.": 4717,
      "racquet.": 4718,
      "newspaper▁": 4719,
      "4▁": 4720,
      "t.▁": 4721,
      "does▁a▁": 4722,
      "player▁is▁": 4723,
      "gloves▁": 4724,
      "Various▁": 4725,
      "comoti": 4726,
      ",▁are▁": 4727,
      "eating": 4728,
      "tree▁.": 4729,
      "spin": 4730,
      "A▁brown▁and▁white▁": 4731,
      "set▁up▁": 4732,
      "structure": 4733,
      "flying▁through▁the▁air▁": 4734,
      "ple": 4735,
      "in▁green▁": 4736,
      "foli": 4737,
      "curved▁": 4738,
      "going▁down▁a▁": 4739,
      "Ja": 4740,
      "and▁another▁": 4741,
      "on▁a▁city▁street.": 4742,
      "sky▁with▁": 4743,
      "in▁front▁of▁a▁large▁": 4744,
      "Group▁of▁people▁": 4745,
      "thy▁": 4746,
      "how▁": 4747,
      "tax": 4748,
      "edge▁of▁the▁": 4749,
      "pickup▁": 4750,
      "WHITE▁": 4751,
      "an▁umbrella▁": 4752,
      "throws▁": 4753,
      "wooden▁table.": 4754,
      "in▁a▁field▁of▁": 4755,
      "A▁close▁up▁of▁a▁": 4756,
      "Light▁": 4757,
      "hats▁": 4758,
      "mor": 4759,
      "in▁the▁rain": 4760,
      "semi": 4761,
      "S▁ARE▁": 4762,
      "puppy▁": 4763,
      "hair.": 4764,
      "use": 4765,
      "A▁C": 4766,
      "shadow": 4767,
      "shadows▁": 4768,
      "a▁basket": 4769,
      "es▁on▁a▁": 4770,
      "The▁grass▁is▁": 4771,
      "topped▁with▁a▁": 4772,
      "block▁": 4773,
      "flat▁screen▁": 4774,
      "Orange▁": 4775,
      "playing▁tennis.": 4776,
      "next▁to▁each▁other.": 4777,
      "hanging▁from▁": 4778,
      "straw▁": 4779,
      "clay▁": 4780,
      "chain▁link▁fence": 4781,
      "ED▁": 4782,
      "ot▁": 4783,
      "A▁women▁": 4784,
      "A▁traffic▁light▁": 4785,
      "in▁a▁room": 4786,
      "as▁it▁": 4787,
      "crust▁": 4788,
      "in▁a▁bathroom.": 4789,
      "s▁the▁": 4790,
      "hockey▁": 4791,
      "horiz": 4792,
      "Two▁elephants▁": 4793,
      "out.": 4794,
      "mushroom": 4795,
      "gli": 4796,
      "tire": 4797,
      "parked▁on▁the▁": 4798,
      "luggage": 4799,
      "leans▁": 4800,
      "cows": 4801,
      "apron▁": 4802,
      "photograph▁of▁": 4803,
      "machin": 4804,
      "fenced▁in▁": 4805,
      "a▁birthday▁": 4806,
      "chan": 4807,
      "tray▁of▁": 4808,
      "wearing▁a▁green▁": 4809,
      "sky▁above▁the▁": 4810,
      "sail▁": 4811,
      "lights": 4812,
      "ental▁": 4813,
      "let▁": 4814,
      "looking▁up▁": 4815,
      "compe": 4816,
      "femal": 4817,
      "lightly▁": 4818,
      "tarmac▁": 4819,
      "beer▁": 4820,
      "fork": 4821,
      "surface.": 4822,
      "circle▁": 4823,
      "comforter▁": 4824,
      "some▁sor": 4825,
      "one▁another▁": 4826,
      "tiny▁": 4827,
      "next▁": 4828,
      "rocks.": 4829,
      "shoulder▁": 4830,
      "Guy▁": 4831,
      "dol": 4832,
      "bags▁": 4833,
      "shirt▁.": 4834,
      "brick▁building": 4835,
      "framed▁": 4836,
      "bean": 4837,
      "backpack▁": 4838,
      "store.": 4839,
      "doorway▁": 4840,
      "chef▁": 4841,
      "rainy▁": 4842,
      "Grass▁": 4843,
      "patio▁": 4844,
      "audience▁": 4845,
      "ketch": 4846,
      "gas▁": 4847,
      "A▁building▁": 4848,
      "top▁of▁the▁": 4849,
      "muse": 4850,
      "off▁of▁a▁": 4851,
      "barri": 4852,
      "napkin": 4853,
      "commuter▁": 4854,
      "-colored▁": 4855,
      "to▁look▁": 4856,
      "t-shirt": 4857,
      "feature": 4858,
      "wii": 4859,
      "plate.▁": 4860,
      "walking▁around▁": 4861,
      "collar▁": 4862,
      "space▁": 4863,
      "Sil": 4864,
      "with▁large▁": 4865,
      "shirt▁and▁black▁": 4866,
      "marble▁": 4867,
      "crossing▁a▁": 4868,
      "man▁wearing▁black▁": 4869,
      "vehicle": 4870,
      "corner": 4871,
      "Adul": 4872,
      "pink": 4873,
      "men▁in▁": 4874,
      "skies▁": 4875,
      "flower": 4876,
      "grazing▁on▁": 4877,
      "uniforms▁": 4878,
      "a▁grey▁": 4879,
      "mouse": 4880,
      "woman▁holding▁a▁": 4881,
      "glass.": 4882,
      "sailing▁": 4883,
      "its▁head▁": 4884,
      "floor▁is▁": 4885,
      "clouds.": 4886,
      "skirt▁": 4887,
      "napkin▁": 4888,
      "remote▁control": 4889,
      "Fre": 4890,
      "pair": 4891,
      "stroll": 4892,
      "locomoti": 4893,
      "great▁": 4894,
      "orang": 4895,
      "De": 4896,
      "Win": 4897,
      "the▁white▁": 4898,
      "The▁white▁": 4899,
      "giving▁": 4900,
      "riding▁on▁": 4901,
      "spectators▁": 4902,
      "ladder▁": 4903,
      "nel▁": 4904,
      "leash▁": 4905,
      "engin": 4906,
      "spoon▁": 4907,
      "a▁snowboard▁": 4908,
      "Pictur": 4909,
      "action▁": 4910,
      "a▁lot▁of▁": 4911,
      "ripp": 4912,
      "a▁book": 4913,
      "with▁various▁": 4914,
      "ching▁a▁": 4915,
      "cars.": 4916,
      "food▁is▁": 4917,
      "car▁.": 4918,
      "stuffed▁bear▁": 4919,
      "sauce": 4920,
      "Many▁people▁": 4921,
      "brushing▁his▁": 4922,
      "Sheep▁": 4923,
      "at▁home▁": 4924,
      "onloo": 4925,
      "fun▁": 4926,
      "asphal": 4927,
      "tes▁": 4928,
      "lum": 4929,
      "Met": 4930,
      "playing▁video▁gam": 4931,
      "motorcycle▁is▁": 4932,
      "white,▁": 4933,
      "sitting▁down": 4934,
      "happ": 4935,
      "duck▁": 4936,
      "graze▁": 4937,
      "with▁a▁bunch▁of▁": 4938,
      "baseball.": 4939,
      "yard.": 4940,
      "EL": 4941,
      "on▁one▁": 4942,
      "grocer": 4943,
      "wear▁": 4944,
      "dry": 4945,
      "interior▁": 4946,
      "a▁red▁and▁white▁": 4947,
      "in▁the▁snow▁.": 4948,
      "to▁catch▁a▁": 4949,
      "residential▁": 4950,
      "Ve": 4951,
      "a▁cloudy▁": 4952,
      "on▁the▁floor.": 4953,
      "riding▁his▁": 4954,
      "corner▁of▁": 4955,
      "a▁cow▁": 4956,
      "down▁a▁s": 4957,
      "has▁white▁": 4958,
      "goes▁": 4959,
      "Two▁men▁in▁": 4960,
      "Vi": 4961,
      "ley▁": 4962,
      "surfing": 4963,
      "child▁is▁": 4964,
      "The▁boy▁is▁": 4965,
      "tennis▁players▁": 4966,
      "a▁bathroom▁with▁a▁": 4967,
      "intersection.": 4968,
      "A▁person▁that▁is▁": 4969,
      "cutting▁board": 4970,
      "fall▁": 4971,
      "man▁with▁a▁": 4972,
      "stripe▁": 4973,
      "Water▁": 4974,
      "Tree▁": 4975,
      "a▁living▁room▁": 4976,
      "red.": 4977,
      "kites.": 4978,
      "eats▁": 4979,
      "sleep": 4980,
      "grass.▁": 4981,
      "mattre": 4982,
      "shelf.": 4983,
      "Sha": 4984,
      "stall▁": 4985,
      "black▁bear▁": 4986,
      "heads▁": 4987,
      "class": 4988,
      "val▁": 4989,
      "A▁MAN▁": 4990,
      "looking▁for▁": 4991,
      "bridge": 4992,
      "Three▁people▁are▁": 4993,
      "overhead▁": 4994,
      "BA": 4995,
      "Wa": 4996,
      "with▁food▁": 4997,
      "chairs▁and▁": 4998,
      "umbrella▁is▁": 4999,
      "kinds▁of▁": 5000,
      "wave▁is▁": 5001,
      "Surf": 5002,
      "pt▁": 5003,
      "frosting▁": 5004,
      "clothe": 5005,
      "suspen": 5006,
      "down▁a▁street▁": 5007,
      "close▁to▁": 5008,
      "entran": 5009,
      "jumping▁a▁": 5010,
      "hall": 5011,
      "A▁man▁walking▁": 5012,
      "broken▁": 5013,
      "flowers▁in▁a▁": 5014,
      "talking▁on▁the▁": 5015,
      "parking▁lot▁": 5016,
      "Long▁": 5017,
      "ise▁": 5018,
      "own": 5019,
      "a▁plate▁": 5020,
      "holding▁his▁": 5021,
      "wooden▁table▁": 5022,
      "asleep▁": 5023,
      "in▁a▁room▁": 5024,
      "ceiling": 5025,
      "shot▁of▁a▁": 5026,
      "heal": 5027,
      "in▁a▁bathroom": 5028,
      "TING▁": 5029,
      "trol": 5030,
      "on▁wall": 5031,
      "in▁a▁kitchen": 5032,
      "a▁sink": 5033,
      "a▁man▁with▁a▁": 5034,
      "swinging▁a▁bat▁": 5035,
      "entertain": 5036,
      "YING▁": 5037,
      "dair▁": 5038,
      "a▁street▁": 5039,
      "on▁a▁field": 5040,
      "ell▁": 5041,
      "A▁woman▁wearing▁": 5042,
      "cere": 5043,
      "sand.": 5044,
      "parade▁": 5045,
      "has▁black▁": 5046,
      "scu": 5047,
      "matching▁": 5048,
      "draw": 5049,
      "eye▁": 5050,
      "hood▁": 5051,
      "race▁.": 5052,
      "Someone▁is▁": 5053,
      "alongside▁": 5054,
      "with▁trees▁": 5055,
      "cars▁and▁": 5056,
      "magaz": 5057,
      "shirt▁with▁": 5058,
      "kick": 5059,
      "for▁a▁picture▁": 5060,
      "fruit▁and▁": 5061,
      "bin": 5062,
      "several▁people▁": 5063,
      "sitting▁at▁a▁table▁with▁": 5064,
      "tongue▁": 5065,
      "weather▁": 5066,
      "a▁toilet▁": 5067,
      "on▁a▁city▁street": 5068,
      "in▁the▁street": 5069,
      "part▁of▁": 5070,
      "pastry▁": 5071,
      "kaya": 5072,
      "either▁": 5073,
      "serv": 5074,
      "Young▁boy▁": 5075,
      "on▁the▁field": 5076,
      "on▁a▁bench": 5077,
      "sun▁is▁": 5078,
      "cigarette▁": 5079,
      "handle": 5080,
      "furry▁": 5081,
      "dishes▁": 5082,
      "sitting▁on▁a▁table▁": 5083,
      "scene▁is▁": 5084,
      "between▁the▁": 5085,
      "platform.": 5086,
      "'▁": 5087,
      "arch": 5088,
      "chairs.": 5089,
      "exhi": 5090,
      "teenag": 5091,
      "diti": 5092,
      "a▁do": 5093,
      "attered▁": 5094,
      "sitting▁at▁the▁": 5095,
      "baseball▁field": 5096,
      "trim": 5097,
      "steep▁": 5098,
      "ps.": 5099,
      "ut▁": 5100,
      "ouqu": 5101,
      "ond▁": 5102,
      "The▁plane▁is▁": 5103,
      "bathtub▁": 5104,
      "custo": 5105,
      "Moun": 5106,
      "lor": 5107,
      "atting▁": 5108,
      "at▁a▁baseball▁": 5109,
      "two▁elephants▁": 5110,
      "young▁men▁": 5111,
      "other▁people▁": 5112,
      "Two▁women▁are▁": 5113,
      "wet▁suit▁": 5114,
      "TO▁": 5115,
      "bever": 5116,
      "in▁front▁of▁a▁building.": 5117,
      "dance▁": 5118,
      "holding▁an▁umbrella": 5119,
      "stairs▁": 5120,
      "TV.": 5121,
      "on▁a▁boat▁": 5122,
      "mobile▁": 5123,
      "KING▁": 5124,
      "rack": 5125,
      "yellow▁and▁": 5126,
      "THAT▁": 5127,
      "showing▁a▁": 5128,
      "twi": 5129,
      "laid▁": 5130,
      "size▁": 5131,
      "in▁the▁sun": 5132,
      "on▁a▁brown▁": 5133,
      "tured▁": 5134,
      "ps▁of▁": 5135,
      "Several▁people▁are▁": 5136,
      "looks▁at▁": 5137,
      "skiing▁down▁a▁": 5138,
      "garbage▁": 5139,
      "crosswalk▁": 5140,
      "parking▁lot.": 5141,
      "folded▁": 5142,
      "mixed▁": 5143,
      "utensil": 5144,
      "sitting▁outside▁": 5145,
      "wears▁a▁": 5146,
      "hang": 5147,
      "in▁front▁of▁an▁": 5148,
      "three▁men▁": 5149,
      "ready▁to▁be▁": 5150,
      "pasta▁": 5151,
      "fini": 5152,
      "a▁sign▁": 5153,
      "carpet": 5154,
      "vase▁with▁": 5155,
      "E▁OF▁": 5156,
      "enjoying▁a▁": 5157,
      "listening▁": 5158,
      "microphone▁.": 5159,
      "on▁a▁bike▁": 5160,
      "oper": 5161,
      "snea": 5162,
      "double▁decker▁bus": 5163,
      "produce▁": 5164,
      "rusty▁": 5165,
      "Man▁with▁": 5166,
      "door▁is▁": 5167,
      "cook": 5168,
      "vo": 5169,
      "section▁of▁": 5170,
      "pee": 5171,
      "wearing▁a▁pink▁": 5172,
      "prepared▁": 5173,
      "something▁.": 5174,
      "track▁.": 5175,
      "gathering▁": 5176,
      "farm": 5177,
      "holding▁two▁": 5178,
      "mask▁": 5179,
      "night": 5180,
      "fruit.": 5181,
      "overcast▁": 5182,
      "waves.": 5183,
      "pulls▁": 5184,
      "flying▁a▁kite": 5185,
      "pasture▁": 5186,
      "urinal": 5187,
      "Chin": 5188,
      "son": 5189,
      "on▁a▁tennis▁court": 5190,
      "standing▁behind▁": 5191,
      "parked▁on▁a▁": 5192,
      "houses▁": 5193,
      "cliff▁": 5194,
      "store▁.": 5195,
      "A▁mother▁": 5196,
      "&▁": 5197,
      "mound▁": 5198,
      ",▁is▁": 5199,
      "Man▁wearing▁": 5200,
      "hanging▁from▁a▁": 5201,
      "bananas▁are▁": 5202,
      "enclosed▁": 5203,
      "layer▁": 5204,
      "first▁": 5205,
      "and▁his▁": 5206,
      "on▁a▁cloudy▁": 5207,
      "Two▁horses▁": 5208,
      "packed▁": 5209,
      "knife": 5210,
      "lurry▁": 5211,
      "use▁": 5212,
      "a▁.": 5213,
      "at▁sun": 5214,
      "on▁the▁snow": 5215,
      "on▁the▁wall.": 5216,
      "tray.": 5217,
      "can▁be▁": 5218,
      "Skate": 5219,
      "egg▁": 5220,
      "cran": 5221,
      "A▁dark▁": 5222,
      "A▁plate▁with▁": 5223,
      "A▁city▁street▁": 5224,
      "on▁the▁table▁": 5225,
      "A▁large▁group▁of▁": 5226,
      "trunks▁": 5227,
      "train▁tracks.": 5228,
      "head▁of▁": 5229,
      "team": 5230,
      "kites▁flying▁": 5231,
      "fireplace▁": 5232,
      "items.": 5233,
      "Multiple▁": 5234,
      "A▁person▁holding▁a▁": 5235,
      "inside▁the▁": 5236,
      "time.": 5237,
      "outfit": 5238,
      "til": 5239,
      "a▁laptop▁": 5240,
      "in▁the▁kitchen▁": 5241,
      "paddle▁": 5242,
      "park▁bench": 5243,
      "glove▁": 5244,
      "statue▁of▁a▁": 5245,
      "erial▁": 5246,
      "ico": 5247,
      "A▁giraffe▁is▁": 5248,
      "A▁shirtless▁": 5249,
      "man▁and▁woman▁": 5250,
      "reflecting▁": 5251,
      "pavement": 5252,
      "ature▁": 5253,
      "on▁a▁large▁": 5254,
      "neon▁": 5255,
      "amil": 5256,
      "trick.": 5257,
      "photo.": 5258,
      "that▁has▁been▁": 5259,
      "face▁.": 5260,
      "woman.": 5261,
      "attached▁to▁the▁": 5262,
      "attempting▁to▁": 5263,
      "Grey▁": 5264,
      "numer": 5265,
      "zer▁": 5266,
      "and▁child▁": 5267,
      "has▁his▁": 5268,
      "giraffe.": 5269,
      "behind▁it.": 5270,
      "ed,▁": 5271,
      "suitcase.": 5272,
      "parking▁lot": 5273,
      "rainbow▁": 5274,
      "decorated▁with▁": 5275,
      "a▁scene▁during▁the▁day▁": 5276,
      "watch.": 5277,
      "wooden": 5278,
      "wn.": 5279,
      "container": 5280,
      "pale▁": 5281,
      "sni": 5282,
      "A▁slice▁of▁": 5283,
      "bears▁are▁": 5284,
      "put▁": 5285,
      "Woman▁is▁": 5286,
      "device▁": 5287,
      "ad▁": 5288,
      "a▁plate▁of▁": 5289,
      "rows▁of▁": 5290,
      "cart": 5291,
      "foods▁": 5292,
      "type▁of▁": 5293,
      "grin": 5294,
      "case.": 5295,
      "sitting▁on▁the▁floor▁": 5296,
      "standing▁next▁to▁each▁other.": 5297,
      "Chil": 5298,
      "on▁street": 5299,
      "st.": 5300,
      "playing▁baseball": 5301,
      "toys▁": 5302,
      "taking▁off▁": 5303,
      "brush": 5304,
      "a▁couple▁of▁people▁": 5305,
      "En": 5306,
      "ding": 5307,
      "the▁bear▁is▁": 5308,
      "onto▁the▁": 5309,
      "kick▁": 5310,
      "restaurant▁.": 5311,
      "market▁.": 5312,
      "bushes": 5313,
      "A▁clock▁tower▁": 5314,
      "dock": 5315,
      "woods▁": 5316,
      "fabric▁": 5317,
      "TRA": 5318,
      "of▁food▁": 5319,
      "on▁a▁tennis▁court▁": 5320,
      "front▁of▁a▁": 5321,
      "area▁with▁a▁": 5322,
      "engine": 5323,
      "hair▁and▁": 5324,
      "desk▁with▁": 5325,
      "on▁white▁plate": 5326,
      "smaller▁": 5327,
      "daytime▁sky": 5328,
      "a▁herd▁of▁": 5329,
      "the▁boy▁is▁": 5330,
      "ill": 5331,
      "neat": 5332,
      "stream": 5333,
      "posed▁": 5334,
      "while▁people▁": 5335,
      "line.": 5336,
      "a▁brown▁and▁white▁": 5337,
      "sandwich▁and▁": 5338,
      "screen.": 5339,
      "PLE▁": 5340,
      "also▁": 5341,
      "p▁of▁": 5342,
      "shing": 5343,
      "down▁a▁street.": 5344,
      "maro": 5345,
      "distance": 5346,
      "dining▁room▁": 5347,
      "in▁a▁parking▁lot.": 5348,
      "collection▁of▁": 5349,
      "Ma": 5350,
      "in▁pink▁": 5351,
      "stic": 5352,
      "els▁": 5353,
      "snowboard.": 5354,
      "A▁bicycle▁": 5355,
      "piece▁": 5356,
      "cream": 5357,
      "eyes": 5358,
      "a▁young▁girl▁": 5359,
      "deli": 5360,
      "to▁hit▁": 5361,
      "ways▁": 5362,
      "memb": 5363,
      "cub": 5364,
      "desert▁": 5365,
      "rope": 5366,
      "grown▁": 5367,
      "edge": 5368,
      "water.▁": 5369,
      "pictures▁": 5370,
      "a▁beach.": 5371,
      "lettuce▁": 5372,
      "convers": 5373,
      "a▁kid▁": 5374,
      "cars▁are▁": 5375,
      "while▁a▁man▁": 5376,
      "there▁are▁many▁": 5377,
      "soldi": 5378,
      "In▁": 5379,
      "cage▁": 5380,
      "e▁of▁the▁": 5381,
      "scattered▁": 5382,
      "snow▁on▁the▁ground": 5383,
      "mug▁": 5384,
      "The▁giraffe▁is▁": 5385,
      "laying▁down": 5386,
      "spotted▁": 5387,
      "brightly▁": 5388,
      "childre": 5389,
      "in▁the▁room": 5390,
      "in▁a▁living▁room.": 5391,
      "cloudy▁sky.": 5392,
      "highway▁": 5393,
      "hosp": 5394,
      "ch▁.": 5395,
      "stove.": 5396,
      "comple": 5397,
      "working▁on▁": 5398,
      "blue▁sky▁with▁": 5399,
      "A▁glass▁": 5400,
      "buse": 5401,
      "shore.": 5402,
      "curly▁": 5403,
      "mountains.": 5404,
      "chicken": 5405,
      "toward▁the▁": 5406,
      "fighting▁": 5407,
      "Horse▁": 5408,
      "tool": 5409,
      "ald▁": 5410,
      "es▁on▁": 5411,
      "grou": 5412,
      "passes▁": 5413,
      "glazed▁": 5414,
      "window▁sil": 5415,
      "boots▁": 5416,
      "A▁kitchen▁with▁a▁": 5417,
      "trailer▁": 5418,
      "appliance": 5419,
      "Child▁": 5420,
      "lit": 5421,
      "A▁busy▁": 5422,
      "too▁": 5423,
      "tile": 5424,
      "tablecloth▁": 5425,
      "brown▁bear▁": 5426,
      "broccoli.": 5427,
      "if▁": 5428,
      "a▁bear": 5429,
      "org": 5430,
      "in▁the▁back": 5431,
      "proce": 5432,
      "setting.": 5433,
      "tooth▁": 5434,
      "Silver▁": 5435,
      "and▁holding▁a▁": 5436,
      "on▁a▁desk": 5437,
      "Two▁small▁": 5438,
      "has▁many▁": 5439,
      "reading▁a▁": 5440,
      "rectangular▁": 5441,
      "DE": 5442,
      "ME": 5443,
      "band": 5444,
      "cts▁": 5445,
      "im▁": 5446,
      "ward": 5447,
      "A▁man▁who▁is▁": 5448,
      "lift▁": 5449,
      "road▁with▁": 5450,
      "dressed▁in▁a▁": 5451,
      "cow▁is▁": 5452,
      "image▁of▁": 5453,
      "decoration": 5454,
      "bly▁": 5455,
      "larger▁": 5456,
      "young▁woman▁": 5457,
      "concer": 5458,
      "riders▁": 5459,
      "personal▁": 5460,
      "burger▁": 5461,
      "nearby.": 5462,
      "Ra": 5463,
      "the▁giraffe▁is▁": 5464,
      "clock▁is▁": 5465,
      "speaking▁": 5466,
      "tw": 5467,
      "rac": 5468,
      "does▁": 5469,
      "sitting": 5470,
      "pige": 5471,
      "and▁a▁girl▁": 5472,
      "and▁a▁child▁": 5473,
      "preparing▁food▁": 5474,
      "pattern": 5475,
      "arrange": 5476,
      "an▁airport▁": 5477,
      "with▁orange▁": 5478,
      "liqu": 5479,
      "camp": 5480,
      "wait▁": 5481,
      "signs": 5482,
      "bunches▁of▁": 5483,
      "Tennis▁player▁": 5484,
      "advertisement▁": 5485,
      "ids▁": 5486,
      "on▁the▁grass▁": 5487,
      "Green▁grass▁": 5488,
      "donuts": 5489,
      "Bro": 5490,
      "stand.": 5491,
      "bun▁": 5492,
      "giving▁a▁": 5493,
      "on▁a▁brick▁": 5494,
      "petting▁": 5495,
      "pand": 5496,
      "spar": 5497,
      "A▁single▁": 5498,
      "aircraft▁": 5499,
      "hang▁": 5500,
      "dium": 5501,
      "water▁and▁": 5502,
      "ski▁slope.": 5503,
      "skate▁board": 5504,
      "type▁": 5505,
      "waiting▁for▁the▁": 5506,
      "in▁a▁blue▁shirt▁": 5507,
      "Clou": 5508,
      "A▁laptop▁computer▁": 5509,
      "in▁the▁back▁": 5510,
      "train▁on▁a▁": 5511,
      "guy": 5512,
      "city▁.": 5513,
      "sandwich.": 5514,
      "hillside▁": 5515,
      "cold▁": 5516,
      "market.": 5517,
      "A▁line▁of▁": 5518,
      "A▁toddler▁": 5519,
      "pet▁": 5520,
      "two▁horses▁": 5521,
      "habit": 5522,
      "WO▁": 5523,
      "ried▁": 5524,
      "pipe▁": 5525,
      "tennis▁player": 5526,
      "table▁.": 5527,
      "a▁brown▁horse▁": 5528,
      "playing▁a▁video▁game▁": 5529,
      "kids▁are▁": 5530,
      "tle": 5531,
      "built▁": 5532,
      "studen": 5533,
      "bed▁is▁": 5534,
      "and▁the▁other▁": 5535,
      "a▁surf▁board▁": 5536,
      "A▁bowl▁": 5537,
      "raised▁": 5538,
      "man▁on▁": 5539,
      "on▁a▁city▁street▁": 5540,
      "in▁the▁street▁": 5541,
      "a▁stor": 5542,
      "table▁cloth": 5543,
      "in▁front▁of▁some▁": 5544,
      "car▁parked▁": 5545,
      "hillside.": 5546,
      "carries▁": 5547,
      "a▁close▁up▁of▁a▁person▁": 5548,
      "An▁older▁man▁": 5549,
      "splashing▁": 5550,
      "police▁officer▁": 5551,
      "TAB": 5552,
      "part▁of▁the▁": 5553,
      "Metal▁": 5554,
      "TWO▁": 5555,
      ",▁white▁": 5556,
      "k▁.": 5557,
      "pian": 5558,
      "round": 5559,
      "stuck▁": 5560,
      "handle▁": 5561,
      "a▁surfer▁": 5562,
      "flying▁a▁kite.": 5563,
      "alley▁": 5564,
      "makes▁": 5565,
      "A▁hot▁dog▁": 5566,
      "lack": 5567,
      "wood.": 5568,
      "a▁man▁with▁": 5569,
      "formation▁": 5570,
      "fence▁.": 5571,
      "traffic▁lights▁": 5572,
      "touching▁": 5573,
      "a▁basket▁": 5574,
      "bare": 5575,
      "Three▁women▁": 5576,
      "a▁woman▁is▁": 5577,
      "ridge▁": 5578,
      "harne": 5579,
      "end▁of▁a▁": 5580,
      "Ca": 5581,
      "parro": 5582,
      "kicking▁": 5583,
      "spots": 5584,
      "border": 5585,
      "a▁suit": 5586,
      "remote▁control▁": 5587,
      "walking▁through▁": 5588,
      "A▁train▁traveling▁": 5589,
      "toothbrush": 5590,
      "jam": 5591,
      "on▁a▁metal▁": 5592,
      "bush▁": 5593,
      "while▁others▁": 5594,
      "horses.": 5595,
      "white▁and▁red▁": 5596,
      "print▁": 5597,
      "train▁on▁the▁tracks": 5598,
      "sca": 5599,
      "er,▁": 5600,
      "that▁have▁": 5601,
      "four▁people▁": 5602,
      "island▁": 5603,
      "A▁herd▁of▁sheep▁": 5604,
      "slide▁": 5605,
      "on▁a▁sunny▁day.": 5606,
      "on▁road": 5607,
      "the▁ball": 5608,
      "on▁a▁couch▁": 5609,
      "on▁a▁pole▁": 5610,
      "in▁a▁living▁room▁": 5611,
      "at▁the▁top▁of▁a▁": 5612,
      "play▁a▁": 5613,
      "sitting▁on▁the▁side▁of▁a▁": 5614,
      "standing▁in▁a▁field": 5615,
      "counter▁top▁": 5616,
      "motorcycles▁parked▁": 5617,
      "Baseball▁player▁": 5618,
      "natural▁": 5619,
      "far▁": 5620,
      "pple▁": 5621,
      "her.": 5622,
      "the▁ball.": 5623,
      "is▁on▁": 5624,
      "water▁with▁": 5625,
      "a▁woman▁holding▁a▁": 5626,
      "knife.": 5627,
      "sniff": 5628,
      "es▁in▁": 5629,
      "couches▁": 5630,
      "shirt▁and▁blue▁": 5631,
      "watches▁.": 5632,
      "bed▁with▁": 5633,
      "Baby▁": 5634,
      "pattern▁": 5635,
      "LU": 5636,
      "g.": 5637,
      "e▁and▁": 5638,
      "A▁bedroom▁": 5639,
      "string▁": 5640,
      "race": 5641,
      "lot▁": 5642,
      "bathing▁": 5643,
      "word▁": 5644,
      "ducks▁": 5645,
      "ski▁slope": 5646,
      "exam": 5647,
      "railing": 5648,
      "the▁wall▁is▁": 5649,
      "white▁clouds▁": 5650,
      "tent▁": 5651,
      "tree▁with▁": 5652,
      "airplane▁flying▁": 5653,
      "this▁is▁an▁": 5654,
      "lists▁": 5655,
      "Her": 5656,
      "vil": 5657,
      "than▁": 5658,
      "in▁background.": 5659,
      "mag": 5660,
      "and▁white▁cat▁": 5661,
      "reading▁a▁book▁": 5662,
      "the▁trees▁are▁": 5663,
      "is▁jumping▁": 5664,
      "and▁women▁": 5665,
      "siz": 5666,
      "A▁man▁sits▁": 5667,
      "sheep.": 5668,
      "eating▁food▁": 5669,
      "projec": 5670,
      "straight▁": 5671,
      "apartment▁": 5672,
      "emb": 5673,
      "in▁yellow▁": 5674,
      "white▁dog▁": 5675,
      "tabby▁": 5676,
      "room▁is▁": 5677,
      "area.▁": 5678,
      "taking▁a▁picture▁of▁": 5679,
      "watch▁.": 5680,
      "in▁the▁distance.": 5681,
      "A▁view▁of▁": 5682,
      "fish": 5683,
      "hazy▁": 5684,
      "guard▁": 5685,
      "muff": 5686,
      "police": 5687,
      "brushing▁her▁": 5688,
      "med": 5689,
      "rec": 5690,
      "brown▁horse▁": 5691,
      "catches▁": 5692,
      "devic": 5693,
      "Di": 5694,
      "MO": 5695,
      "the▁people▁are▁": 5696,
      "green▁trees": 5697,
      "stands▁on▁a▁": 5698,
      "double": 5699,
      "this▁is▁a▁man": 5700,
      "Sky▁": 5701,
      "how▁to▁": 5702,
      "Wor": 5703,
      "▁and▁": 5704,
      "lef": 5705,
      "attire▁": 5706,
      "next▁to▁an▁": 5707,
      "walking▁through▁the▁": 5708,
      "lady▁is▁": 5709,
      "canop": 5710,
      "partly▁": 5711,
      "around.": 5712,
      "and▁silver▁": 5713,
      "someone": 5714,
      "sitting▁on▁the▁ground▁": 5715,
      "cutting▁board.": 5716,
      "barre": 5717,
      "lake▁.": 5718,
      "younger▁": 5719,
      "the▁photo▁was▁taken▁": 5720,
      "in▁a▁baseball▁": 5721,
      "at▁the▁beach.": 5722,
      "headed▁": 5723,
      "hanging▁from▁the▁": 5724,
      "flowers▁are▁": 5725,
      "persons▁": 5726,
      "hitting▁a▁tennis▁ball▁": 5727,
      "pouring▁": 5728,
      "HA": 5729,
      "plain▁": 5730,
      "cargo▁": 5731,
      "turn": 5732,
      "A▁small▁dog▁": 5733,
      "dressed▁up▁": 5734,
      "in▁the▁air▁.": 5735,
      "potted▁": 5736,
      "beneath▁the▁": 5737,
      "ky▁": 5738,
      "A▁clear▁": 5739,
      "a▁bed.": 5740,
      "siting▁": 5741,
      "eating▁some▁": 5742,
      "shiel": 5743,
      "racket.": 5744,
      "on▁a▁sunny▁day": 5745,
      "cleaning▁": 5746,
      "seems▁": 5747,
      "a▁banana": 5748,
      "frosted▁": 5749,
      "walking▁in▁a▁": 5750,
      "reaches▁": 5751,
      "dresses▁": 5752,
      "tarmac.": 5753,
      "wind▁": 5754,
      "terior▁": 5755,
      "tries▁to▁": 5756,
      "is▁standing▁on▁a▁": 5757,
      "soccer▁ball▁": 5758,
      "lined▁with▁": 5759,
      "Cle": 5760,
      "He▁is▁": 5761,
      "A▁colorful▁": 5762,
      "rece": 5763,
      "has▁brown▁": 5764,
      "leaf▁": 5765,
      "light▁colored▁": 5766,
      "sandwich▁with▁": 5767,
      "country": 5768,
      "Picture▁": 5769,
      "PEO": 5770,
      "goggles▁": 5771,
      "zen▁": 5772,
      "woman▁wearing▁a▁": 5773,
      "on▁a▁bicycle▁": 5774,
      "hill▁.": 5775,
      "crashing▁": 5776,
      "carrots▁and▁": 5777,
      "taking▁a▁picture▁": 5778,
      "cars▁parked▁": 5779,
      "oc": 5780,
      "on▁the▁back▁of▁a▁": 5781,
      "A▁man▁standing▁on▁a▁": 5782,
      "A▁cat▁laying▁": 5783,
      "animals": 5784,
      "containers▁": 5785,
      "Some▁people▁": 5786,
      "pasture.": 5787,
      "vendor▁": 5788,
      "neatly▁": 5789,
      "kes▁": 5790,
      "a▁truck▁": 5791,
      "A▁person▁in▁a▁": 5792,
      "trees▁behind▁": 5793,
      "view▁of▁the▁": 5794,
      "microwave": 5795,
      "pitch.": 5796,
      "concrete": 5797,
      "semi▁": 5798,
      "on▁grass": 5799,
      "with▁it's▁": 5800,
      ",▁two▁": 5801,
      "cela": 5802,
      "danc": 5803,
      "holding▁an▁umbrella.": 5804,
      "BU": 5805,
      "gle▁": 5806,
      "is▁white▁": 5807,
      "at▁a▁bus▁": 5808,
      "on▁a▁motorcycle▁": 5809,
      "A▁group▁of▁children▁": 5810,
      "telephone▁": 5811,
      "fresh": 5812,
      "there▁are▁two▁": 5813,
      "pedestrian▁": 5814,
      "volleyball▁": 5815,
      "Su": 5816,
      "A▁crowd▁": 5817,
      "the▁building▁is▁": 5818,
      "the▁elephant▁is▁": 5819,
      "in▁the▁sha": 5820,
      "playing▁socc": 5821,
      "plant": 5822,
      "building▁with▁a▁": 5823,
      "hills▁": 5824,
      "wine▁glasses▁": 5825,
      "away▁from▁the▁": 5826,
      "s▁to▁": 5827,
      "is▁green": 5828,
      "picking▁": 5829,
      "drive": 5830,
      "checking▁": 5831,
      "is▁brown.": 5832,
      "grilled▁": 5833,
      "athlet": 5834,
      "sinks▁": 5835,
      "connected▁": 5836,
      "tly▁": 5837,
      "standing▁up": 5838,
      "piled▁": 5839,
      "tusk": 5840,
      "hydrant▁": 5841,
      "swim▁": 5842,
      "lights.": 5843,
      "a▁surfboard": 5844,
      "wearing▁a▁white▁shirt": 5845,
      "on▁the▁beach▁.": 5846,
      "graffiti": 5847,
      "is▁made▁of▁wood": 5848,
      "View▁": 5849,
      "AN▁": 5850,
      "a▁motorcycle▁": 5851,
      "fridge": 5852,
      "cake▁with▁a▁": 5853,
      "A▁bathroom▁with▁": 5854,
      "boxes▁": 5855,
      "ds.": 5856,
      "ge.▁": 5857,
      "nic": 5858,
      "stard▁": 5859,
      "in▁the▁daytime": 5860,
      "Two▁guys▁": 5861,
      "pier▁": 5862,
      "plane.": 5863,
      "planes▁are▁": 5864,
      "dried▁": 5865,
      "intersection": 5866,
      "sandy▁beach▁": 5867,
      "healthy▁": 5868,
      "GRA": 5869,
      "er's▁": 5870,
      "with▁another▁": 5871,
      "on▁a▁pole": 5872,
      "on▁the▁road.": 5873,
      "catching▁": 5874,
      "homemade▁": 5875,
      "a▁scene▁during▁the▁day▁time▁": 5876,
      "Don": 5877,
      "a▁dark▁": 5878,
      "A▁crowd▁of▁": 5879,
      "a▁bicyc": 5880,
      "fries▁": 5881,
      "E▁ARE▁": 5882,
      "goat": 5883,
      "tall▁grass▁": 5884,
      "stunt▁": 5885,
      "Ar": 5886,
      "ign▁": 5887,
      "colum": 5888,
      "on▁the▁tracks": 5889,
      "teams▁": 5890,
      "indic": 5891,
      "a▁bar▁": 5892,
      "Two▁little▁": 5893,
      "tablecloth": 5894,
      "and▁a▁red▁": 5895,
      "over▁his▁": 5896,
      "ready▁for▁": 5897,
      "cabinets▁and▁": 5898,
      "musici": 5899,
      "and▁holding▁": 5900,
      "The▁girl▁is▁": 5901,
      "neigh": 5902,
      "A▁man▁sitting▁on▁a▁": 5903,
      "perform▁": 5904,
      "leaping▁": 5905,
      "les▁of▁": 5906,
      "tee▁": 5907,
      "tea▁": 5908,
      "clouds▁are▁": 5909,
      "plu": 5910,
      "the▁street▁": 5911,
      "grassy▁area▁": 5912,
      "obsta": 5913,
      "in▁a▁bowl": 5914,
      "and▁groom▁": 5915,
      "set.": 5916,
      "words▁": 5917,
      "half▁eaten▁": 5918,
      "under▁an▁umbrella▁": 5919,
      "grocery▁": 5920,
      "Ted": 5921,
      "gun": 5922,
      "in▁a▁box": 5923,
      "redi": 5924,
      "on▁the▁court": 5925,
      "ties▁": 5926,
      "ranch▁": 5927,
      "that▁is▁sitting▁on▁a▁": 5928,
      "tower▁is▁": 5929,
      "formal▁": 5930,
      "ING": 5931,
      "letters▁": 5932,
      "stretched▁": 5933,
      "facing▁the▁": 5934,
      "Lady▁": 5935,
      "pushing▁a▁": 5936,
      "hospital▁": 5937,
      "wrest": 5938,
      "a▁skateboarder▁": 5939,
      "a▁little▁girl▁": 5940,
      "in▁the▁kitchen": 5941,
      "sual▁": 5942,
      "que": 5943,
      "ggage▁": 5944,
      "with▁an▁orange▁": 5945,
      "A▁red▁fire▁hydrant▁": 5946,
      "together.▁": 5947,
      "walking▁down▁the▁street▁": 5948,
      "miling▁": 5949,
      "slightly▁": 5950,
      "a▁field▁of▁": 5951,
      "A▁metal▁": 5952,
      "in▁one▁": 5953,
      "A▁person▁with▁a▁": 5954,
      "stuff▁": 5955,
      "boat.": 5956,
      "carrot▁": 5957,
      "mini▁": 5958,
      "Elephant▁": 5959,
      "Loo": 5960,
      "to▁her▁": 5961,
      "The▁small▁": 5962,
      "underneath▁a▁": 5963,
      "angle▁": 5964,
      "an▁in": 5965,
      "body": 5966,
      "ingle▁": 5967,
      "ingredi": 5968,
      "wai": 5969,
      "tennis▁ball.": 5970,
      "wearing▁a▁yellow▁": 5971,
      "a▁young▁man▁": 5972,
      "instrument▁": 5973,
      "wagon▁": 5974,
      "'t▁": 5975,
      "gen": 5976,
      "gear": 5977,
      "cool": 5978,
      "standing▁with▁": 5979,
      "make": 5980,
      "at▁the▁camera▁": 5981,
      "soccer▁players▁": 5982,
      "contains▁": 5983,
      "chal": 5984,
      "washing▁": 5985,
      "a▁large▁white▁": 5986,
      "laptop▁computer": 5987,
      "hot▁dogs▁": 5988,
      "Teddy▁": 5989,
      "in▁field": 5990,
      "lage▁": 5991,
      "shrub": 5992,
      "Two▁white▁": 5993,
      "A▁white▁dog▁": 5994,
      "pushing▁": 5995,
      "window▁.": 5996,
      "porcela": 5997,
      "scissors": 5998,
      "catch▁a▁": 5999,
      "acce": 6000,
      "5▁": 6001,
      "Bir": 6002,
      "toilets▁": 6003,
      "festi": 6004,
      "standing▁in▁a▁field▁": 6005,
      "A▁black▁and▁white▁photo▁of▁a▁": 6006,
      "around": 6007,
      "scope▁": 6008,
      "you▁": 6009,
      "neighbor": 6010,
      "hits▁": 6011,
      "hose▁": 6012,
      "sets▁of▁": 6013,
      "Two▁cats▁": 6014,
      "driving▁a▁": 6015,
      "coffee.": 6016,
      "keyboard▁and▁": 6017,
      "golf▁": 6018,
      "position": 6019,
      "playing▁a▁video▁game": 6020,
      "PEOPLE▁": 6021,
      "moves▁": 6022,
      "ation.": 6023,
      "vegetables▁on▁a▁": 6024,
      "AR▁": 6025,
      "black▁and▁white.": 6026,
      "guitar": 6027,
      "propeller▁": 6028,
      "-aged▁": 6029,
      "A▁desk▁": 6030,
      "A▁number▁of▁": 6031,
      "a▁brea": 6032,
      "with▁a▁pink▁": 6033,
      "rusted▁": 6034,
      "roll▁": 6035,
      "boats▁in▁the▁": 6036,
      "vely▁": 6037,
      "A▁baseball▁player▁is▁": 6038,
      "gin": 6039,
      "on▁a▁desk.": 6040,
      "a▁bus.": 6041,
      "goat▁": 6042,
      "bathroom▁is▁": 6043,
      "airplane.": 6044,
      "jeans▁and▁": 6045,
      "reflected▁": 6046,
      "electronic": 6047,
      "event▁.": 6048,
      "traffic.": 6049,
      "down▁a▁snow▁covered▁slope.": 6050,
      "pick▁up▁": 6051,
      "maroon▁": 6052,
      "boun": 6053,
      "wl▁": 6054,
      "A▁flock▁of▁": 6055,
      "A▁large▁group▁of▁people▁": 6056,
      "GRO": 6057,
      "lamb": 6058,
      "platter▁": 6059,
      "hangs▁": 6060,
      "along▁side▁": 6061,
      "each▁other▁.": 6062,
      "navy▁": 6063,
      "skateboarding": 6064,
      "ocean▁.": 6065,
      "mmed▁": 6066,
      "Many▁people▁are▁": 6067,
      "button▁": 6068,
      "blurry▁": 6069,
      "competing▁": 6070,
      "farm▁": 6071,
      "thers▁": 6072,
      "in▁orange▁": 6073,
      "Two▁large▁": 6074,
      "ump▁": 6075,
      "eless▁": 6076,
      "A▁red▁and▁white▁": 6077,
      "ALL▁": 6078,
      "flight▁": 6079,
      "ka▁do": 6080,
      "on▁a▁street": 6081,
      "secon": 6082,
      "red▁and▁black▁": 6083,
      "train▁track▁": 6084,
      "portion▁": 6085,
      "couch,▁": 6086,
      "A▁blue▁and▁white▁": 6087,
      "SIT": 6088,
      "A▁double▁decker▁bus▁": 6089,
      "the▁building▁": 6090,
      "lying▁down▁": 6091,
      "something": 6092,
      "A▁man▁in▁a▁suit▁": 6093,
      "laun": 6094,
      "on▁the▁wall▁": 6095,
      "on▁the▁street▁.": 6096,
      "bac": 6097,
      "flying▁over▁": 6098,
      "crowd.": 6099,
      "in▁the▁background.▁": 6100,
      "Young▁girl▁": 6101,
      "dressed▁in▁black▁": 6102,
      "on▁it▁.": 6103,
      "-covered▁": 6104,
      "almost▁": 6105,
      "in▁the▁park": 6106,
      "green▁tree▁": 6107,
      "faces▁": 6108,
      "pizza▁on▁": 6109,
      "with▁a▁bear": 6110,
      "dog▁is▁running▁": 6111,
      "calm": 6112,
      "blond-": 6113,
      "mbo": 6114,
      "an▁adult▁": 6115,
      "and▁girl▁": 6116,
      "stal▁": 6117,
      "a▁man▁holding▁": 6118,
      "wooden▁bench": 6119,
      "pan.": 6120,
      "shorts▁and▁": 6121,
      "clear▁and▁": 6122,
      "that▁has▁some▁": 6123,
      "meat,▁": 6124,
      "sts▁": 6125,
      "a▁boat": 6126,
      "Three▁young▁": 6127,
      "ki▁": 6128,
      "self": 6129,
      "surface▁of▁": 6130,
      "one▁of▁them▁": 6131,
      "a▁couple▁": 6132,
      "black▁cat▁": 6133,
      "motorbike▁": 6134,
      "trees▁.": 6135,
      "bbles▁": 6136,
      "scissors.": 6137,
      "every": 6138,
      "horizon": 6139,
      "sy▁": 6140,
      "A▁variety▁of▁": 6141,
      "white▁plate▁with▁": 6142,
      "computer▁monitor▁": 6143,
      "dirt▁bike▁": 6144,
      "statue▁of▁": 6145,
      "shoulder": 6146,
      "can▁be▁seen▁": 6147,
      "diving▁": 6148,
      "kites": 6149,
      "chair▁and▁": 6150,
      "broccoli,▁": 6151,
      "away▁from▁": 6152,
      "onlookers▁": 6153,
      "Lon": 6154,
      "shut": 6155,
      "town": 6156,
      "ES▁": 6157,
      "VER": 6158,
      "mall": 6159,
      "a▁kite▁": 6160,
      "elf▁": 6161,
      "fork.": 6162,
      "road▁is▁": 6163,
      "displaying▁": 6164,
      "talk▁": 6165,
      "garage▁": 6166,
      "sitting▁at▁a▁table▁with▁a▁": 6167,
      "motorcycles": 6168,
      "in▁color.": 6169,
      "bottle": 6170,
      "featur": 6171,
      "flying": 6172,
      "double-": 6173,
      "hers": 6174,
      "resor": 6175,
      "ching▁the▁": 6176,
      "rice": 6177,
      "in▁the▁bathroom": 6178,
      "walls▁": 6179,
      "metal▁fence▁": 6180,
      "down▁the▁street.": 6181,
      "mustard▁": 6182,
      "stuffed▁bear": 6183,
      "cut▁into▁": 6184,
      "balancing▁": 6185,
      "a▁round▁": 6186,
      "bor▁": 6187,
      "es▁in▁a▁": 6188,
      "elfi": 6189,
      "as▁people▁": 6190,
      "poo": 6191,
      "turning▁": 6192,
      "outside▁the▁": 6193,
      "eating▁grass": 6194,
      "hands▁.": 6195,
      "suspended▁": 6196,
      "im": 6197,
      "in.": 6198,
      "the▁person▁is▁": 6199,
      "rist▁": 6200,
      "in▁the▁water▁.": 6201,
      "travel▁": 6202,
      "sitting▁around▁": 6203,
      "woman▁in▁a▁": 6204,
      "mountain▁.": 6205,
      "spee": 6206,
      "setting": 6207,
      "button": 6208,
      "Plat": 6209,
      "FF": 6210,
      "tennis.": 6211,
      "foam": 6212,
      "shaking▁": 6213,
      "leaning▁against▁a▁": 6214,
      "electrical▁": 6215,
      "Snow": 6216,
      "plates▁of▁food▁": 6217,
      "uc": 6218,
      "that": 6219,
      "A▁cake▁": 6220,
      "roses▁": 6221,
      "a▁bro": 6222,
      "ones▁": 6223,
      "smiling▁.": 6224,
      "A▁child▁is▁": 6225,
      "foliage▁": 6226,
      "Flow": 6227,
      "aren": 6228,
      "A▁passenger▁": 6229,
      "in▁water▁": 6230,
      "one.": 6231,
      "pizza▁and▁": 6232,
      "sleeps▁": 6233,
      "soccer▁player▁": 6234,
      "A▁kitchen▁with▁": 6235,
      "scene▁with▁": 6236,
      "in▁midair▁": 6237,
      "Little▁girl▁": 6238,
      "kha": 6239,
      "ina▁": 6240,
      "A▁sheep▁": 6241,
      "A▁set▁of▁": 6242,
      "behin": 6243,
      "ts▁to▁": 6244,
      "a▁man▁in▁": 6245,
      "A▁man▁in▁black▁": 6246,
      "shion▁": 6247,
      "candle▁": 6248,
      "WOMAN▁": 6249,
      "large,▁": 6250,
      "strawberri": 6251,
      "sausage▁": 6252,
      "is▁red": 6253,
      "at▁a▁s": 6254,
      "ility▁": 6255,
      "The▁bus▁is▁": 6256,
      "cage": 6257,
      "cabinets.": 6258,
      "towards▁a▁": 6259,
      "controller▁": 6260,
      "more▁": 6261,
      "Traff": 6262,
      "tow▁": 6263,
      "cher": 6264,
      "section▁": 6265,
      "standing▁together": 6266,
      "close▁to▁the▁": 6267,
      "boats": 6268,
      "trees.▁": 6269,
      "a▁tennis▁ball": 6270,
      "Dir": 6271,
      "mb▁": 6272,
      "ner": 6273,
      "ue▁": 6274,
      "the▁trees▁": 6275,
      "lowing▁": 6276,
      "off▁of▁": 6277,
      "A▁black▁and▁white▁cat▁": 6278,
      "posted▁": 6279,
      "polka▁do": 6280,
      "Mi": 6281,
      "A▁table▁with▁": 6282,
      "the▁girl▁is▁": 6283,
      "rough▁": 6284,
      "there▁": 6285,
      "performs▁a▁": 6286,
      "side▁by▁side": 6287,
      "toppings": 6288,
      "a▁clear▁blue▁sky": 6289,
      "The▁ground▁is▁": 6290,
      "standing▁behind▁a▁": 6291,
      "seri": 6292,
      "with▁an▁open▁": 6293,
      "Blue▁sky▁": 6294,
      "A▁man▁and▁a▁woman▁are▁": 6295,
      "gym": 6296,
      "located▁": 6297,
      "Traffic▁": 6298,
      "a.": 6299,
      "blea": 6300,
      "ure.": 6301,
      "the▁scene▁is▁": 6302,
      "illu": 6303,
      "wine▁glass▁": 6304,
      "in▁a▁red▁shirt▁": 6305,
      "includes▁": 6306,
      "at▁night▁.": 6307,
      "BOAR": 6308,
      "down▁a▁slo": 6309,
      "GH": 6310,
      "Ol": 6311,
      "the▁table▁": 6312,
      "and▁baby▁": 6313,
      "on▁a▁surfboard.": 6314,
      "ped": 6315,
      "green▁grass.": 6316,
      "thered▁": 6317,
      "ation▁.": 6318,
      "head▁.": 6319,
      "squar": 6320,
      "balcon": 6321,
      "a▁box▁of▁": 6322,
      ";▁": 6323,
      "with▁dark▁": 6324,
      "course▁": 6325,
      "window▁of▁a▁": 6326,
      "standing▁in▁the▁grass▁": 6327,
      "standing▁in▁the▁grass.": 6328,
      "curtains▁": 6329,
      "vanity▁": 6330,
      "present": 6331,
      "Stu": 6332,
      "gn": 6333,
      "a▁cake▁": 6334,
      "stal": 6335,
      "A▁man▁standing▁next▁to▁a▁": 6336,
      "waving▁": 6337,
      "amoun": 6338,
      "walking▁down▁": 6339,
      "posing▁for▁the▁": 6340,
      "A▁red▁stop▁sign▁": 6341,
      "this▁is▁the▁": 6342,
      "sleeping▁on▁a▁": 6343,
      "opening▁": 6344,
      "Chinese▁": 6345,
      "hay": 6346,
      "white,▁and▁": 6347,
      "blue,▁": 6348,
      "a▁surfboard.": 6349,
      "toppings▁": 6350,
      "designed▁": 6351,
      "WE": 6352,
      "jar▁": 6353,
      "people▁in▁": 6354,
      "big": 6355,
      "fencing▁": 6356,
      "a▁small▁child▁": 6357,
      "TOP▁": 6358,
      "on▁a▁building": 6359,
      "teenage▁": 6360,
      "spray▁": 6361,
      "0▁": 6362,
      "pare▁": 6363,
      "A▁pink▁": 6364,
      "polo▁": 6365,
      "skater▁": 6366,
      "behind▁him▁.": 6367,
      "shop": 6368,
      "laying▁on▁a▁bed▁": 6369,
      "soa": 6370,
      "glasses▁of▁": 6371,
      "corn▁": 6372,
      "sitting▁on▁a▁bed▁": 6373,
      "downtown▁": 6374,
      "poles.": 6375,
      "spots▁": 6376,
      "tennis▁court▁holding▁a▁": 6377,
      "looking▁at▁the▁camera": 6378,
      "ouquet▁of▁": 6379,
      "NE": 6380,
      "A▁photo▁of▁a▁": 6381,
      "is▁white.": 6382,
      "libr": 6383,
      "next▁to▁it.": 6384,
      "laptops▁": 6385,
      "looking▁at▁her▁": 6386,
      "pole▁with▁": 6387,
      "lit▁up▁": 6388,
      "path.": 6389,
      "gentleman▁": 6390,
      "porcelain▁": 6391,
      "jar": 6392,
      "A▁▁": 6393,
      "rib": 6394,
      "ook▁": 6395,
      "playing▁in▁a▁": 6396,
      "walking▁along▁a▁": 6397,
      "shirt▁on▁": 6398,
      "lying▁on▁a▁": 6399,
      "glasses▁is▁": 6400,
      "cloudless▁": 6401,
      "a▁tennis▁ball.": 6402,
      "in▁its▁mouth▁.": 6403,
      "power▁lines▁": 6404,
      "SITTING▁": 6405,
      "acc": 6406,
      "e,▁": 6407,
      "ry.": 6408,
      "is▁in▁a▁": 6409,
      "Two▁brown▁": 6410,
      "deck": 6411,
      "walls": 6412,
      "stands▁in▁front▁of▁a▁": 6413,
      "a▁bike": 6414,
      "couch▁and▁": 6415,
      "line▁.": 6416,
      "doing▁a▁trick": 6417,
      "perched▁on▁a▁": 6418,
      "neckla": 6419,
      "funny▁": 6420,
      "SU": 6421,
      "an▁un": 6422,
      "in▁the▁street.": 6423,
      "and▁a▁large▁": 6424,
      "appear▁": 6425,
      "pictures▁of▁": 6426,
      "on▁a▁white▁plate.": 6427,
      "vegetation▁": 6428,
      "Lots▁of▁": 6429,
      "andy▁": 6430,
      "in▁the▁picture": 6431,
      "on▁the▁sidewalk.": 6432,
      "The▁trees▁are▁": 6433,
      "item▁": 6434,
      "stuffed▁animals▁": 6435,
      "looking▁at▁his▁": 6436,
      "man▁wearing▁white▁": 6437,
      "sandy▁beach.": 6438,
      "tennis▁racquet.": 6439,
      "A▁close▁up▁": 6440,
      "Indian▁": 6441,
      "Li": 6442,
      "really▁": 6443,
      "ding▁a▁": 6444,
      "They▁": 6445,
      "traditi": 6446,
      "note": 6447,
      "ers▁on▁": 6448,
      "dog▁.": 6449,
      "front▁of▁the▁": 6450,
      "toilet▁seat▁": 6451,
      "truck▁with▁": 6452,
      "vase▁of▁": 6453,
      "sitting▁at▁a▁table": 6454,
      "enjoy▁": 6455,
      "Kids▁": 6456,
      "a▁plate▁with▁": 6457,
      "lemon": 6458,
      "cobb": 6459,
      "to▁get▁": 6460,
      "hort▁": 6461,
      "city▁street▁.": 6462,
      "this▁is▁a▁person": 6463,
      "outdoors▁.": 6464,
      "pond▁": 6465,
      "Ex": 6466,
      "the▁water▁": 6467,
      "dow": 6468,
      "tasty▁": 6469,
      "diam": 6470,
      "shot▁of▁": 6471,
      "spy▁": 6472,
      "at▁an▁airport.": 6473,
      "house▁.": 6474,
      "chocolate▁cake▁": 6475,
      "phone▁is▁": 6476,
      "spi": 6477,
      "with▁pink▁": 6478,
      "playing▁frisbee": 6479,
      "plays▁a▁": 6480,
      "hiking▁": 6481,
      "horse▁and▁": 6482,
      "truck▁.": 6483,
      "a▁person▁is▁": 6484,
      "looks▁on▁.": 6485,
      "branches": 6486,
      "in▁a▁white▁shirt▁": 6487,
      "locomotive▁": 6488,
      "ware▁": 6489,
      "and▁grey▁": 6490,
      "on▁a▁motorcycle": 6491,
      "The▁dog▁": 6492,
      "railway▁": 6493,
      "green,▁": 6494,
      "controller.": 6495,
      "landscape▁": 6496,
      "tion": 6497,
      "A▁woman▁holding▁": 6498,
      "thrown▁": 6499,
      "lining▁": 6500,
      "prepare▁": 6501,
      "adju": 6502,
      "The▁man▁is▁wearing▁a▁": 6503,
      "chasing▁": 6504,
      "eye": 6505,
      "swinging▁his▁": 6506,
      "climbing▁a▁": 6507,
      "take▁a▁": 6508,
      "second▁": 6509,
      "Pro": 6510,
      "A▁meal▁": 6511,
      "rodeo▁": 6512,
      "standing▁at▁the▁": 6513,
      "has▁just▁": 6514,
      "ly▁lit▁": 6515,
      "Three▁giraffes▁": 6516,
      "silhou": 6517,
      "A▁small▁boy▁": 6518,
      "someth": 6519,
      "wave▁in▁the▁ocean.": 6520,
      "ski▁poles": 6521,
      "striped▁shirt": 6522,
      "someone's▁": 6523,
      "Cou": 6524,
      "A▁refrigerator▁": 6525,
      "on▁a▁surfboard": 6526,
      "in▁a▁row": 6527,
      "pical▁": 6528,
      "walls.": 6529,
      "orange▁and▁white▁": 6530,
      "sely▁": 6531,
      "walkway": 6532,
      "resting▁on▁a▁": 6533,
      "chain▁link▁fence▁": 6534,
      "exhib": 6535,
      "K▁": 6536,
      "a▁street▁sign▁": 6537,
      "wait": 6538,
      "a▁woman▁wearing▁a▁": 6539,
      "vehicle.": 6540,
      "A▁living▁room▁with▁a▁": 6541,
      "Building▁": 6542,
      "Wii.": 6543,
      "ta▁": 6544,
      "zi": 6545,
      "lear": 6546,
      "tiles": 6547,
      "horn": 6548,
      "mans▁": 6549,
      "forward▁": 6550,
      "stori": 6551,
      "stadium▁": 6552,
      "cheese.": 6553,
      "motorcycles▁are▁": 6554,
      "box.": 6555,
      "having▁fun▁": 6556,
      "Horses▁": 6557,
      "organi": 6558,
      "sing▁a▁": 6559,
      "ving": 6560,
      "in▁air": 6561,
      "chro": 6562,
      "on▁a▁wall": 6563,
      "in▁a▁zoo▁": 6564,
      "trays▁": 6565,
      "ssed▁": 6566,
      "daugh": 6567,
      "cushion": 6568,
      "pitching▁": 6569,
      "in▁the▁wild": 6570,
      "grass▁covered▁field.": 6571,
      "name▁": 6572,
      "ssing▁a▁": 6573,
      "that▁reads▁": 6574,
      "some▁kind▁of▁": 6575,
      "stop.": 6576,
      "medium▁": 6577,
      "horseback▁": 6578,
      "dustri": 6579,
      "smiling▁and▁": 6580,
      "reflection▁of▁": 6581,
      "harbor▁": 6582,
      "A▁pizza▁with▁": 6583,
      "cats▁are▁": 6584,
      "cups▁": 6585,
      "skateboard.▁": 6586,
      "overcast": 6587,
      "swim": 6588,
      "in▁a▁grassy▁field.": 6589,
      "which▁is▁": 6590,
      "THERE▁ARE▁": 6591,
      "catcher▁and▁": 6592,
      "Dou": 6593,
      "string": 6594,
      "skil": 6595,
      "The▁person▁": 6596,
      "ute▁": 6597,
      "shot▁": 6598,
      "A▁young▁boy▁is▁": 6599,
      "jacket.": 6600,
      "Trees▁are▁": 6601,
      "potato▁": 6602,
      "one▁of▁the▁": 6603,
      "syste": 6604,
      "Motorcycle▁": 6605,
      "A▁bike▁": 6606,
      "in▁a▁public▁": 6607,
      "with▁a▁woman▁": 6608,
      "building.▁": 6609,
      "long▁sleeve▁": 6610,
      "hanging▁out▁": 6611,
      "A▁little▁girl▁is▁": 6612,
      "walk.": 6613,
      "clean▁and▁": 6614,
      "CH▁": 6615,
      "All▁": 6616,
      "Fe": 6617,
      "Table▁": 6618,
      "a▁little▁boy▁": 6619,
      "rate▁": 6620,
      "on▁the▁grass.": 6621,
      "standing▁at▁a▁": 6622,
      "pajam": 6623,
      "leaps▁": 6624,
      "tall▁grass": 6625,
      "beard▁": 6626,
      "talking▁on▁": 6627,
      "biker▁": 6628,
      "colli": 6629,
      "items": 6630,
      "a▁beach": 6631,
      "bottle▁of▁": 6632,
      "Bird▁": 6633,
      "in▁a▁big▁": 6634,
      "ous": 6635,
      "on▁the▁counter": 6636,
      "baby": 6637,
      ",▁the▁": 6638,
      "of▁a▁man▁": 6639,
      "people▁on▁": 6640,
      "shoes.": 6641,
      "A▁group▁of▁women▁": 6642,
      "panel": 6643,
      "A▁cat▁that▁is▁": 6644,
      "jumping▁over▁": 6645,
      "smiling▁while▁": 6646,
      "skate▁park": 6647,
      "drawing▁": 6648,
      "stares▁": 6649,
      "event": 6650,
      "performing▁a▁trick▁": 6651,
      "remote.": 6652,
      "Male▁": 6653,
      "Sandwi": 6654,
      "hur": 6655,
      "the▁snow▁": 6656,
      "attra": 6657,
      "tractor▁": 6658,
      "with▁a▁cat▁": 6659,
      "suit.": 6660,
      "skii": 6661,
      "wooden▁floor": 6662,
      "runette▁": 6663,
      "in▁his▁hand.": 6664,
      "melted▁": 6665,
      "king": 6666,
      "a▁pile▁of▁": 6667,
      "lane▁": 6668,
      "laptop▁is▁": 6669,
      "dirt▁and▁": 6670,
      "being▁held▁": 6671,
      "calf▁": 6672,
      "bus▁is▁parked▁": 6673,
      "miniature▁": 6674,
      "trolley▁": 6675,
      "traditional▁": 6676,
      "An": 6677,
      "LI": 6678,
      "A▁parking▁meter▁": 6679,
      "at▁his▁": 6680,
      "on▁the▁water.": 6681,
      "frost": 6682,
      "ded": 6683,
      "lying▁on▁": 6684,
      "a▁baseball▁bat.": 6685,
      "traffic▁light.": 6686,
      "intere": 6687,
      "donuts.": 6688,
      "musical▁": 6689,
      "dustrial▁": 6690,
      "te.": 6691,
      "on▁the▁runway": 6692,
      "with▁a▁few▁": 6693,
      "condi": 6694,
      "sign▁.": 6695,
      "stadium": 6696,
      "sits▁next▁to▁a▁": 6697,
      "riding▁a▁horse": 6698,
      "cup.": 6699,
      "class▁": 6700,
      "body▁of▁water.": 6701,
      "river▁.": 6702,
      "train▁on▁tracks": 6703,
      "child's▁": 6704,
      "Mar": 6705,
      "A▁man▁on▁a▁skateboard▁": 6706,
      "A▁young▁girl▁is▁": 6707,
      "below▁the▁": 6708,
      "double-decker▁": 6709,
      "a▁window▁": 6710,
      "ini▁": 6711,
      "A▁beach▁": 6712,
      "shot": 6713,
      "riding▁a▁skateboard": 6714,
      "with▁green▁leaves": 6715,
      "Cows▁": 6716,
      "Adult▁": 6717,
      "examin": 6718,
      "A▁man▁flying▁through▁the▁air▁": 6719,
      "ulls▁": 6720,
      "viol": 6721,
      "rolls▁": 6722,
      "through▁the▁air▁": 6723,
      "tie▁and▁": 6724,
      "poster▁": 6725,
      "direction▁": 6726,
      "clothes": 6727,
      "Older▁": 6728,
      "wards▁": 6729,
      "a▁hand▁": 6730,
      "the▁ground▁is▁": 6731,
      "on▁the▁right▁": 6732,
      "two▁white▁": 6733,
      "tree.▁": 6734,
      "colored": 6735,
      "ture▁.": 6736,
      "metall": 6737,
      "quare▁": 6738,
      "Man▁and▁woman▁": 6739,
      "A▁black▁bear▁": 6740,
      "off.": 6741,
      "UND": 6742,
      "middle-aged▁": 6743,
      "Looking▁": 6744,
      "train▁car▁": 6745,
      "motorcyclist▁": 6746,
      "trim▁": 6747,
      "glasses▁and▁": 6748,
      "seat.": 6749,
      "wild": 6750,
      "polar▁bear": 6751,
      "gets▁ready▁to▁": 6752,
      "Photo▁was▁taken▁in▁the▁daytime": 6753,
      "bo▁": 6754,
      "land.": 6755,
      "next▁to▁a▁large▁": 6756,
      "a▁black▁cat▁": 6757,
      "sheep▁grazing▁": 6758,
      "center": 6759,
      "milk▁": 6760,
      "box▁of▁": 6761,
      "parach": 6762,
      "closed": 6763,
      "toaster▁": 6764,
      "blonde▁hair": 6765,
      "is▁running▁": 6766,
      "up▁to▁a▁": 6767,
      "dig": 6768,
      "smiling.": 6769,
      "while▁riding▁": 6770,
      "ROO": 6771,
      "themsel": 6772,
      "hit▁the▁ball": 6773,
      "ON": 6774,
      "on▁this▁": 6775,
      "the▁pizza▁is▁": 6776,
      "is▁full▁of▁": 6777,
      "lay▁": 6778,
      "two▁dogs▁": 6779,
      "has▁long▁": 6780,
      "a▁black▁dog▁": 6781,
      "bricks": 6782,
      "drive▁": 6783,
      "roller": 6784,
      "speed▁": 6785,
      "border▁": 6786,
      "wetsuit": 6787,
      "harbor": 6788,
      "cellphone▁.": 6789,
      "STREE": 6790,
      "gymna": 6791,
      "floo": 6792,
      "third▁": 6793,
      "enga": 6794,
      "on▁a▁stage▁": 6795,
      "on▁the▁other▁": 6796,
      "A▁woman▁stands▁": 6797,
      "gie▁": 6798,
      "martial▁": 6799,
      "dirt▁road▁": 6800,
      "jumping▁over▁a▁": 6801,
      "A▁man▁in▁a▁green▁": 6802,
      "oranges": 6803,
      "entertainment▁": 6804,
      "GE▁": 6805,
      "vated▁": 6806,
      "a▁fence▁": 6807,
      "colou": 6808,
      "es▁on▁the▁": 6809,
      "white▁toilet▁": 6810,
      "among": 6811,
      "runner▁": 6812,
      "curled▁up▁": 6813,
      "Four▁men▁": 6814,
      "bag.": 6815,
      "carriage": 6816,
      "A▁female▁tennis▁player▁": 6817,
      "sculpture▁": 6818,
      "cut▁in▁half▁": 6819,
      "THAT▁IS▁": 6820,
      "moto": 6821,
      "consi": 6822,
      "snowboards▁": 6823,
      "back▁of▁the▁": 6824,
      "chef": 6825,
      "behind▁a▁fence": 6826,
      "headphones▁": 6827,
      "candy▁": 6828,
      "objects▁": 6829,
      "urinal▁": 6830,
      "racquet▁": 6831,
      "amongst▁": 6832,
      "ble.": 6833,
      "my▁": 6834,
      "a▁mirror▁": 6835,
      "A▁tree▁": 6836,
      "the▁zebra▁is▁": 6837,
      "ears": 6838,
      "tag▁": 6839,
      "with▁a▁sign▁": 6840,
      "stream▁": 6841,
      "town.": 6842,
      "This▁photo▁was▁taken▁": 6843,
      "dirt▁road.": 6844,
      "beach▁.": 6845,
      "motorcycles.": 6846,
      "made▁from▁": 6847,
      "Building": 6848,
      "toddl": 6849,
      "atop▁a▁": 6850,
      "GE": 6851,
      "It▁is▁": 6852,
      "WAT": 6853,
      "on▁them": 6854,
      "end▁of▁": 6855,
      "in▁a▁city.": 6856,
      "at▁a▁table▁with▁": 6857,
      "above": 6858,
      "foreign▁": 6859,
      "cellphone.": 6860,
      "denim▁": 6861,
      "protective▁": 6862,
      "Slic": 6863,
      "ling": 6864,
      "on▁sidewalk": 6865,
      "lot": 6866,
      "on▁a▁grassy▁": 6867,
      "sitting▁under▁a▁": 6868,
      "zzy▁": 6869,
      "courty": 6870,
      "being▁pulled▁": 6871,
      "lamb▁": 6872,
      "liquid▁": 6873,
      "A▁professional▁": 6874,
      "on▁skateboard": 6875,
      "on▁a▁sidewalk.": 6876,
      "The▁boy▁": 6877,
      "waters▁": 6878,
      "riding▁a▁bicycle▁": 6879,
      "driver▁": 6880,
      "typing▁": 6881,
      "Bath": 6882,
      "looks▁like▁a▁": 6883,
      "a▁baseball.": 6884,
      "smoking▁a▁": 6885,
      "amount▁of▁": 6886,
      "Pol": 6887,
      "a▁set▁of▁": 6888,
      "on▁a▁court.": 6889,
      "watches.": 6890,
      "empty": 6891,
      "bike.": 6892,
      "rail.": 6893,
      "made▁of▁wood": 6894,
      "sweatshirt▁": 6895,
      "students▁": 6896,
      "herself▁": 6897,
      "Stop▁": 6898,
      "a▁bite▁": 6899,
      "white▁plate.": 6900,
      "A▁woman▁in▁a▁black▁": 6901,
      "man▁wearing▁blue▁": 6902,
      "cloudy▁sky▁": 6903,
      "branch": 6904,
      "sauce.": 6905,
      "a▁business▁": 6906,
      "stretching▁": 6907,
      "individual▁": 6908,
      "asphalt▁": 6909,
      "On▁": 6910,
      "gar▁": 6911,
      "pen.": 6912,
      "ando": 6913,
      "A▁bed": 6914,
      "on▁floor": 6915,
      "his▁skateboard▁": 6916,
      "wearing▁pink▁": 6917,
      "tracks▁in▁the▁": 6918,
      "cabinets▁": 6919,
      "Two▁young▁men▁": 6920,
      "CLO": 6921,
      "The▁giraffes▁are▁": 6922,
      "Two▁black▁": 6923,
      "looking▁out▁the▁": 6924,
      "over▁her▁": 6925,
      "pants▁and▁": 6926,
      "piece": 6927,
      "T▁OF▁": 6928,
      "seat▁of▁a▁": 6929,
      "parking▁meter": 6930,
      "sitting▁next▁to▁each▁other▁": 6931,
      "buses▁are▁": 6932,
      "children": 6933,
      "Broccoli": 6934,
      "kn": 6935,
      "mon▁": 6936,
      "a▁pink▁": 6937,
      "cone": 6938,
      "The▁black▁": 6939,
      "bucket▁": 6940,
      "Two▁kids▁": 6941,
      "while▁a▁woman▁": 6942,
      "surfing▁a▁": 6943,
      "walls▁and▁": 6944,
      "snow▁board▁": 6945,
      "guy▁is▁": 6946,
      "chewing▁": 6947,
      "on▁the▁side▁of▁the▁road.": 6948,
      "teeth.": 6949,
      "A▁tan▁": 6950,
      "A▁room▁with▁a▁": 6951,
      "amer": 6952,
      "ston": 6953,
      "Man▁holding▁": 6954,
      "a▁baseball▁bat": 6955,
      "apples": 6956,
      "wood▁table": 6957,
      "to▁the▁right▁": 6958,
      "different▁kinds▁of▁": 6959,
      "living▁room▁with▁": 6960,
      "branch▁": 6961,
      "leaning▁against▁": 6962,
      "during▁a▁game.": 6963,
      "spina": 6964,
      "Pink▁": 6965,
      "is▁blue": 6966,
      "in▁a▁zoo": 6967,
      "plates": 6968,
      "flowers▁in▁": 6969,
      "headboard▁": 6970,
      "Young▁man▁": 6971,
      "statue": 6972,
      "surf▁board.": 6973,
      "The▁man▁in▁the▁": 6974,
      "nearby▁": 6975,
      "A▁modern▁": 6976,
      "motion": 6977,
      "Clear▁": 6978,
      "freshly▁": 6979,
      "Lap": 6980,
      "earded▁": 6981,
      "in▁a▁city": 6982,
      "bey": 6983,
      "train▁.": 6984,
      "on▁a▁bench.": 6985,
      "brown.": 6986,
      "shower.": 6987,
      "leaves▁are▁": 6988,
      "made▁out▁of▁": 6989,
      "features▁": 6990,
      "Skateboarder▁": 6991,
      "in▁it's▁": 6992,
      "in▁the▁rain▁": 6993,
      "food▁on▁it": 6994,
      "A▁young▁lady▁": 6995,
      "hiding▁": 6996,
      "feet": 6997,
      "posing▁for▁": 6998,
      "A▁black▁and▁white▁dog▁": 6999,
      "A▁very▁cute▁": 7000,
      "taking▁a▁swing▁": 7001,
      "transport": 7002,
      "bride▁and▁groom▁": 7003,
      "bleach": 7004,
      "Bear▁": 7005,
      "far": 7006,
      "a▁bench": 7007,
      "on▁the▁left▁": 7008,
      "standing▁beside▁": 7009,
      "city▁bus▁": 7010,
      "toilet▁paper▁": 7011,
      "slice▁": 7012,
      "downhill▁": 7013,
      "bananas▁and▁": 7014,
      "pony": 7015,
      "furniture.": 7016,
      "toasted▁": 7017,
      "daughter▁": 7018,
      "a▁female▁": 7019,
      "the▁people▁": 7020,
      "woods▁.": 7021,
      "a▁blue▁sky.": 7022,
      "in▁a▁bed▁": 7023,
      "ROW": 7024,
      "jets▁": 7025,
      "Very▁": 7026,
      "mp▁": 7027,
      "a▁teddy▁bear▁": 7028,
      "things▁": 7029,
      "The▁cat▁": 7030,
      "green▁and▁yellow▁": 7031,
      "skiers▁are▁": 7032,
      "There▁is▁a▁man▁": 7033,
      "cow.": 7034,
      "passenger▁train": 7035,
      "railroad▁tracks": 7036,
      "disc▁": 7037,
      "carrots,▁": 7038,
      "Gla": 7039,
      "de.": 7040,
      "zing▁": 7041,
      "a▁glass▁": 7042,
      "allo": 7043,
      "cot": 7044,
      "seven▁": 7045,
      "A▁man▁holds▁": 7046,
      "next▁to▁another▁": 7047,
      "young▁child▁": 7048,
      "An▁airplane▁is▁": 7049,
      "People▁walking▁": 7050,
      "different▁colored▁": 7051,
      "bikes": 7052,
      "containing▁a▁": 7053,
      "microwave.": 7054,
      "spoon": 7055,
      "chips▁": 7056,
      "shower▁curtain": 7057,
      "LACK▁": 7058,
      "A▁close▁up▁of▁": 7059,
      "Photo▁taken▁": 7060,
      "a▁bridge.": 7061,
      "suit▁and▁tie▁": 7062,
      "Ri": 7063,
      "SS▁": 7064,
      "ee▁": 7065,
      "in▁a▁ba": 7066,
      "in▁photo": 7067,
      "The▁girl▁": 7068,
      ",▁wearing▁": 7069,
      "A▁woman▁and▁": 7070,
      "Man▁wearing▁a▁": 7071,
      "strip": 7072,
      "riding▁a▁skateboard.": 7073,
      "in▁an▁enclosure": 7074,
      "match▁": 7075,
      "sitting▁on▁top▁of▁a▁wooden▁": 7076,
      "Red▁and▁white▁": 7077,
      "stopped▁at▁a▁": 7078,
      "what▁appears▁to▁be▁": 7079,
      "lap▁top▁": 7080,
      "UT": 7081,
      "depic": 7082,
      "A▁woman▁that▁is▁": 7083,
      "table▁cloth▁": 7084,
      "while▁wearing▁": 7085,
      "s▁are▁on▁the▁": 7086,
      "teen▁": 7087,
      "way▁.": 7088,
      "to▁the▁left": 7089,
      "rests▁": 7090,
      "fence.▁": 7091,
      "standing.": 7092,
      "giraffe's▁": 7093,
      "bank▁": 7094,
      "walking▁down▁a▁street▁": 7095,
      "STAN": 7096,
      "A▁close-": 7097,
      "mattress▁": 7098,
      "metallic▁": 7099,
      "ies▁": 7100,
      "A▁bright▁": 7101,
      "sitting▁inside▁of▁a▁": 7102,
      "heading▁": 7103,
      "tall▁buildings.": 7104,
      "cabinets": 7105,
      "controller": 7106,
      "A▁living▁room▁with▁": 7107,
      "A▁skateboarder▁is▁": 7108,
      "multi▁colored▁": 7109,
      "on▁a▁clear▁": 7110,
      "all▁the▁": 7111,
      "The▁little▁": 7112,
      "A▁man▁and▁a▁": 7113,
      "ds▁and▁": 7114,
      "at▁a▁table.": 7115,
      "at▁the▁zoo": 7116,
      "phone▁.": 7117,
      "entrance▁": 7118,
      "piano▁": 7119,
      "cobble": 7120,
      "New▁": 7121,
      "tin▁": 7122,
      "A▁G": 7123,
      "man▁and▁": 7124,
      "camou": 7125,
      "room.▁": 7126,
      "side▁.": 7127,
      "Three▁men▁are▁": 7128,
      "in▁an▁outdoor▁": 7129,
      "abando": 7130,
      "fire▁hydrant▁is▁": 7131,
      "birds▁flying▁": 7132,
      "shirt▁and▁jeans▁": 7133,
      "hooded▁": 7134,
      "partici": 7135,
      "soup": 7136,
      "birthday▁cake▁": 7137,
      "laid▁out▁": 7138,
      "listening▁to▁": 7139,
      "guys▁are▁": 7140,
      "NO": 7141,
      "the▁large▁": 7142,
      "the▁boy▁": 7143,
      "to▁eat▁": 7144,
      "in▁the▁sand": 7145,
      "a▁board▁": 7146,
      "helping▁": 7147,
      "cree": 7148,
      "gging▁a▁": 7149,
      "about▁to▁hit▁": 7150,
      "surfboards.": 7151,
      "furniture": 7152,
      "pillows": 7153,
      "pedestrian": 7154,
      "a▁line▁of▁": 7155,
      "in▁the▁city": 7156,
      "with▁a▁person▁": 7157,
      "motion▁": 7158,
      "parked▁next▁to▁a▁": 7159,
      "sunglasses": 7160,
      "a▁person▁riding▁": 7161,
      "talking▁on▁her▁": 7162,
      "with▁a▁ball▁": 7163,
      "excit": 7164,
      "visible": 7165,
      "travelling▁": 7166,
      "wrink": 7167,
      "A▁herd▁of▁elephants▁": 7168,
      "Close": 7169,
      "camoufla": 7170,
      "Wall▁": 7171,
      "plaz": 7172,
      "hand.▁": 7173,
      "move▁": 7174,
      "while▁two▁": 7175,
      "shoe▁": 7176,
      "stool": 7177,
      "birds": 7178,
      "gray▁and▁": 7179,
      "riding▁a▁skate▁board▁": 7180,
      "flat": 7181,
      "dress▁is▁": 7182,
      "covered▁with▁snow": 7183,
      "football▁player▁": 7184,
      "Apple▁": 7185,
      "WAL": 7186,
      "in▁pro": 7187,
      "el.": 7188,
      "in▁a▁wooded▁": 7189,
      "sitting▁on▁a▁table": 7190,
      "savan": 7191,
      "in▁front▁of▁a▁building▁": 7192,
      "with▁white▁clouds": 7193,
      "Blue▁and▁white▁": 7194,
      "path▁.": 7195,
      "hit▁the▁ball.": 7196,
      "makes▁a▁": 7197,
      "granite▁": 7198,
      "home.": 7199,
      "a▁car▁": 7200,
      "ann": 7201,
      "in▁grass": 7202,
      "in▁hand": 7203,
      "ity": 7204,
      "wooden▁fence▁": 7205,
      "londe▁": 7206,
      "watering▁": 7207,
      "field▁is▁": 7208,
      "down▁the▁street▁.": 7209,
      "musta": 7210,
      "flowers▁and▁": 7211,
      "books.": 7212,
      "with▁no▁leaves": 7213,
      "season": 7214,
      "Picture▁is▁": 7215,
      "finished▁": 7216,
      "AIR": 7217,
      "dun": 7218,
      "try▁": 7219,
      "is▁seen▁": 7220,
      ",▁some▁": 7221,
      "tables▁and▁": 7222,
      "young▁people▁": 7223,
      "missing▁": 7224,
      "three▁giraffes▁": 7225,
      "A▁little▁boy▁is▁": 7226,
      "shower": 7227,
      "hugging▁": 7228,
      "during▁a▁baseball▁game.": 7229,
      "berry▁": 7230,
      "for▁sale▁": 7231,
      "playing▁a▁video▁game.": 7232,
      "canoe▁": 7233,
      "custom": 7234,
      "amily▁of▁": 7235,
      "illumin": 7236,
      "ef": 7237,
      "man▁riding▁": 7238,
      "blue▁and▁yellow▁": 7239,
      "driver": 7240,
      "suit▁is▁": 7241,
      "jumping▁up▁": 7242,
      "slices▁": 7243,
      "chopped▁": 7244,
      "on▁stage▁.": 7245,
      "caught▁": 7246,
      "with▁a▁beard▁": 7247,
      "with▁short▁": 7248,
      "winter": 7249,
      "sod": 7250,
      "puts▁": 7251,
      "wood▁floor▁": 7252,
      "control▁": 7253,
      "There▁are▁many▁": 7254,
      "leaning▁on▁a▁": 7255,
      "in▁a▁field▁.": 7256,
      "follow": 7257,
      "A▁man▁riding▁skis▁": 7258,
      "khaki▁": 7259,
      "res▁": 7260,
      "ro▁": 7261,
      "will▁": 7262,
      "rage▁": 7263,
      "tents▁": 7264,
      "ground.▁": 7265,
      "cyclist▁": 7266,
      "An▁old▁man▁": 7267,
      "stove▁and▁": 7268,
      "appliances▁": 7269,
      "furniture▁and▁": 7270,
      "tattoo": 7271,
      "balloon": 7272,
      "bottles▁of▁": 7273,
      "sides▁of▁the▁": 7274,
      "kicking▁a▁": 7275,
      "alcon": 7276,
      "on▁the▁plate.": 7277,
      "beam": 7278,
      "dim": 7279,
      "st▁.": 7280,
      "pizza▁slic": 7281,
      "behind▁him.": 7282,
      "dog's▁": 7283,
      "soft": 7284,
      "on▁top▁of▁a▁table.": 7285,
      "metal▁fence": 7286,
      "jean▁": 7287,
      "garden": 7288,
      "fireplace.": 7289,
      "on▁the▁side▁of▁the▁road": 7290,
      "stove▁top▁": 7291,
      "Color": 7292,
      "drink.": 7293,
      "a▁baseball": 7294,
      "beef▁": 7295,
      "ed.▁": 7296,
      "ve▁is▁": 7297,
      "ork▁": 7298,
      "sel▁": 7299,
      "The▁pizza▁": 7300,
      "next▁to▁two▁": 7301,
      "opposing▁": 7302,
      "game▁is▁": 7303,
      "dirty": 7304,
      "goats▁": 7305,
      "cliff": 7306,
      "enjoying▁their▁": 7307,
      "oriental▁": 7308,
      "tunnel▁": 7309,
      "seagull▁": 7310,
      "Hot▁": 7311,
      "um▁.": 7312,
      "the▁photo▁is▁": 7313,
      "itself▁": 7314,
      "eautiful▁": 7315,
      "sits▁on▁": 7316,
      "mud▁": 7317,
      "ject": 7318,
      "here": 7319,
      "elephants.": 7320,
      "well": 7321,
      "pony▁": 7322,
      "in▁the▁grass▁.": 7323,
      "toppings.": 7324,
      "cup▁of▁coffee▁": 7325,
      "freezer▁": 7326,
      "on▁street▁": 7327,
      "the▁dog▁": 7328,
      "the▁horse▁": 7329,
      "ren": 7330,
      "on▁the▁road▁": 7331,
      "plates▁and▁": 7332,
      "clock▁tower.": 7333,
      "riding▁a▁wave.": 7334,
      "yellow,▁": 7335,
      "in▁the▁distance▁": 7336,
      "Kitch": 7337,
      "taxi▁": 7338,
      "dump▁": 7339,
      "s▁is▁": 7340,
      "man▁has▁": 7341,
      "women": 7342,
      "on▁the▁sidewalk▁.": 7343,
      "while▁one▁": 7344,
      "kept▁": 7345,
      "spread": 7346,
      "laptop▁and▁": 7347,
      "flags▁": 7348,
      "bike▁.": 7349,
      "pillar": 7350,
      "set▁.": 7351,
      "tile▁floor": 7352,
      "on▁skis": 7353,
      "Mountain": 7354,
      "pool▁of▁": 7355,
      "the▁zebras▁are▁": 7356,
      "lab▁": 7357,
      "wicker▁": 7358,
      "on▁a▁desk▁": 7359,
      "on▁the▁water▁": 7360,
      "paw▁": 7361,
      "A▁woman▁in▁a▁white▁": 7362,
      "A▁woman▁in▁a▁red▁": 7363,
      "main": 7364,
      "near▁an▁": 7365,
      "game.▁": 7366,
      "goal▁": 7367,
      "A▁banana▁": 7368,
      "colors": 7369,
      "behind▁the▁man": 7370,
      "looking▁at▁something▁": 7371,
      "made▁bed▁": 7372,
      "event.": 7373,
      "City▁": 7374,
      "Fru": 7375,
      "Sant": 7376,
      "blou": 7377,
      "lawn": 7378,
      "pictured▁": 7379,
      "laying▁on▁top▁of▁a▁": 7380,
      "chili▁": 7381,
      "watching.": 7382,
      "tennis▁court▁is▁": 7383,
      "pull▁": 7384,
      "juice▁": 7385,
      "A▁very▁large▁": 7386,
      "Plane▁": 7387,
      "mple▁": 7388,
      "ware": 7389,
      "chop": 7390,
      "on▁a▁hill": 7391,
      "possi": 7392,
      "two▁girls▁": 7393,
      "a▁ser": 7394,
      "near▁a▁large▁": 7395,
      "meal.": 7396,
      "truck▁is▁parked▁": 7397,
      "window.▁": 7398,
      "Giraffes▁": 7399,
      "▁▁▁▁": 7400,
      "in▁the▁woods": 7401,
      "thre": 7402,
      "bon": 7403,
      "red▁brick▁": 7404,
      "train▁engine▁": 7405,
      "A▁young▁person▁": 7406,
      "ham▁": 7407,
      "swe": 7408,
      "craf": 7409,
      "bottom▁of▁": 7410,
      "a▁basketball▁": 7411,
      "Lea": 7412,
      "Spe": 7413,
      "iled▁": 7414,
      "ke▁is▁": 7415,
      "the▁head▁of▁a▁": 7416,
      "in▁fore": 7417,
      "tory▁": 7418,
      "wearing▁a▁helmet▁": 7419,
      "cuts▁": 7420,
      "vegetables▁are▁": 7421,
      "using▁his▁": 7422,
      "taking▁a▁selfi": 7423,
      "TE": 7424,
      "two": 7425,
      "wings▁": 7426,
      "a▁kitchen▁with▁a▁": 7427,
      "inside.": 7428,
      "A▁polar▁bear▁": 7429,
      "the▁shirt▁is▁": 7430,
      "an▁animal▁": 7431,
      "and▁cheese▁": 7432,
      "on▁the▁field▁": 7433,
      "sitting▁under▁": 7434,
      "of▁a▁large▁": 7435,
      "red▁and▁yellow▁": 7436,
      "flown▁": 7437,
      "old": 7438,
      "eating.": 7439,
      "shoo": 7440,
      "buildings▁and▁": 7441,
      "horse▁drawn▁": 7442,
      "soft▁": 7443,
      "foil": 7444,
      "pieces▁": 7445,
      "window▁with▁": 7446,
      "A▁bunch▁of▁people▁": 7447,
      "coming▁down▁the▁": 7448,
      "bicycle": 7449,
      "Ani": 7450,
      "SS": 7451,
      "ker": 7452,
      "warm▁": 7453,
      "A▁pitcher▁": 7454,
      "on▁brown▁": 7455,
      "ribb": 7456,
      "tag": 7457,
      "vert": 7458,
      "conve": 7459,
      "cook▁": 7460,
      "s▁on▁it▁": 7461,
      "furni": 7462,
      "display.": 7463,
      "getting▁ready▁to▁hit▁": 7464,
      "jetliner▁": 7465,
      "on▁a▁baseball▁field.": 7466,
      "Elephants▁": 7467,
      "heart▁": 7468,
      "fountain▁.": 7469,
      "hit": 7470,
      "A▁jet▁": 7471,
      "A▁surfer▁is▁": 7472,
      "section": 7473,
      "gives▁": 7474,
      "food▁on▁a▁": 7475,
      "lap.": 7476,
      "bricks▁": 7477,
      "lights▁and▁": 7478,
      "traffic▁light": 7479,
      "bowls▁of▁": 7480,
      "cut▁in▁half": 7481,
      "icop": 7482,
      "Laptop▁": 7483,
      "a▁kitchen▁": 7484,
      "infla": 7485,
      "str": 7486,
      "lot.": 7487,
      "on▁the▁court.": 7488,
      "sitting▁together▁": 7489,
      "standing▁by▁the▁": 7490,
      "nose": 7491,
      "two▁children▁": 7492,
      "fast": 7493,
      "males▁": 7494,
      "wning▁": 7495,
      "s.▁▁": 7496,
      "sunlight▁": 7497,
      "picture▁taken▁": 7498,
      "park▁bench.": 7499,
      "hanging▁on▁a▁": 7500,
      "lower▁": 7501,
      "squatting▁": 7502,
      "distance▁": 7503,
      "holding▁a▁bat": 7504,
      "toast▁": 7505,
      "yard▁.": 7506,
      "something.": 7507,
      "beyond▁": 7508,
      "No▁": 7509,
      "opp": 7510,
      "thumb": 7511,
      "lad▁": 7512,
      "a▁bun": 7513,
      "on▁a▁sidewalk": 7514,
      "The▁men▁are▁": 7515,
      "at▁a▁restaurant▁": 7516,
      "crosses▁": 7517,
      "baseball▁bat": 7518,
      "propped▁": 7519,
      "bedspread▁": 7520,
      "ERS": 7521,
      "knee▁": 7522,
      "all▁white▁": 7523,
      "umin": 7524,
      "dio▁": 7525,
      "players": 7526,
      "es,▁and▁": 7527,
      "grass▁field▁": 7528,
      "flowered▁": 7529,
      "monkey▁": 7530,
      "A▁brown▁bear▁": 7531,
      "black,▁": 7532,
      "rice▁and▁": 7533,
      "tennis▁match": 7534,
      "blinds▁": 7535,
      "u▁": 7536,
      "a▁table▁with▁": 7537,
      "arri": 7538,
      "is▁on": 7539,
      "A▁man▁walks▁": 7540,
      "people▁and▁": 7541,
      "A▁woman▁walking▁": 7542,
      "A▁woman▁is▁standing▁": 7543,
      "esca": 7544,
      "signs▁on▁a▁": 7545,
      "Three▁children▁": 7546,
      "standing▁in▁a▁kitchen▁": 7547,
      "rock.": 7548,
      "A▁very▁tall▁": 7549,
      "a▁stove▁": 7550,
      "the▁table▁is▁": 7551,
      "is▁very▁": 7552,
      ",▁black▁": 7553,
      "bucket": 7554,
      "as▁a▁man▁": 7555,
      "eaten": 7556,
      "yellow▁and▁black▁": 7557,
      "building▁with▁a▁clock▁": 7558,
      "in▁an▁empty▁": 7559,
      "apples▁and▁": 7560,
      "fless▁": 7561,
      "spot": 7562,
      "doing▁a▁skateboard▁": 7563,
      "bowl▁with▁": 7564,
      "a▁book.": 7565,
      "Two▁young▁boys▁": 7566,
      "auto": 7567,
      "kneeling▁down▁": 7568,
      "on▁display.": 7569,
      "brushing▁his▁teeth▁": 7570,
      "abandoned▁": 7571,
      "Wood▁": 7572,
      "apro": 7573,
      "biting▁": 7574,
      "cy": 7575,
      "rose▁": 7576,
      "on▁a▁road▁": 7577,
      "sitting▁in▁the▁middle▁of▁a▁": 7578,
      "airbor": 7579,
      "a▁man▁and▁a▁woman▁": 7580,
      "dded▁": 7581,
      "mid▁": 7582,
      "purple": 7583,
      "clear▁blue▁sky▁": 7584,
      "exer": 7585,
      "jockey▁": 7586,
      "showing▁the▁": 7587,
      "books": 7588,
      "hot▁dog.": 7589,
      "Photo▁taken▁during▁the▁day": 7590,
      "windshiel": 7591,
      "A▁white▁plate▁topped▁with▁": 7592,
      "Be": 7593,
      "a▁hot▁dog▁": 7594,
      "in▁action▁": 7595,
      "at▁a▁ball": 7596,
      "coff": 7597,
      "sion▁": 7598,
      "as▁another▁": 7599,
      "holding▁tennis▁racket": 7600,
      "mane": 7601,
      "flying▁in▁": 7602,
      "kissing▁": 7603,
      "A▁bearded▁": 7604,
      "derne": 7605,
      "cake▁and▁": 7606,
      "paint": 7607,
      "sit▁on▁": 7608,
      "snow▁covered▁slope.": 7609,
      "slice▁of▁pizza▁": 7610,
      "posing▁for▁a▁picture": 7611,
      "steak▁": 7612,
      "drum": 7613,
      "crouching▁": 7614,
      "extended▁": 7615,
      "oranges▁and▁": 7616,
      "Colorful▁": 7617,
      "Da": 7618,
      "SE▁": 7619,
      "blender▁": 7620,
      "cent": 7621,
      "mom": 7622,
      "in▁.": 7623,
      "an▁apple▁": 7624,
      "in▁a▁restaurant▁": 7625,
      "oni": 7626,
      "A▁man▁wearing▁a▁black▁": 7627,
      "shop.": 7628,
      "ranch": 7629,
      "foil▁": 7630,
      "dug": 7631,
      "bread.": 7632,
      "look▁on▁.": 7633,
      "parking▁meters▁": 7634,
      "wheels": 7635,
      "knife▁and▁": 7636,
      "talking▁on▁a▁cell▁phone.": 7637,
      "Airplane▁": 7638,
      "lounging▁": 7639,
      "hoodie▁": 7640,
      "St": 7641,
      "recor": 7642,
      "is▁sitting▁on▁the▁": 7643,
      "alumin": 7644,
      "begin": 7645,
      "paw": 7646,
      "ss▁of▁": 7647,
      "card▁": 7648,
      "gel▁": 7649,
      "ula▁": 7650,
      "surfer": 7651,
      "fauc": 7652,
      "swee": 7653,
      "come▁": 7654,
      "on▁his▁skateboard▁": 7655,
      "grazing": 7656,
      "ctly▁": 7657,
      "hung▁": 7658,
      "ICT": 7659,
      "seems▁to▁be▁": 7660,
      "A▁full▁": 7661,
      "on▁snow▁": 7662,
      "the▁grass▁": 7663,
      "and▁pink▁": 7664,
      "le▁.": 7665,
      "s▁and▁other▁": 7666,
      "with▁a▁bed▁": 7667,
      "lights▁are▁": 7668,
      "drinking▁water▁": 7669,
      "waves▁are▁": 7670,
      "shadow▁of▁": 7671,
      "long-": 7672,
      "that's▁": 7673,
      "Air▁": 7674,
      "Can": 7675,
      "industrial▁": 7676,
      "A▁kite▁": 7677,
      "the▁cat▁": 7678,
      "with▁glasses▁": 7679,
      "ed▁by▁a▁": 7680,
      "with▁a▁frisbee▁": 7681,
      "tie▁is▁": 7682,
      "Two▁cows▁": 7683,
      "tux": 7684,
      "ational▁": 7685,
      "stud": 7686,
      "restroom▁": 7687,
      "White▁lines▁": 7688,
      "counter▁with▁": 7689,
      "mirror▁and▁": 7690,
      "half▁of▁a▁": 7691,
      "Little▁boy▁": 7692,
      "spraying▁": 7693,
      "playing▁soccer": 7694,
      "Lu": 7695,
      "blen": 7696,
      "on▁black▁": 7697,
      "rable▁": 7698,
      "The▁elephant▁is▁": 7699,
      "up▁on▁a▁": 7700,
      "people▁riding▁": 7701,
      "playing▁Frisbee▁": 7702,
      "it▁is▁a▁": 7703,
      "holding▁a▁white▁": 7704,
      "puffy▁": 7705,
      "gloves": 7706,
      "tennis▁racquet": 7707,
      "motor▁bike▁": 7708,
      "capti": 7709,
      "on▁a▁baseball▁field": 7710,
      "wrapped▁in▁": 7711,
      "rubber▁": 7712,
      "hardwood▁floor": 7713,
      "gate": 7714,
      "mural▁": 7715,
      "a▁skier▁": 7716,
      "on▁two▁": 7717,
      "at▁du": 7718,
      "with▁a▁long▁": 7719,
      "flying▁kites.": 7720,
      "hydrant": 7721,
      "a▁baseball▁game▁": 7722,
      "ggling▁": 7723,
      "on▁a▁table.▁": 7724,
      "dishwash": 7725,
      "hotel▁room▁": 7726,
      "advertising▁": 7727,
      "in▁mid▁air▁": 7728,
      "Shadow▁": 7729,
      "Female▁": 7730,
      "martial▁ar": 7731,
      "man▁sitting▁on▁": 7732,
      "in▁a▁dark▁": 7733,
      "are▁walking▁": 7734,
      "The▁bear▁is▁": 7735,
      "clown▁": 7736,
      "young▁lady▁": 7737,
      "plants": 7738,
      "air▁plane▁": 7739,
      "brush.": 7740,
      "a▁building.▁": 7741,
      "sandy▁beach": 7742,
      "wearing▁blue▁jeans": 7743,
      "for▁sale": 7744,
      "lounge▁": 7745,
      "does▁a▁trick▁": 7746,
      "museum": 7747,
      "Hal": 7748,
      "VE": 7749,
      "oth▁": 7750,
      "the▁giraffe▁": 7751,
      "the▁fence▁is▁": 7752,
      "on▁a▁horse▁": 7753,
      "in▁the▁street▁.": 7754,
      "two▁large▁": 7755,
      "person.": 7756,
      "table,▁": 7757,
      "playing▁on▁a▁": 7758,
      "helicop": 7759,
      "chair▁is▁": 7760,
      "plate▁of▁food": 7761,
      "grazing▁on▁a▁": 7762,
      "classi": 7763,
      "yellow.": 7764,
      "PLAYING▁": 7765,
      "y.▁": 7766,
      "A▁clean▁": 7767,
      "in▁snow": 7768,
      "reli": 7769,
      "The▁zebras▁are▁": 7770,
      "perfor": 7771,
      "cases▁": 7772,
      "pots▁": 7773,
      "confer": 7774,
      "shop▁.": 7775,
      "skiing.": 7776,
      "s,▁one▁": 7777,
      "wearing▁a▁blue▁shirt": 7778,
      "buses▁parked▁": 7779,
      "HOL": 7780,
      "instruments▁": 7781,
      "on▁skis.": 7782,
      "grand": 7783,
      "themselves▁": 7784,
      "exerci": 7785,
      "fant▁": 7786,
      "mur": 7787,
      "another": 7788,
      "the▁horse▁is▁": 7789,
      "ates▁": 7790,
      "on▁the▁sand": 7791,
      "on▁the▁side.": 7792,
      "next▁to▁a▁building.": 7793,
      "behind▁him▁": 7794,
      "gun▁": 7795,
      "walls▁are▁": 7796,
      "fuzzy▁": 7797,
      "stands▁next▁to▁a▁": 7798,
      "trunk.": 7799,
      "A▁living▁room▁filled▁with▁": 7800,
      "tree▁branch": 7801,
      "throw▁a▁": 7802,
      "Cars▁": 7803,
      "Surfer▁": 7804,
      "twin▁": 7805,
      "bacon▁": 7806,
      "kee": 7807,
      "pump": 7808,
      "erman▁": 7809,
      "A▁pretty▁": 7810,
      "A▁vintage▁": 7811,
      "is▁flying▁": 7812,
      "with▁four▁": 7813,
      "on▁a▁table▁with▁": 7814,
      "The▁elephants▁are▁": 7815,
      "through": 7816,
      "sitting▁on▁a▁wooden▁": 7817,
      "IS▁B": 7818,
      "surf▁boards▁": 7819,
      "bushes.": 7820,
      "space.": 7821,
      "a▁soccer▁ball▁": 7822,
      "ces▁and▁": 7823,
      "ping▁a▁": 7824,
      "s▁,▁": 7825,
      "sters▁": 7826,
      "on▁the▁desk": 7827,
      "Two▁dogs▁are▁": 7828,
      "wading▁": 7829,
      "brown▁hair": 7830,
      "kitty▁": 7831,
      "sitting▁on▁a▁chair▁": 7832,
      "mouse.": 7833,
      "skiing▁on▁a▁": 7834,
      "players▁are▁": 7835,
      "look▁at▁": 7836,
      "ON▁A▁": 7837,
      "points▁": 7838,
      "butter▁": 7839,
      "a▁sandwich": 7840,
      "in▁a▁park▁.": 7841,
      "ident": 7842,
      "Kitchen▁": 7843,
      "Bed▁": 7844,
      "rou": 7845,
      "The▁zebra▁is▁": 7846,
      "ings": 7847,
      "holding▁a▁s": 7848,
      "tending▁": 7849,
      "ull": 7850,
      "that▁is▁on▁a▁": 7851,
      "boats.": 7852,
      "white▁and▁brown▁": 7853,
      "reflection": 7854,
      "toy▁.": 7855,
      "in▁the▁foreground▁": 7856,
      "covering▁the▁ground": 7857,
      "in▁the▁rain.": 7858,
      "Sandwich▁": 7859,
      "FO": 7860,
      "bway▁": 7861,
      "wan": 7862,
      "A▁bus▁is▁": 7863,
      "with▁graffiti▁": 7864,
      "wearing▁green▁": 7865,
      "tree▁trunk": 7866,
      "cks▁of▁": 7867,
      "A▁plate▁with▁a▁": 7868,
      "reflection▁of▁a▁": 7869,
      "overlooking▁a▁": 7870,
      "a▁store▁": 7871,
      "bble▁": 7872,
      "eight▁": 7873,
      "four": 7874,
      "the▁elephant▁": 7875,
      "the▁ocean▁": 7876,
      "labo": 7877,
      "with▁snow▁": 7878,
      "to▁make▁": 7879,
      "A▁woman▁in▁a▁blue▁": 7880,
      "picture▁taken▁during▁the▁day": 7881,
      "with▁an▁umbrella.": 7882,
      "man▁wearing▁a▁black▁": 7883,
      "at▁an▁intersection▁": 7884,
      "object": 7885,
      "ages▁": 7886,
      "girl's▁": 7887,
      "friend▁": 7888,
      "fighter▁jet▁": 7889,
      "loaded▁with▁": 7890,
      "PA": 7891,
      "in▁a▁glass▁": 7892,
      "groom": 7893,
      "A▁man▁riding▁a▁wave▁": 7894,
      "dog▁with▁": 7895,
      "utility▁": 7896,
      "down▁the▁side▁of▁a▁": 7897,
      "someones▁": 7898,
      "wood▁and▁": 7899,
      "cell▁phones▁": 7900,
      "flam": 7901,
      "talking▁on▁his▁": 7902,
      "A▁man▁in▁blue▁": 7903,
      "skate▁park.": 7904,
      "traveling▁down▁a▁": 7905,
      "army▁": 7906,
      "stairs": 7907,
      "a▁train▁on▁a▁": 7908,
      "and▁a▁sink": 7909,
      "A▁table▁topped▁with▁": 7910,
      "machine▁.": 7911,
      "THERE▁IS▁A▁": 7912,
      "separate▁": 7913,
      "Zebras▁": 7914,
      "sleeping": 7915,
      "1▁": 7916,
      "CA": 7917,
      "a▁passenger▁": 7918,
      "inspe": 7919,
      "the▁sky▁": 7920,
      "repair": 7921,
      "of▁them▁": 7922,
      "level▁": 7923,
      "becu": 7924,
      "elevated▁": 7925,
      "holding▁a▁tennis▁racket": 7926,
      "lining▁the▁": 7927,
      "stool▁": 7928,
      "foggy▁": 7929,
      "lighthou": 7930,
      "dressed▁as▁": 7931,
      "preparing▁a▁": 7932,
      "Frisbee": 7933,
      "oranges.": 7934,
      "in▁the▁woods.": 7935,
      "canopy▁": 7936,
      "nicely▁": 7937,
      "camouflage▁": 7938,
      "Banan": 7939,
      "ks": 7940,
      "yo": 7941,
      "The▁sheep▁are▁": 7942,
      "holding▁their▁": 7943,
      "train▁engine": 7944,
      "plants.": 7945,
      "down▁the▁street": 7946,
      "ently▁": 7947,
      "middle▁of▁": 7948,
      "going▁to▁": 7949,
      "have▁a▁": 7950,
      "multi-colored▁": 7951,
      "man▁in▁black▁": 7952,
      "snowboarders▁": 7953,
      "on▁a▁sunny▁day▁.": 7954,
      "skinny▁": 7955,
      "access": 7956,
      "\".": 7957,
      "on▁to▁": 7958,
      "airliner▁": 7959,
      "cat▁sleeping▁": 7960,
      "An▁assortment▁of▁": 7961,
      "wall.▁": 7962,
      "a▁woman▁wearing▁": 7963,
      "port▁": 7964,
      "A▁man▁in▁a▁yellow▁": 7965,
      "monum": 7966,
      "sitting▁on▁a▁bench.": 7967,
      "freight▁": 7968,
      "forest▁of▁": 7969,
      "tree▁branch▁": 7970,
      "in▁progre": 7971,
      "oppon": 7972,
      "performan": 7973,
      "in▁a▁brown▁": 7974,
      "is▁riding▁": 7975,
      "lady": 7976,
      "lee": 7977,
      "grabb": 7978,
      "bubbles▁": 7979,
      "ssy▁": 7980,
      "has▁a▁white▁": 7981,
      "An▁un": 7982,
      "motorbike": 7983,
      "league▁": 7984,
      "trees▁on▁": 7985,
      "cat's▁": 7986,
      "bus▁driving▁": 7987,
      "zebra.": 7988,
      "dough▁": 7989,
      "stop▁sign.": 7990,
      "unique▁": 7991,
      "clear▁blue▁": 7992,
      "with▁a▁bat▁": 7993,
      "chest": 7994,
      "A▁baseball▁player▁holding▁a▁bat▁": 7995,
      "A▁very▁big▁": 7996,
      "a▁body▁of▁water▁.": 7997,
      "a▁snowboarder▁": 7998,
      "RED▁": 7999,
      "salad": 8000,
      "folding▁": 8001,
      "collared▁": 8002,
      "Santa▁": 8003,
      "is▁wearing▁a▁": 8004,
      "in▁a▁room▁with▁": 8005,
      "pad": 8006,
      "playing▁an▁": 8007,
      "A▁person▁on▁a▁skateboard▁": 8008,
      "leafless▁": 8009,
      "gui": 8010,
      "computers.": 8011,
      "bowling▁": 8012,
      "travels▁": 8013,
      "standing▁in▁the▁snow▁": 8014,
      "reflective▁": 8015,
      "post.": 8016,
      "controllers.": 8017,
      "instrumen": 8018,
      "A▁group▁of▁young▁men▁": 8019,
      "pedestrians▁": 8020,
      "convey": 8021,
      "a▁women▁": 8022,
      "a▁fire▁hydrant▁": 8023,
      "indoors": 8024,
      "the▁floor▁is▁": 8025,
      "raft▁": 8026,
      "on▁a▁road": 8027,
      "in▁the▁center▁": 8028,
      "turkey▁": 8029,
      "laying▁in▁": 8030,
      "old▁fashioned▁": 8031,
      "tall▁building.": 8032,
      "to▁the▁left▁": 8033,
      "passengers": 8034,
      "batter": 8035,
      "ssive▁": 8036,
      "church": 8037,
      "toast": 8038,
      "sitting▁at▁table": 8039,
      "brown▁and▁white": 8040,
      "fountain": 8041,
      "figure▁": 8042,
      "pastries▁": 8043,
      "obstacle▁": 8044,
      "STANDING▁": 8045,
      "Crow": 8046,
      "and▁a▁small▁": 8047,
      "local▁": 8048,
      "limb": 8049,
      "food▁on▁a▁plate": 8050,
      "hay.": 8051,
      "through▁an▁": 8052,
      "painting": 8053,
      "skateboarders▁": 8054,
      "sitting▁on▁top▁of▁a▁table.": 8055,
      "butter": 8056,
      "plays▁with▁a▁": 8057,
      "after▁a▁": 8058,
      "Two▁giraffes▁are▁": 8059,
      "these▁are▁two▁": 8060,
      "paddling▁": 8061,
      "a▁sink.": 8062,
      "learning▁": 8063,
      "american▁": 8064,
      "HOLDING▁": 8065,
      "nur": 8066,
      "vor": 8067,
      "warm": 8068,
      "white▁paper▁": 8069,
      "baking▁": 8070,
      "up▁to▁the▁": 8071,
      "standing▁outside": 8072,
      "backpack": 8073,
      "laying▁in▁bed▁": 8074,
      "umbrella.▁": 8075,
      "to▁the▁right": 8076,
      "sandwich▁is▁": 8077,
      "crossed▁": 8078,
      "on▁a▁wooden▁table.": 8079,
      "in▁it.▁": 8080,
      "tank▁top": 8081,
      "dark-haired▁": 8082,
      "outfits▁": 8083,
      "participat": 8084,
      "upper▁": 8085,
      "A▁display▁": 8086,
      "the▁pizza▁": 8087,
      "and▁tan▁": 8088,
      "logo▁": 8089,
      "dows▁": 8090,
      "order▁": 8091,
      "on▁the▁tennis▁court": 8092,
      "onion▁": 8093,
      "red▁and▁blue▁": 8094,
      "brown▁wooden▁": 8095,
      "at▁the▁airport": 8096,
      "a▁boat.": 8097,
      "dark▁colored▁": 8098,
      "ski▁slope▁": 8099,
      "cupcakes▁": 8100,
      "Pass": 8101,
      "They▁are▁": 8102,
      "accessori": 8103,
      "LAN": 8104,
      "T-": 8105,
      "a▁batter▁": 8106,
      "plastic": 8107,
      "in▁the▁park▁": 8108,
      "mask": 8109,
      "roller▁": 8110,
      "photographer▁": 8111,
      "coffee▁cup▁": 8112,
      "surfboards": 8113,
      "tropical▁": 8114,
      "desktop▁computer▁": 8115,
      "rear▁view▁": 8116,
      "Couple▁": 8117,
      "cobblestone▁": 8118,
      "tuxe": 8119,
      "a▁sheep▁": 8120,
      "A▁plane▁is▁": 8121,
      "The▁pizza▁is▁": 8122,
      "holder▁": 8123,
      "holding▁her▁": 8124,
      "two▁boys▁": 8125,
      "A▁large▁clock▁": 8126,
      "Seven▁": 8127,
      "grassy▁area.": 8128,
      "looks▁at▁a▁": 8129,
      "mate▁": 8130,
      "red-": 8131,
      "home▁plate.": 8132,
      "with▁no▁clouds": 8133,
      "glass▁of▁wine▁": 8134,
      "skirt": 8135,
      "cowboy▁hat▁": 8136,
      "On": 8137,
      "A▁room▁with▁": 8138,
      "A▁passenger▁train▁": 8139,
      "in▁f": 8140,
      "is▁behind▁the▁": 8141,
      "with▁flowers▁": 8142,
      "dock.": 8143,
      "all▁black▁": 8144,
      "stands": 8145,
      "The▁kitchen▁": 8146,
      "field▁with▁a▁": 8147,
      "trees▁in▁the▁background.": 8148,
      "puddle▁": 8149,
      "going▁down▁": 8150,
      "breaking▁": 8151,
      "skate▁board.": 8152,
      "near▁the▁water": 8153,
      "block": 8154,
      "following▁": 8155,
      "shoulders▁": 8156,
      "bottom▁of▁a▁": 8157,
      "swinging▁a▁tennis▁racket▁": 8158,
      "Clock▁": 8159,
      "tattoo▁": 8160,
      "meadow": 8161,
      "Out": 8162,
      "with▁a▁big▁": 8163,
      "ched": 8164,
      "on▁the▁sand▁": 8165,
      "The▁building▁": 8166,
      "up▁.": 8167,
      "wearing▁orange▁": 8168,
      "walking▁with▁": 8169,
      "haw": 8170,
      "signs▁are▁": 8171,
      "sits▁in▁front▁of▁a▁": 8172,
      "stand▁in▁a▁": 8173,
      "with▁his▁head▁": 8174,
      "cake.▁": 8175,
      "sink▁and▁a▁": 8176,
      "pants▁is▁": 8177,
      "shower▁curtain▁": 8178,
      "coach▁": 8179,
      "curb.": 8180,
      "ppers": 8181,
      "on▁beach": 8182,
      "and▁white": 8183,
      "a▁bat▁": 8184,
      "a▁bur": 8185,
      "unny▁": 8186,
      "white▁shirt▁": 8187,
      "Two▁birds▁": 8188,
      "paws▁": 8189,
      "carry▁": 8190,
      "a▁short▁": 8191,
      "around▁his▁": 8192,
      "ative▁": 8193,
      "A▁man▁is▁holding▁a▁": 8194,
      "fire▁truck▁": 8195,
      "riding▁a▁motorcycle": 8196,
      "above.": 8197,
      "naked▁": 8198,
      "have▁been▁": 8199,
      "tiled▁floor": 8200,
      "Sign▁": 8201,
      "these▁are▁some▁": 8202,
      "in▁a▁parking▁lot": 8203,
      "scarf": 8204,
      "members▁": 8205,
      "-like▁": 8206,
      "Tra": 8207,
      "ie▁": 8208,
      "ly.": 8209,
      "led": 8210,
      "on▁the▁side": 8211,
      "in▁a▁ca": 8212,
      "sitting▁by▁a▁": 8213,
      "holding▁onto▁": 8214,
      "next▁to▁trees.": 8215,
      "food.▁": 8216,
      "trees▁in▁": 8217,
      "dered▁": 8218,
      "short": 8219,
      "juic": 8220,
      "into▁a▁microphone▁.": 8221,
      "wet▁suit": 8222,
      "burn": 8223,
      "railroad▁track": 8224,
      "wire▁fence▁": 8225,
      "the▁plate▁is▁white": 8226,
      "TI": 8227,
      "blow▁": 8228,
      "A▁stuffed▁": 8229,
      "in▁the▁mi": 8230,
      "in▁the▁field.": 8231,
      "holding▁onto▁a▁": 8232,
      "kitten": 8233,
      "kites▁are▁": 8234,
      "shirt▁and▁a▁": 8235,
      "yellow▁and▁white▁": 8236,
      "s,▁and▁a▁": 8237,
      "duck": 8238,
      "herd▁": 8239,
      "There▁are▁three▁": 8240,
      "at▁an▁airport": 8241,
      "sunny▁day": 8242,
      "circle": 8243,
      "nice▁looking▁": 8244,
      "pillows.": 8245,
      "scooter": 8246,
      "enjoying▁the▁day": 8247,
      "french▁fries▁": 8248,
      "Big▁B": 8249,
      "stern▁": 8250,
      "French▁": 8251,
      "brightly▁colored▁": 8252,
      "appear▁to▁be▁": 8253,
      "Bananas▁": 8254,
      "Flo": 8255,
      "PAR": 8256,
      "ctor": 8257,
      "ian▁": 8258,
      "tal▁": 8259,
      "A▁construction▁": 8260,
      "the▁food▁": 8261,
      "the▁bear▁": 8262,
      "in▁a▁bowl▁": 8263,
      "of▁people▁": 8264,
      "tone▁": 8265,
      "with▁small▁": 8266,
      "on▁a▁runway": 8267,
      "in▁the▁city▁": 8268,
      "The▁baby▁": 8269,
      "with▁a▁wooden▁": 8270,
      "two▁guys▁": 8271,
      "smart▁": 8272,
      "brid": 8273,
      "skyscra": 8274,
      "laptops.": 8275,
      "human▁": 8276,
      "coat▁and▁": 8277,
      "finger▁": 8278,
      "fixture": 8279,
      "Construction▁": 8280,
      "appliances.": 8281,
      "magne": 8282,
      "savanna": 8283,
      "HAN": 8284,
      "A▁light▁": 8285,
      "in▁between▁": 8286,
      "of▁daytime▁sky": 8287,
      "with▁different▁": 8288,
      "a▁but": 8289,
      "shri": 8290,
      "buff": 8291,
      "a▁single▁": 8292,
      "dden▁": 8293,
      "tower▁with▁a▁clock▁": 8294,
      "dress▁shirt": 8295,
      "work▁.": 8296,
      "A▁male▁tennis▁player▁": 8297,
      "celebrating▁": 8298,
      "some▁sort▁of▁": 8299,
      "conversation▁": 8300,
      "neighborhoo": 8301,
      "coffee": 8302,
      "Fa": 8303,
      "Tru": 8304,
      "a▁tan▁": 8305,
      "A▁photo▁": 8306,
      "and▁people▁": 8307,
      "and▁several▁": 8308,
      "rack.": 8309,
      "in▁a▁pen": 8310,
      "The▁cows▁are▁": 8311,
      "large▁green▁": 8312,
      "A▁woman▁sits▁": 8313,
      "brown▁hair▁": 8314,
      "walking▁across▁": 8315,
      "keys▁": 8316,
      "laying▁on▁top▁of▁": 8317,
      "socks": 8318,
      "glasses▁and▁a▁": 8319,
      "in▁a▁bar": 8320,
      "bunk▁": 8321,
      "A▁wooden▁bench▁": 8322,
      "printed▁": 8323,
      "hamburger▁": 8324,
      "catcher▁and▁umpire▁": 8325,
      "as": 8326,
      "med▁": 8327,
      "robe▁": 8328,
      "christmas▁": 8329,
      "peri": 8330,
      "two▁cows▁": 8331,
      "while▁he▁": 8332,
      "A▁group▁of▁kids▁": 8333,
      "a▁blue▁sky▁": 8334,
      "toilet▁is▁": 8335,
      "formation": 8336,
      "colors▁": 8337,
      "in▁an▁enclosure▁": 8338,
      "A▁girl▁in▁a▁": 8339,
      "street▁sign.": 8340,
      "street▁signs": 8341,
      "uniform▁is▁": 8342,
      "alley": 8343,
      "WITH▁A▁": 8344,
      "Vege": 8345,
      "Spectator": 8346,
      "aluminum▁": 8347,
      "A▁view▁": 8348,
      "on▁blue▁": 8349,
      "alco": 8350,
      "on▁a▁court": 8351,
      "below": 8352,
      "The▁building▁is▁": 8353,
      "sitting▁on": 8354,
      "with▁a▁tennis▁racket.": 8355,
      "two▁young▁": 8356,
      "reach▁": 8357,
      "histori": 8358,
      "lighted▁": 8359,
      "chair▁with▁": 8360,
      "clothing": 8361,
      "swinging▁a▁baseball▁bat▁": 8362,
      "shorts▁is▁": 8363,
      "trail.": 8364,
      "LUE▁": 8365,
      "V▁": 8366,
      "strange▁": 8367,
      "up▁against▁a▁": 8368,
      "a▁back▁": 8369,
      "A▁person▁riding▁": 8370,
      "A▁person▁is▁standing▁": 8371,
      "one▁way▁": 8372,
      "Three▁zebras▁": 8373,
      "marked▁": 8374,
      "traveling▁down▁the▁": 8375,
      "carrots": 8376,
      "pond.": 8377,
      "suppli": 8378,
      "lettuce": 8379,
      "REEN▁": 8380,
      "a▁light▁": 8381,
      "on▁field": 8382,
      "the▁giraffes▁are▁": 8383,
      "backpa": 8384,
      "roadway▁": 8385,
      "being▁play": 8386,
      "serving▁a▁": 8387,
      "a▁brown▁dog▁": 8388,
      "wave▁.": 8389,
      "countertop": 8390,
      "hitting▁a▁ball▁": 8391,
      "dish.": 8392,
      "odd▁": 8393,
      "tree▁branches▁": 8394,
      "in▁a▁parking▁lot▁": 8395,
      "potatoes▁": 8396,
      "ROOM▁": 8397,
      "PI": 8398,
      "Sa": 8399,
      "A▁road▁": 8400,
      "on▁wooden▁": 8401,
      "the▁bench▁is▁": 8402,
      "and▁small▁": 8403,
      "in▁a▁living▁room": 8404,
      "in▁a▁fenced▁in▁": 8405,
      "The▁sun▁is▁": 8406,
      "A▁man▁sitting▁": 8407,
      "with▁a▁sky▁": 8408,
      "cab▁": 8409,
      "figu": 8410,
      "looking▁into▁the▁": 8411,
      "food▁.": 8412,
      "lighting▁": 8413,
      "serve": 8414,
      "floor▁.": 8415,
      "full▁of▁food": 8416,
      "expre": 8417,
      "counter▁top.": 8418,
      "lanket": 8419,
      "A▁black▁and▁white▁photo▁of▁": 8420,
      "A▁herd▁of▁cattle▁": 8421,
      "with▁its▁head▁": 8422,
      "a▁bridge": 8423,
      "fork▁and▁": 8424,
      "DOG▁": 8425,
      "OR▁": 8426,
      "Stuffed▁": 8427,
      "dimly▁lit▁": 8428,
      "rit": 8429,
      "A▁photo▁of▁": 8430,
      "on▁red▁": 8431,
      "on▁them.": 8432,
[...]
