{
  "version": "1.0",
  "truncation": null,
  "padding": null,
  "added_tokens": [
    {
      "id": 0,
      "content": "<pad>",
      "single_word": false,
      "lstrip": false,
      "rstrip": false,
      "normalized": false,
      "special": true
    },
    {
      "id": 1,
      "content": "<eos>",
      "single_word": false,
      "lstrip": false,
      "rstrip": false,
      "normalized": false,
      "special": true
    },
    {
      "id": 2,
      "content": "<bos>",
      "single_word": false,
      "lstrip": false,
      "rstrip": false,
      "normalized": false,
      "special": true
    },
    {
      "id": 3,
      "content": "<unk>",
      "single_word": false,
      "lstrip": false,
      "rstrip": false,
      "normalized": false,
      "special": true
    },
    {
      "id": 4,
      "content": "<image>",
      "single_word": false,
      "lstrip": false,
      "rstrip": false,
      "normalized": false,
      "special": true
    }
  ],
  "normalizer": {
    "type": "Replace",
    "pattern": {
      "String": " "
    },
    "content": "▁"
  },
  "pre_tokenizer": {
    "type": "Split",
    "pattern": {
      "String": " "
    },
    "behavior": "MergedWithPrevious",
    "invert": false
  },
  "post_processor": {
    "type": "TemplateProcessing",
    "single": [
      {
        "SpecialToken": {
          "id": "<bos>",
          "type_id": 0
        }
      },
      {
        "Sequence": {
          "id": "A",
          "type_id": 0
        }
      }
    ],
    "pair": [
      {
        "SpecialToken": {
          "id": "<bos>",
          "type_id": 0
        }
      },
      {
        "Sequence": {
          "id": "A",
          "type_id": 0
        }
      },
      {
        "SpecialToken": {
          "id": "<bos>",
          "type_id": 1
        }
      },
      {
        "Sequence": {
          "id": "B",
          "type_id": 1
        }
      }
    ],
    "special_tokens": {
      "<bos>": {
        "id": "<bos>",
        "ids": [
          2
        ],
        "tokens": [
          "<bos>"
        ]
      }
    }
  },
  "decoder": {
    "type": "Sequence",
    "decoders": [
      {
        "type": "Replace",
        "pattern": {
          "String": "▁"
        },
        "content": " "
      },
      {
        "type": "ByteFallback"
      },
      {
        "type": "Fuse"
      }
    ]
  },
  "model": {
    "type": "BPE",
    "dropout": null,
    "unk_token": "<unk>",
    "continuing_subword_prefix": null,
    "end_of_word_suffix": null,
    "fuse_unk": true,
    "byte_fallback": true,
    "ignore_merges": false,
    "vocab": {
      "<pad>": 0,
      "<eos>": 1,
      "<bos>": 2,
      "<unk>": 3,
      "<image>": 4,
      "\n": 5,
      "!": 6,
      "\"": 7,
      "#": 8,
      "$": 9,
      "%": 10,
      "&": 11,
      "'": 12,
      "(": 13,
      ")": 14,
      "*": 15,
      "+": 16,
      ",": 17,
      "-": 18,
      ".": 19,
      "/": 20,
      "0": 21,
      "1": 22,
      "2": 23,
      "3": 24,
      "4": 25,
      "5": 26,
      "6": 27,
      "7": 28,
      "8": 29,
      "9": 30,
      ":": 31,
      ";": 32,
      "<": 33,
      "=": 34,
      ">": 35,
      "?": 36,
      "@": 37,
      "A": 38,
      "B": 39,
      "C": 40,
      "D": 41,
      "E": 42,
      "F": 43,
      "G": 44,
      "H": 45,
      "I": 46,
      "J": 47,
      "K": 48,
      "L": 49,
      "M": 50,
      "N": 51,
      "O": 52,
      "P": 53,
      "Q": 54,
      "R": 55,
      "S": 56,
      "T": 57,
      "U": 58,
      "V": 59,
      "W": 60,
      "X": 61,
      "Y": 62,
      "Z": 63,
      "[": 64,
      "\\": 65,
      "]": 66,
      "_": 67,
      "`": 68,
      "a": 69,
      "b": 70,
      "c": 71,
      "d": 72,
      "e": 73,
      "f": 74,
      "g": 75,
      "h": 76,
      "i": 77,
      "j": 78,
      "k": 79,
      "l": 80,
      "m": 81,
      "n": 82,
      "o": 83,
      "p": 84,
      "q": 85,
      "r": 86,
      "s": 87,
      "t": 88,
      "u": 89,
      "v": 90,
      "w": 91,
      "x": 92,
      "y": 93,
      "z": 94,
      " ": 95,
      "ä": 96,
      "’": 97,
      "”": 98,
      "▁": 99,
      "▁a": 100,
      "in": 101,
      "e▁": 102,
      "▁a▁": 103,
      "ing": 104,
      "th": 105,
      "s▁": 106,
      "n▁": 107,
      "d▁": 108,
      "A▁": 109,
      "ing▁": 110,
      "er": 111,
      "t▁": 112,
      "ar": 113,
      "on": 114,
      "of": 115,
      "re": 116,
      "it": 117,
      "ma": 118,
      "to": 119,
      "ro": 120,
      "the▁": 121,
      "la": 122,
      "▁an": 123,
      "wi": 124,
      "st": 125,
      "an": 126,
      "with": 127,
      "y▁": 128,
      "is▁": 129,
      "in▁": 130,
      "on▁": 131,
      "er▁": 132,
      "wo": 133,
      "ll": 134,
      "ch": 135,
      "le▁": 136,
      "of▁": 137,
      "man▁": 138,
      "ra": 139,
      "ou": 140,
      "▁and▁": 141,
      "ck": 142,
      "le": 143,
      "ir": 144,
      "at": 145,
      "on▁a▁": 146,
      "ow": 147,
      "en": 148,
      "ba": 149,
      "ed▁": 150,
      "or": 151,
      "with▁": 152,
      "bo": 153,
      "p▁": 154,
      "ing▁a▁": 155,
      "id": 156,
      "in▁a▁": 157,
      "om": 158,
      "pla": 159,
      "a▁": 160,
      "ld": 161,
      "sh": 162,
      "lo": 163,
      "ta": 164,
      "wh": 165,
      "se": 166,
      "and": 167,
      "ll▁": 168,
      "en▁": 169,
      "ne": 170,
      "wa": 171,
      "be": 172,
      "un": 173,
      "of▁a▁": 174,
      "itt": 175,
      "g▁": 176,
      "op": 177,
      "re▁": 178,
      "l▁": 179,
      "with▁a▁": 180,
      "pe": 181,
      "wo▁": 182,
      "ic": 183,
      "s.": 184,
      "A▁man▁": 185,
      "to▁": 186,
      "ck▁": 187,
      "sitt": 188,
      "sk": 189,
      "stand": 190,
      "ho": 191,
      "in▁the▁": 192,
      "at▁": 193,
      "▁are▁": 194,
      "ri": 195,
      "Th": 196,
      "do": 197,
      "ge▁": 198,
      "sitting▁": 199,
      "es▁": 200,
      "on▁the▁": 201,
      "up▁": 202,
      ",▁": 203,
      "ite▁": 204,
      "peop": 205,
      "ur": 206,
      "sid": 207,
      "ree": 208,
      "oun": 209,
      "woman▁": 210,
      "ig": 211,
      "d▁a▁": 212,
      ".▁": 213,
      "king▁": 214,
      "bu": 215,
      "tra": 216,
      "play": 217,
      "gro": 218,
      "standing▁": 219,
      "boar": 220,
      "ch▁": 221,
      "white▁": 222,
      "ver": 223,
      "ie": 224,
      "Two▁": 225,
      "ing▁a": 226,
      "dow": 227,
      "s▁a▁": 228,
      "xt▁": 229,
      "co": 230,
      "tab": 231,
      "next▁": 232,
      "hold": 233,
      "we": 234,
      "per": 235,
      "e.": 236,
      "wal": 237,
      "▁and▁a▁": 238,
      "par": 239,
      "k▁": 240,
      "people▁": 241,
      "room": 242,
      "stree": 243,
      "pa": 244,
      "ca": 245,
      "gra": 246,
      "to▁a▁": 247,
      "ha": 248,
      "lu": 249,
      "fr": 250,
      "ss": 251,
      "um": 252,
      "li": 253,
      "top▁": 254,
      "ar▁": 255,
      "wat": 256,
      "bla": 257,
      "ff": 258,
      "ld▁": 259,
      "rid": 260,
      "ti": 261,
      "se▁": 262,
      "som": 263,
      "the": 264,
      "ea": 265,
      "t.": 266,
      "t▁a▁": 267,
      "The▁": 268,
      "ir▁": 269,
      "ge": 270,
      "oth": 271,
      "po": 272,
      "up▁of▁": 273,
      "for": 274,
      "oung▁": 275,
      "his▁": 276,
      "pers": 277,
      "ph": 278,
      "red▁": 279,
      "A▁c": 280,
      "lar": 281,
      "row": 282,
      "ow▁": 283,
      "ild": 284,
      "A▁woman▁": 285,
      "whi": 286,
      "ts▁": 287,
      "d.": 288,
      "de": 289,
      "ball▁": 290,
      "▁an▁": 291,
      "loo": 292,
      "room▁": 293,
      "young▁": 294,
      "fron": 295,
      "ve": 296,
      "side▁": 297,
      "s▁and▁": 298,
      "person▁": 299,
      "group▁of▁": 300,
      "large▁": 301,
      "di": 302,
      "front▁": 303,
      "ying▁": 304,
      "wear": 305,
      "one▁": 306,
      "ss▁": 307,
      "sn": 308,
      "mo": 309,
      "fo": 310,
      "ten": 311,
      "ga": 312,
      "blu": 313,
      "m▁": 314,
      "that▁": 315,
      "next▁to▁a▁": 316,
      "in▁front▁": 317,
      "s▁a": 318,
      "pi": 319,
      "two▁": 320,
      "fie": 321,
      "some▁": 322,
      "tt": 323,
      "street▁": 324,
      "dog▁": 325,
      "sma": 326,
      "igh": 327,
      "ru": 328,
      "ce": 329,
      "plat": 330,
      "gir": 331,
      "car": 332,
      "black▁": 333,
      "gh": 334,
      "clo": 335,
      "it▁": 336,
      "shir": 337,
      "s▁are▁": 338,
      "ers▁": 339,
      "men▁": 340,
      "rea": 341,
      "table": 342,
      "blue▁": 343,
      "small▁": 344,
      "sur": 345,
      "holding▁a▁": 346,
      "ree▁": 347,
      "man": 348,
      "al▁": 349,
      "il": 350,
      "ke": 351,
      "sig": 352,
      "while▁": 353,
      "skat": 354,
      "pu": 355,
      "gre": 356,
      "tor": 357,
      "other▁": 358,
      "A▁group▁of▁": 359,
      "fl": 360,
      "tu": 361,
      "tenn": 362,
      "dy▁": 363,
      "er.": 364,
      "its▁": 365,
      "out": 366,
      "board": 367,
      "ee": 368,
      "build": 369,
      "cou": 370,
      "board▁": 371,
      "by▁": 372,
      "kit": 373,
      "tennis▁": 374,
      "boy▁": 375,
      "table▁": 376,
      "ce▁": 377,
      "und": 378,
      "foo": 379,
      "side": 380,
      "yc": 381,
      "me": 382,
      "su": 383,
      "an▁": 384,
      "playing▁": 385,
      "ple▁": 386,
      "surf": 387,
      "ele": 388,
      "bi": 389,
      "base": 390,
      "girl▁": 391,
      "bath": 392,
      "train▁": 393,
      "walking▁": 394,
      "ke▁": 395,
      "bea": 396,
      "on▁top▁": 397,
      "sitting▁on▁a▁": 398,
      "com": 399,
      "top": 400,
      "in▁front▁of▁a▁": 401,
      "ter▁": 402,
      "A▁person▁": 403,
      "ve▁": 404,
      "win": 405,
      "skate": 406,
      "her▁": 407,
      "down": 408,
      "woo": 409,
      "down▁": 410,
      "A▁young▁": 411,
      "green▁": 412,
      "ving▁": 413,
      "A▁b": 414,
      "con": 415,
      "park": 416,
      "hor": 417,
      "look": 418,
      "gi": 419,
      "t▁the▁": 420,
      "An▁": 421,
      "ugh": 422,
      "baseball▁": 423,
      "lon": 424,
      "roa": 425,
      "snow": 426,
      "men": 427,
      "ed": 428,
      "ses▁": 429,
      "zz": 430,
      "ski": 431,
      "umb": 432,
      "fro": 433,
      "near": 434,
      "hi": 435,
      "ic▁": 436,
      "shirt▁": 437,
      "wearing▁a▁": 438,
      "o▁": 439,
      "next▁to▁": 440,
      "pic": 441,
      "cu": 442,
      "und▁": 443,
      "fa": 444,
      "kitch": 445,
      "out▁": 446,
      "ell": 447,
      "fi": 448,
      "▁at▁a▁": 449,
      "y.": 450,
      "walk": 451,
      "field": 452,
      "ant▁": 453,
      "that▁is▁": 454,
      "back": 455,
      "cke": 456,
      "and▁": 457,
      "gla": 458,
      "pizz": 459,
      "eat": 460,
      "rough": 461,
      "ile": 462,
      "ter": 463,
      "or▁": 464,
      "▁air": 465,
      "dr": 466,
      "raff": 467,
      "▁and▁white▁": 468,
      "through": 469,
      "ben": 470,
      "ed▁with▁": 471,
      "st▁": 472,
      "yell": 473,
      "it.": 474,
      "motor": 475,
      "fri": 476,
      "cha": 477,
      "sta": 478,
      "plate▁": 479,
      "down▁a▁": 480,
      "off": 481,
      "pictu": 482,
      "fu": 483,
      "their▁": 484,
      "on▁top▁of▁a▁": 485,
      "near▁a▁": 486,
      "water▁": 487,
      "giraff": 488,
      "cyc": 489,
      "wood": 490,
      "people": 491,
      "chi": 492,
      "run": 493,
      "plan": 494,
      "cit": 495,
      "rel": 496,
      "of▁the▁": 497,
      "sa": 498,
      "s▁.": 499,
      "gu": 500,
      "bathroom▁": 501,
      "veral▁": 502,
      "eleph": 503,
      "si": 504,
      "sign▁": 505,
      "holding▁": 506,
      "ittle▁": 507,
      "ver▁": 508,
      "ping▁": 509,
      "ligh": 510,
      "toile": 511,
      "rown▁": 512,
      "rella": 513,
      "player▁": 514,
      "parked▁": 515,
      "umbrella": 516,
      "ing.": 517,
      "cro": 518,
      "by": 519,
      "motorcyc": 520,
      "Three▁": 521,
      "yellow▁": 522,
      "lap": 523,
      "bra": 524,
      "bus▁": 525,
      "me▁": 526,
      "wearing▁": 527,
      "tow": 528,
      "little▁": 529,
      "field▁": 530,
      "sits▁": 531,
      "ink": 532,
      "riding▁": 533,
      "ing▁at▁a▁": 534,
      "ere▁": 535,
      "dre": 536,
      "hin": 537,
      "riding▁a▁": 538,
      "w▁": 539,
      "el": 540,
      "window": 541,
      "tree": 542,
      "up": 543,
      "is▁a▁": 544,
      "ball": 545,
      "jum": 546,
      "kitchen▁": 547,
      "laying▁": 548,
      "wooden▁": 549,
      "qu": 550,
      "wor": 551,
      "hea": 552,
      "sc": 553,
      "sign": 554,
      "food▁": 555,
      "ima": 556,
      "has▁": 557,
      "t▁and▁": 558,
      "child▁": 559,
      "go": 560,
      "ink▁": 561,
      "tru": 562,
      "A▁large▁": 563,
      "snow▁": 564,
      "dog": 565,
      "near▁": 566,
      "oran": 567,
      "over": 568,
      "behin": 569,
      "flo": 570,
      "em": 571,
      "ds▁": 572,
      "cat▁": 573,
      "ebra": 574,
      "s▁and▁a▁": 575,
      "looking▁": 576,
      "cover": 577,
      "cti": 578,
      "ple▁of▁": 579,
      "field.": 580,
      "ch.": 581,
      "for▁": 582,
      "pho": 583,
      "da": 584,
      "pizza▁": 585,
      "grass▁": 586,
      "'s▁": 587,
      "sbe": 588,
      "plane▁": 589,
      "compu": 590,
      "ice▁": 591,
      "sto": 592,
      "picture▁": 593,
      "mer": 594,
      "zebra": 595,
      "by▁a▁": 596,
      "sand": 597,
      "ls▁": 598,
      "Pe": 599,
      "sh▁": 600,
      "s.▁": 601,
      "city▁": 602,
      "ly▁": 603,
      "backgro": 604,
      "cat": 605,
      "table.": 606,
      "show": 607,
      "A▁man▁is▁": 608,
      "lin": 609,
      "oc": 610,
      "Peop": 611,
      "mu": 612,
      "hand": 613,
      "desk": 614,
      "street.": 615,
      "brown▁": 616,
      "each▁": 617,
      "walk▁": 618,
      "pp": 619,
      "tting▁": 620,
      "moun": 621,
      "tr": 622,
      "outside▁": 623,
      "tain": 624,
      "building▁": 625,
      "r▁": 626,
      "bir": 627,
      "s▁on▁a▁": 628,
      "mil": 629,
      "ati": 630,
      "child": 631,
      "ire▁": 632,
      "A▁man▁in▁a▁": 633,
      "flow": 634,
      "beach▁": 635,
      "long▁": 636,
      "black": 637,
      "geth": 638,
      "togeth": 639,
      "ent▁": 640,
      "down▁the▁": 641,
      "▁another▁": 642,
      "pre": 643,
      "grass": 644,
      "A▁cou": 645,
      "phon": 646,
      "fe": 647,
      "ted▁": 648,
      "te▁": 649,
      "che": 650,
      "A▁group▁of▁people▁": 651,
      "d▁a": 652,
      "ban": 653,
      "very▁": 654,
      "coun": 655,
      "cour": 656,
      "glas": 657,
      "some": 658,
      "way▁": 659,
      "A▁small▁": 660,
      "E▁": 661,
      "people▁are▁": 662,
      "fen": 663,
      "women▁": 664,
      "je": 665,
      "old▁": 666,
      "les▁": 667,
      "th▁": 668,
      "flying▁": 669,
      "du": 670,
      "Se": 671,
      "from▁": 672,
      "lea": 673,
      "ere▁is▁a▁": 674,
      "under": 675,
      "fill": 676,
      "ding▁": 677,
      "to▁the▁": 678,
      "te": 679,
      "through▁": 680,
      "living▁": 681,
      "covered▁": 682,
      "a▁man▁": 683,
      "mid": 684,
      "sing▁": 685,
      "ty▁": 686,
      ",▁and▁": 687,
      "s,▁": 688,
      "game▁": 689,
      "bear▁": 690,
      "in▁the▁backgro": 691,
      "horse▁": 692,
      "skateboard": 693,
      "va": 694,
      "has▁a▁": 695,
      "d▁of▁": 696,
      "t▁.": 697,
      "ys▁": 698,
      "e▁and▁": 699,
      "dri": 700,
      "road▁": 701,
      "clock▁": 702,
      "A▁s": 703,
      "cks▁": 704,
      "sho": 705,
      "▁at▁": 706,
      "childre": 707,
      "stu": 708,
      "board.": 709,
      "skateboard▁": 710,
      "sw": 711,
      "Several▁": 712,
      "dis": 713,
      "tri": 714,
      "bench▁": 715,
      "round▁": 716,
      "over▁": 717,
      "phone▁": 718,
      "ting▁": 719,
      "fire▁": 720,
      "watch": 721,
      "orange▁": 722,
      "▁as▁": 723,
      "f▁": 724,
      "giraffe▁": 725,
      "stands▁": 726,
      "chair": 727,
      "on.": 728,
      "dir": 729,
      "side▁of▁a▁": 730,
      "ja": 731,
      "shee": 732,
      "sp": 733,
      "bow": 734,
      "▁at▁the▁": 735,
      "truck▁": 736,
      "form": 737,
      "wall": 738,
      "ang": 739,
      "unch▁": 740,
      "cket▁": 741,
      "tal": 742,
      "sink": 743,
      "A▁cat▁": 744,
      "vie": 745,
      "dress": 746,
      "boo": 747,
      "banan": 748,
      "side▁a▁": 749,
      "bri": 750,
      "▁air▁": 751,
      "our▁": 752,
      "room.": 753,
      "i▁": 754,
      "mar": 755,
      "runn": 756,
      "back▁": 757,
      "People▁": 758,
      "open▁": 759,
      "ing▁on▁a▁": 760,
      "water": 761,
      "from": 762,
      "A▁white▁": 763,
      "for▁a▁": 764,
      "camer": 765,
      "standing▁on▁a▁": 766,
      "in▁the": 767,
      "building": 768,
      "pie": 769,
      "boat▁": 770,
      "motorcycle▁": 771,
      "t▁of▁": 772,
      "ing▁the▁": 773,
      "A▁couple▁of▁": 774,
      "▁an▁a": 775,
      "A▁dog▁": 776,
      "mir": 777,
      "frisbe": 778,
      "dle▁": 779,
      "sandwi": 780,
      "sun": 781,
      "bed▁": 782,
      "over▁a▁": 783,
      "big▁": 784,
      "eating▁": 785,
      "water.": 786,
      "icyc": 787,
      "many▁": 788,
      "filled▁with▁": 789,
      "mou": 790,
      "stand▁": 791,
      "TH": 792,
      "ing▁and▁": 793,
      "mirro": 794,
      "bed": 795,
      "male▁": 796,
      "ful▁": 797,
      "ction▁": 798,
      "A▁boy▁": 799,
      "toilet▁": 800,
      "ere": 801,
      "A▁man": 802,
      "unch▁of▁": 803,
      "ped▁": 804,
      "und.": 805,
      "dou": 806,
      "stri": 807,
      "being▁": 808,
      "rea▁": 809,
      "in▁front▁of▁": 810,
      "pink▁": 811,
      "crow": 812,
      "ying▁a▁": 813,
      "s▁on▁": 814,
      "three▁": 815,
      "sl": 816,
      "vege": 817,
      "in▁an▁": 818,
      "elephan": 819,
      "ce.": 820,
      "that": 821,
      "baby▁": 822,
      "de▁": 823,
      "black▁and▁white▁": 824,
      "bear": 825,
      "car▁": 826,
      "ted": 827,
      "elephant▁": 828,
      "hy": 829,
      "bike▁": 830,
      "behind▁": 831,
      "cake▁": 832,
      "col": 833,
      "ki": 834,
      "laptop▁": 835,
      "ome▁": 836,
      "A▁little▁": 837,
      "while": 838,
      "play▁": 839,
      "view▁": 840,
      "mon": 841,
      "street": 842,
      "sitting▁on▁the▁": 843,
      "from▁a▁": 844,
      "traff": 845,
      "hydr": 846,
      "hat▁": 847,
      "ffer": 848,
      "close▁": 849,
      "king▁a▁": 850,
      "old": 851,
      "through▁a▁": 852,
      "▁anima": 853,
      "pan": 854,
      "Two▁men▁": 855,
      "pro": 856,
      "cor": 857,
      "ser": 858,
      "occ": 859,
      "sha": 860,
      "park▁": 861,
      "ves▁": 862,
      "dressed▁": 863,
      "rest": 864,
      "photo▁": 865,
      "rac": 866,
      "IN": 867,
      "cell▁": 868,
      "Man▁": 869,
      "sit▁": 870,
      "standing▁in▁a▁": 871,
      "living▁room▁": 872,
      "en.": 873,
      "differ": 874,
      "bat": 875,
      "vi": 876,
      "thing▁": 877,
      "fru": 878,
      "A▁girl▁": 879,
      "looking▁a": 880,
      "ine": 881,
      "coo": 882,
      "playing▁a▁": 883,
      "ble▁": 884,
      "on▁his▁": 885,
      "tall▁": 886,
      "her": 887,
      "sitting▁in▁a▁": 888,
      "banana": 889,
      "An": 890,
      "hang": 891,
      "fire▁hydr": 892,
      "jumping▁": 893,
      "pass": 894,
      "bus": 895,
      "teddy▁": 896,
      "children▁": 897,
      "glass▁": 898,
      "suit": 899,
      "ling▁": 900,
      "door": 901,
      "computer▁": 902,
      "emp": 903,
      "different▁": 904,
      "a▁person▁": 905,
      "shor": 906,
      "wall▁": 907,
      "sidewalk▁": 908,
      "ger": 909,
      "sle": 910,
      "lan": 911,
      "bicyc": 912,
      "tree▁": 913,
      "door▁": 914,
      "building.": 915,
      "S▁": 916,
      "▁ar": 917,
      "box": 918,
      "roll": 919,
      "light▁": 920,
      "parking▁": 921,
      "se.": 922,
      "man▁is▁": 923,
      "full▁": 924,
      "together▁": 925,
      "glasses▁": 926,
      "baseball▁player▁": 927,
      "middle▁": 928,
      "vegetable": 929,
      "le.": 930,
      "color": 931,
      "occer▁": 932,
      "ready▁": 933,
      "prepar": 934,
      "that▁are▁": 935,
      "boat": 936,
      "woman": 937,
      "ck.": 938,
      "stati": 939,
      "carr": 940,
      "laptop": 941,
      "cow": 942,
      "several▁": 943,
      "head▁": 944,
      "und▁a▁": 945,
      "por": 946,
      "men▁are▁": 947,
      "round▁a▁": 948,
      "ps▁": 949,
      "pe▁": 950,
      "ing▁an▁": 951,
      "sti": 952,
      "lean": 953,
      "talking▁": 954,
      "er▁is▁": 955,
      "off▁": 956,
      "red": 957,
      "▁airplane▁": 958,
      "There▁is▁a▁": 959,
      "pain": 960,
      "piece▁": 961,
      "dur": 962,
      "slo": 963,
      "hou": 964,
      "traffic▁": 965,
      "gg": 966,
      "whit": 967,
      "ard▁": 968,
      "desk▁": 969,
      "pizza": 970,
      "graz": 971,
      "ous▁": 972,
      "round": 973,
      "stuff": 974,
      "into▁a▁": 975,
      "bro": 976,
      ",▁a▁": 977,
      "gras": 978,
      "each▁other▁": 979,
      "es▁of▁": 980,
      "urn": 981,
      "swing": 982,
      "in▁the▁middle▁": 983,
      "ere▁are▁": 984,
      "ground▁": 985,
      "under▁a▁": 986,
      "sitting▁on▁top▁of▁a▁": 987,
      "ball.": 988,
      "zebra▁": 989,
      "lady▁": 990,
      "sitting▁at▁a▁": 991,
      "oo": 992,
      "slee": 993,
      "re.": 994,
      "st▁a▁": 995,
      "fla": 996,
      "Two▁people▁": 997,
      "with▁the▁": 998,
      "hel": 999,
      "up▁of▁a▁": 1000,
      "vid": 1001,
      "with▁his▁": 1002,
      "A▁clo": 1003,
      "hand▁": 1004,
      "soccer▁": 1005,
      "running▁": 1006,
      "umbrella▁": 1007,
      "b▁": 1008,
      "bru": 1009,
      "This▁": 1010,
      "suit▁": 1011,
      "es.": 1012,
      "photo": 1013,
      "pull": 1014,
      "▁at": 1015,
      "ner▁": 1016,
      "led▁": 1017,
      "eng": 1018,
      "on▁it.": 1019,
      "s▁of▁": 1020,
      "sit": 1021,
      "gga": 1022,
      "high": 1023,
      "road.": 1024,
      "standing▁next▁to▁a▁": 1025,
      "trave": 1026,
      "uni": 1027,
      "posing▁": 1028,
      "snowy▁": 1029,
      "ded▁": 1030,
      "stop▁": 1031,
      "wait": 1032,
      "sheep▁": 1033,
      "dirt▁": 1034,
      "▁area▁": 1035,
      "ts.": 1036,
      "window▁": 1037,
      "shirt▁and▁": 1038,
      "piece▁of▁": 1039,
      "with▁two▁": 1040,
      "pur": 1041,
      "chair▁": 1042,
      "dar": 1043,
      "bl": 1044,
      "skis▁": 1045,
      "A▁woman▁is▁": 1046,
      "ready▁to▁": 1047,
      "var": 1048,
      "surfboard▁": 1049,
      "ex": 1050,
      "long": 1051,
      "kite▁": 1052,
      "s▁at▁a▁": 1053,
      "ran": 1054,
      "smil": 1055,
      "mp": 1056,
      "e▁.": 1057,
      "ched▁": 1058,
      "work": 1059,
      "grassy▁": 1060,
      "floor": 1061,
      "wave▁": 1062,
      "hill": 1063,
      "ts▁and▁": 1064,
      "walking▁a": 1065,
      "ter.": 1066,
      "image▁": 1067,
      "bird▁": 1068,
      "ator": 1069,
      "A▁train▁": 1070,
      "gain": 1071,
      "catch": 1072,
      "mic": 1073,
      "plate▁of▁": 1074,
      "mountain": 1075,
      "s▁in▁a▁": 1076,
      "bar": 1077,
      "hat": 1078,
      "N▁": 1079,
      "micro": 1080,
      "beach.": 1081,
      "in▁his▁": 1082,
      "tennis▁cour": 1083,
      "mirror": 1084,
      "ion": 1085,
      "cco": 1086,
      "throw": 1087,
      "tain▁": 1088,
      "something▁": 1089,
      "lugga": 1090,
      "shirt▁is▁": 1091,
      "A▁bathroom▁": 1092,
      "older▁": 1093,
      "standing▁a": 1094,
      "grass.": 1095,
      "mb": 1096,
      "ssor": 1097,
      "through▁the▁": 1098,
      "vase▁": 1099,
      "ccoli": 1100,
      "A▁black▁": 1101,
      "standing▁in▁the▁": 1102,
      "looks▁": 1103,
      "cross▁": 1104,
      "ious▁": 1105,
      "cean": 1106,
      "key": 1107,
      "tennis▁player▁": 1108,
      "with▁an▁": 1109,
      "track": 1110,
      "fire▁hydrant▁": 1111,
      "ocean": 1112,
      "cur": 1113,
      "dul": 1114,
      "plate.": 1115,
      "Four▁": 1116,
      "street▁.": 1117,
      "don": 1118,
      "perform": 1119,
      "jacket▁": 1120,
      "of▁an▁": 1121,
      "ment▁": 1122,
      "gerator": 1123,
      "full▁of▁": 1124,
      "tre": 1125,
      "lf▁": 1126,
      "visi": 1127,
      "jo": 1128,
      "gray▁": 1129,
      "m.": 1130,
      "nigh": 1131,
      "A▁young▁boy▁": 1132,
      "behind▁a▁": 1133,
      "refri": 1134,
      "driving▁": 1135,
      "tal▁": 1136,
      "inter": 1137,
      "train": 1138,
      "na": 1139,
      "is▁a": 1140,
      "refrigerator": 1141,
      "be▁": 1142,
      "A▁young▁man▁": 1143,
      "horse": 1144,
      "skate▁": 1145,
      "m▁.": 1146,
      "body▁": 1147,
      "guy▁": 1148,
      "getting▁": 1149,
      "hanging▁": 1150,
      "staur": 1151,
      "A▁woman▁in▁a▁": 1152,
      "dd": 1153,
      "bott": 1154,
      "colorful▁": 1155,
      "brea": 1156,
      "side.": 1157,
      "ov": 1158,
      "taking▁a▁": 1159,
      "▁area": 1160,
      "restaur": 1161,
      "broccoli": 1162,
      "il▁": 1163,
      "ske": 1164,
      "camera▁": 1165,
      "l.": 1166,
      "going▁": 1167,
      "cont": 1168,
      "que": 1169,
      "picture▁of▁a▁": 1170,
      "cora": 1171,
      "ard": 1172,
      "a▁close▁": 1173,
      "stru": 1174,
      "this▁": 1175,
      "per▁": 1176,
      "ge.": 1177,
      "hair▁": 1178,
      "ght▁": 1179,
      "on▁it": 1180,
      "each▁oth": 1181,
      "day▁": 1182,
      "tele": 1183,
      "hot▁": 1184,
      "horses▁": 1185,
      "ing▁.": 1186,
      "sian▁": 1187,
      "while▁a▁": 1188,
      "mi": 1189,
      "ed▁by▁": 1190,
      "G▁": 1191,
      "up▁a▁": 1192,
      "din": 1193,
      "spe": 1194,
      "ni": 1195,
      "couple▁of▁": 1196,
      "table▁with▁": 1197,
      "bowl▁": 1198,
      "snowboard": 1199,
      "he▁": 1200,
      "decora": 1201,
      "ve.": 1202,
      "ke.": 1203,
      "me.": 1204,
      "cros": 1205,
      "t.▁": 1206,
      "from▁the▁": 1207,
      "slope": 1208,
      "ther": 1209,
      "es▁.": 1210,
      "vide": 1211,
      "pit": 1212,
      "A▁red▁": 1213,
      "ts▁of▁": 1214,
      "tower▁": 1215,
      "baske": 1216,
      "book": 1217,
      "remo": 1218,
      "racke": 1219,
      "tea": 1220,
      "topp": 1221,
      "Some▁": 1222,
      "sits▁on▁a▁": 1223,
      "brick▁": 1224,
      "A▁baseball▁player▁": 1225,
      "ty": 1226,
      "pair▁": 1227,
      "ski▁": 1228,
      "lored▁": 1229,
      "sandwich▁": 1230,
      "dogs▁": 1231,
      "surround": 1232,
      "Fri": 1233,
      "who▁": 1234,
      "working▁": 1235,
      "flowers▁": 1236,
      "ean▁": 1237,
      "cell▁phon": 1238,
      "bunch▁of▁": 1239,
      "frisbee▁": 1240,
      "empty▁": 1241,
      "sitting▁a": 1242,
      "donu": 1243,
      "ing▁in▁a▁": 1244,
      "giraffes▁": 1245,
      "girls▁": 1246,
      "televisi": 1247,
      "es▁a▁": 1248,
      "cab": 1249,
      "that▁has▁": 1250,
      "busy▁": 1251,
      "▁and": 1252,
      "pol": 1253,
      "bout▁": 1254,
      "us": 1255,
      "in▁the▁air▁": 1256,
      "clu": 1257,
      "display": 1258,
      "chee": 1259,
      "atu": 1260,
      "body▁of▁": 1261,
      "cross": 1262,
      "plane": 1263,
      "An▁old▁": 1264,
      "video▁": 1265,
      "pair▁of▁": 1266,
      "ju": 1267,
      "rail": 1268,
      "Frisbe": 1269,
      "cl": 1270,
      "no": 1271,
      "elephants▁": 1272,
      "le▁of▁": 1273,
      "A▁man▁in▁": 1274,
      "suitca": 1275,
      "A▁child▁": 1276,
      "water▁.": 1277,
      "graph": 1278,
      "by▁the▁": 1279,
      "ches▁": 1280,
      "food": 1281,
      "on▁top▁of▁": 1282,
      "helme": 1283,
      "ce▁.": 1284,
      "looking▁at▁": 1285,
      "Man": 1286,
      "wood▁": 1287,
      "▁airpor": 1288,
      "floor▁": 1289,
      "contain": 1290,
      "metal▁": 1291,
      "sidewalk": 1292,
      "sky.": 1293,
      "ING▁": 1294,
      "brid": 1295,
      "couch▁": 1296,
      "rock": 1297,
      "A▁giraffe▁": 1298,
      "A▁man▁with▁a▁": 1299,
      "cli": 1300,
      "herd▁of▁": 1301,
      "for▁the▁": 1302,
      "s▁on▁the▁": 1303,
      "dark▁": 1304,
      "kid": 1305,
      "swi": 1306,
      "ER": 1307,
      "dress▁": 1308,
      "room▁with▁a▁": 1309,
      "holds▁a▁": 1310,
      "flower": 1311,
      "double▁": 1312,
      "hu": 1313,
      "brush": 1314,
      "kes▁": 1315,
      "doing▁a▁": 1316,
      "ine▁": 1317,
      "lle": 1318,
      "form▁": 1319,
      "counter▁": 1320,
      "ching▁": 1321,
      "paper▁": 1322,
      "cker▁": 1323,
      "tie": 1324,
      "coff": 1325,
      "tball▁": 1326,
      "stop": 1327,
      "al": 1328,
      "ocean▁": 1329,
      "There▁are▁": 1330,
      "bat▁": 1331,
      "snow.": 1332,
      "cross▁a▁": 1333,
      "waiting▁": 1334,
      "sitting▁on▁": 1335,
      "is▁standing▁": 1336,
      "fee": 1337,
      "ent": 1338,
      "shel": 1339,
      "trick▁": 1340,
      "▁app": 1341,
      "▁abo": 1342,
      "anc": 1343,
      "there▁is▁a▁": 1344,
      "in▁the▁background.": 1345,
      "made▁": 1346,
      "photograph": 1347,
      "into▁the▁": 1348,
      "nu": 1349,
      "er▁and▁": 1350,
      "colored▁": 1351,
      "trees.": 1352,
      "sitting▁next▁to▁a▁": 1353,
      "A▁very▁": 1354,
      "numb": 1355,
      "skiing▁": 1356,
      "man▁in▁a▁": 1357,
      "item": 1358,
      "white▁and▁": 1359,
      "guit": 1360,
      "game.": 1361,
      "A▁black▁and▁white▁": 1362,
      "teddy▁bear▁": 1363,
      "surf▁": 1364,
      "near▁the▁": 1365,
      "mountain▁": 1366,
      "is": 1367,
      "view▁of▁a▁": 1368,
      "fore": 1369,
      "in▁the▁background▁": 1370,
      "a▁close▁up▁of▁a▁": 1371,
      "bicycle▁": 1372,
      "on▁.": 1373,
      "shirt": 1374,
      "high▁": 1375,
      "road": 1376,
      "T▁": 1377,
      "lly▁": 1378,
      "with▁some▁": 1379,
      "wall.": 1380,
      "line▁": 1381,
      "window.": 1382,
      "beach": 1383,
      "plate": 1384,
      "row▁": 1385,
      "standing▁next▁to▁": 1386,
      "clou": 1387,
      "walks▁": 1388,
      "purple▁": 1389,
      "eating▁a▁": 1390,
      "a▁woman▁": 1391,
      "cle": 1392,
      "dressed▁in▁": 1393,
      "camera": 1394,
      "hill▁": 1395,
      "ny▁": 1396,
      "boys▁": 1397,
      "bag": 1398,
      "scre": 1399,
      "ans▁": 1400,
      "zebras▁": 1401,
      "passeng": 1402,
      "a▁couple▁of▁": 1403,
      "looking▁at▁a▁": 1404,
      "cabine": 1405,
      "lying▁": 1406,
      "long▁a▁": 1407,
      "ome": 1408,
      "picture": 1409,
      "IS▁": 1410,
      "ob": 1411,
      "drink": 1412,
      "mea": 1413,
      "players▁": 1414,
      "racque": 1415,
      "ving▁a▁": 1416,
      "during▁a▁": 1417,
      "into▁": 1418,
      "dog▁is▁": 1419,
      "A▁kitchen▁": 1420,
      "Wi": 1421,
      "snow▁covered▁": 1422,
      "laying▁on▁a▁": 1423,
      "A▁street▁": 1424,
      "day.": 1425,
      "A▁man▁wearing▁a▁": 1426,
      "hic": 1427,
      ",▁one▁": 1428,
      "traveling▁": 1429,
      "various▁": 1430,
      "Asian▁": 1431,
      "green": 1432,
      "marke": 1433,
      "swe": 1434,
      "ding▁a▁": 1435,
      "str": 1436,
      "dra": 1437,
      "s▁to▁": 1438,
      "Wo": 1439,
      "A▁bunch▁of▁": 1440,
      "poo": 1441,
      "A▁little▁girl▁": 1442,
      "display▁": 1443,
      "ocean.": 1444,
      "under▁": 1445,
      "gainst▁a▁": 1446,
      "lots▁of▁": 1447,
      "A▁man▁and▁a▁": 1448,
      "sil": 1449,
      "corner▁": 1450,
      "gather": 1451,
      "female▁": 1452,
      "le▁are▁": 1453,
      "cking▁": 1454,
      "cell": 1455,
      "tie▁": 1456,
      "twe": 1457,
      "star": 1458,
      "bed.": 1459,
      "ste": 1460,
      "scen": 1461,
      "in▁the▁middle▁of▁a▁": 1462,
      "boy": 1463,
      "cked▁": 1464,
      "way.": 1465,
      "that▁has▁a▁": 1466,
      "flying▁a▁": 1467,
      "A▁man▁and▁": 1468,
      "D▁": 1469,
      "on▁a▁table.": 1470,
      "parking▁lo": 1471,
      "one": 1472,
      "wine▁": 1473,
      "toy▁": 1474,
      "mm": 1475,
      "▁adul": 1476,
      "rown": 1477,
      "wave": 1478,
      "in▁a▁field▁": 1479,
      "vehic": 1480,
      "betwe": 1481,
      "\"▁": 1482,
      "in▁the▁air": 1483,
      "image▁of▁a▁": 1484,
      "ther▁": 1485,
      "beside▁a▁": 1486,
      "A▁man▁riding▁a▁": 1487,
      "outdoor▁": 1488,
      "look▁": 1489,
      "Many▁": 1490,
      "number▁": 1491,
      "group▁of▁people▁": 1492,
      "s▁with▁": 1493,
      "toilet": 1494,
      "glasse": 1495,
      "enclo": 1496,
      "is▁holding▁a▁": 1497,
      "food.": 1498,
      "sink▁": 1499,
      "enjo": 1500,
      "head": 1501,
      "stic▁": 1502,
      "four▁": 1503,
      "sleeping▁": 1504,
      "surfboard": 1505,
      "age▁": 1506,
      "t▁with▁": 1507,
      "A▁young▁girl▁": 1508,
      "park.": 1509,
      "cre": 1510,
      "bout▁to▁": 1511,
      "pole▁": 1512,
      "seat": 1513,
      "table▁with▁a▁": 1514,
      "interse": 1515,
      "trees▁": 1516,
      "ers▁are▁": 1517,
      "box▁": 1518,
      "Young▁": 1519,
      "ced▁": 1520,
      "dough": 1521,
      "tree.": 1522,
      "coffe": 1523,
      "ity▁": 1524,
      "side▁of▁the▁": 1525,
      "can": 1526,
      "standing▁in▁front▁of▁a▁": 1527,
      "carrying▁a▁": 1528,
      "llow": 1529,
      "s▁in▁": 1530,
      "preparing▁": 1531,
      "stone▁": 1532,
      "cutting▁": 1533,
      "surrounded▁by▁": 1534,
      "ing▁in▁the▁": 1535,
      "▁area.": 1536,
      "decker▁": 1537,
      "open": 1538,
      "ft▁": 1539,
      "striped▁": 1540,
      "cake": 1541,
      "Two▁women▁": 1542,
      "face▁": 1543,
      "teddy▁bear": 1544,
      "slope.": 1545,
      "luggage▁": 1546,
      "girl": 1547,
      "uti": 1548,
      "skateboard.": 1549,
      "sky▁": 1550,
      "slic": 1551,
      "stra": 1552,
      "kni": 1553,
      ",▁and▁a▁": 1554,
      "carro": 1555,
      "on▁an▁": 1556,
      "A▁brown▁": 1557,
      "s▁in▁the▁": 1558,
      "ve▁a▁": 1559,
      "monit": 1560,
      "on▁her▁": 1561,
      "playing▁with▁a▁": 1562,
      "On": 1563,
      "der": 1564,
      "es": 1565,
      "track▁": 1566,
      "photo▁of▁a▁": 1567,
      "kin": 1568,
      "sing": 1569,
      "Woman▁": 1570,
      "rock▁": 1571,
      "Ch": 1572,
      "so": 1573,
      "fence.": 1574,
      "ven": 1575,
      "A▁man▁on▁a▁": 1576,
      "way": 1577,
      "bag▁": 1578,
      "over▁the▁": 1579,
      "A▁man▁holding▁a▁": 1580,
      "less▁": 1581,
      "trying▁": 1582,
      "using▁a▁": 1583,
      "fre": 1584,
      "Two▁young▁": 1585,
      "er▁.": 1586,
      "light": 1587,
      "who▁is▁": 1588,
      "set▁": 1589,
      "cra": 1590,
      "tic": 1591,
      "sci": 1592,
      "jacke": 1593,
      "tracks▁": 1594,
      "street▁sign": 1595,
      "▁all▁": 1596,
      "restaurant▁": 1597,
      "room▁with▁": 1598,
      "store▁": 1599,
      "inside▁of▁a▁": 1600,
      "fruit▁": 1601,
      "doughnu": 1602,
      "shop": 1603,
      "THE▁": 1604,
      "s▁at▁the▁": 1605,
      "People▁are▁": 1606,
      "birds▁": 1607,
      "ip": 1608,
      "orange": 1609,
      "ked▁": 1610,
      "blan": 1611,
      "pr": 1612,
      "home▁": 1613,
      "ird▁": 1614,
      "crowd▁": 1615,
      "racket▁": 1616,
      "th.": 1617,
      "on▁the▁beach▁": 1618,
      "A▁herd▁of▁": 1619,
      "bb": 1620,
      "furn": 1621,
      "few▁": 1622,
      "ke▁a▁": 1623,
      "A▁person▁is▁": 1624,
      "rain": 1625,
      "umbrella.": 1626,
      "kitchen.": 1627,
      "covered▁in▁": 1628,
      "t-": 1629,
      "hit": 1630,
      "cup": 1631,
      "motorcycle": 1632,
      "passenger▁": 1633,
      "ear": 1634,
      "tub": 1635,
      "kid▁": 1636,
      "AR": 1637,
      "in▁the▁background▁.": 1638,
      "each▁other.": 1639,
      "book▁": 1640,
      "on▁it▁": 1641,
      "blanke": 1642,
      "cho": 1643,
      "AN": 1644,
      "ate▁": 1645,
      "sky": 1646,
      "between▁": 1647,
      "computer": 1648,
      "fruit": 1649,
      "trying▁to▁": 1650,
      "mirror▁": 1651,
      "stuffed▁": 1652,
      "carri": 1653,
      "shorts▁": 1654,
      "▁and▁some▁": 1655,
      "lot▁of▁": 1656,
      "min": 1657,
      "ref": 1658,
      "ey": 1659,
      "▁at▁nigh": 1660,
      "A▁plate▁": 1661,
      "topped▁with▁": 1662,
      "A▁guy▁": 1663,
      "skateboarder▁": 1664,
      "controll": 1665,
      "game": 1666,
      "whee": 1667,
      "sitting▁in▁the▁": 1668,
      "holds▁": 1669,
      "walking▁down▁a▁": 1670,
      "cell▁phone▁": 1671,
      "sweat": 1672,
      "person": 1673,
      "ON▁": 1674,
      "statu": 1675,
      "children": 1676,
      "▁as▁a▁": 1677,
      "with▁her▁": 1678,
      "lder": 1679,
      "kitchen": 1680,
      "mat": 1681,
      "getting▁ready▁to▁": 1682,
      "scissor": 1683,
      "sand▁": 1684,
      "war": 1685,
      "tooth": 1686,
      "on▁a▁city▁": 1687,
      "▁around▁": 1688,
      "▁and▁black▁": 1689,
      "coming▁": 1690,
      "▁.": 1691,
      "ctr": 1692,
      "surfer▁": 1693,
      "enclosu": 1694,
      "ed▁up▁": 1695,
      "taking▁": 1696,
      "ci": 1697,
      "bathroom▁with▁a▁": 1698,
      "climb": 1699,
      "carrying▁": 1700,
      "One▁": 1701,
      "cow▁": 1702,
      "pitch": 1703,
      "double▁decker▁": 1704,
      "cand": 1705,
      "fli": 1706,
      "ed▁anima": 1707,
      "ing▁his▁": 1708,
      "ved▁": 1709,
      "tennis▁racke": 1710,
      "inside▁a▁": 1711,
      "A▁little▁boy▁": 1712,
      "cake.": 1713,
      "jec": 1714,
      "para": 1715,
      "▁an▁airpor": 1716,
      "sau": 1717,
      "sm": 1718,
      "t▁on▁a▁": 1719,
      "tting▁a▁": 1720,
      "playing▁a▁game▁": 1721,
      "A▁crow": 1722,
      "mul": 1723,
      "pants▁": 1724,
      "es▁and▁": 1725,
      "publ": 1726,
      "cows▁": 1727,
      "sunny▁": 1728,
      "building▁.": 1729,
      "fence▁": 1730,
      "A▁living▁room▁": 1731,
      "blue": 1732,
      "uniform▁": 1733,
      "ing▁on▁": 1734,
      "itu": 1735,
      "wave.": 1736,
      "skier▁": 1737,
      "in▁a▁blue▁": 1738,
      "smiling▁": 1739,
      "An▁older▁": 1740,
      "poin": 1741,
      "A▁baby▁": 1742,
      "pile▁of▁": 1743,
      "electr": 1744,
      "back▁of▁a▁": 1745,
      "ry▁": 1746,
      "swinging▁a▁": 1747,
      "Wii▁": 1748,
      "bran": 1749,
      "es▁on▁a▁": 1750,
      "couch": 1751,
      "mp▁": 1752,
      "l▁.": 1753,
      "desk.": 1754,
      "ican▁": 1755,
      "guitar▁": 1756,
      "stan": 1757,
      "meat": 1758,
      "stuffed▁anima": 1759,
      "nea": 1760,
      "fence": 1761,
      "it's▁": 1762,
      "ppe": 1763,
      "yellow": 1764,
      "lit▁": 1765,
      "coffee▁": 1766,
      "id▁": 1767,
      "cross▁the▁": 1768,
      "work▁": 1769,
      "hoo": 1770,
      "on▁the▁side▁of▁a▁": 1771,
      "beside▁": 1772,
      "holding▁an▁": 1773,
      "mouth▁": 1774,
      "fe▁": 1775,
      "is▁sitting▁on▁a▁": 1776,
      "refrigerator▁": 1777,
      "smile": 1778,
      "struction▁": 1779,
      "cars▁": 1780,
      "swimm": 1781,
      "cloth": 1782,
      "with▁their▁": 1783,
      ".▁▁": 1784,
      "bright▁": 1785,
      "TV": 1786,
      "sidewalk.": 1787,
      "ramp": 1788,
      "countr": 1789,
      "doing▁": 1790,
      "wn▁": 1791,
      "jump": 1792,
      "ered▁": 1793,
      "paper": 1794,
      "lond▁": 1795,
      "towar": 1796,
      "cla": 1797,
      "have▁": 1798,
      "ground.": 1799,
      "bench.": 1800,
      "is▁parked▁": 1801,
      "squ": 1802,
      "ture▁": 1803,
      "shown▁": 1804,
      "house▁": 1805,
      "fac": 1806,
      "A▁pizza▁": 1807,
      "beauti": 1808,
      "A▁clock▁": 1809,
      "sub": 1810,
      "next▁to▁the▁": 1811,
      "Some": 1812,
      "next▁to": 1813,
      "gar": 1814,
      "inclu": 1815,
      "remote▁": 1816,
      "furnitu": 1817,
      "danc": 1818,
      "hitt": 1819,
      "stum": 1820,
      "using▁": 1821,
      "woman▁is▁": 1822,
      "cola": 1823,
      "day": 1824,
      "inside▁": 1825,
      "turn": 1826,
      "river": 1827,
      "ction": 1828,
      "painted▁": 1829,
      "cut▁": 1830,
      "stee": 1831,
      "public▁": 1832,
      "pon": 1833,
      "▁and▁a": 1834,
      "in▁her▁": 1835,
      "plastic▁": 1836,
      "lone▁": 1837,
      "uniform": 1838,
      "cer": 1839,
      "loa": 1840,
      "river▁": 1841,
      "tennis▁ball▁": 1842,
      "out▁of▁a▁": 1843,
      "mus": 1844,
      "in▁a▁white▁": 1845,
      "Frisbee▁": 1846,
      "inking▁": 1847,
      "long▁the▁": 1848,
      "kne": 1849,
      "jumps▁": 1850,
      "cloudy▁": 1851,
      "floor.": 1852,
      "mirror.": 1853,
      "jet▁": 1854,
      "number▁of▁": 1855,
      "outside▁of▁a▁": 1856,
      "a▁small▁": 1857,
      "bathroom.": 1858,
      "two▁people▁": 1859,
      "picture▁of▁": 1860,
      "backpa": 1861,
      "kids▁": 1862,
      "train▁stati": 1863,
      "no▁": 1864,
      "half▁": 1865,
      "outdoor": 1866,
      "giraffe": 1867,
      "do▁": 1868,
      "fire": 1869,
      "in▁a▁red▁": 1870,
      "stage▁": 1871,
      "in▁the▁snow▁": 1872,
      "kites▁": 1873,
      "parke": 1874,
      "top.": 1875,
      "beautiful▁": 1876,
      "ts▁are▁": 1877,
      "parking▁me": 1878,
      "in▁the▁background": 1879,
      "A▁plate▁of▁": 1880,
      "y▁.": 1881,
      "drinking▁": 1882,
      "ice▁of▁": 1883,
      "watching▁": 1884,
      "ol": 1885,
      "bench": 1886,
      "sink.": 1887,
      "the▁air▁": 1888,
      "famil": 1889,
      "edge▁": 1890,
      "les.": 1891,
      "tached▁": 1892,
      "lling▁": 1893,
      "tee": 1894,
      "ts▁.": 1895,
      "A▁zebra▁": 1896,
      "lush▁": 1897,
      "A▁close▁": 1898,
      "like▁": 1899,
      "outf": 1900,
      "monitor": 1901,
      "s▁at▁": 1902,
      "stair": 1903,
      "x▁": 1904,
      "spor": 1905,
      "outside": 1906,
      "bel": 1907,
      "together": 1908,
      "A▁lady▁": 1909,
      "standing▁on▁top▁of▁a▁": 1910,
      "ts": 1911,
      "A▁picture▁of▁a▁": 1912,
      "A▁stop▁": 1913,
      "sitting▁on▁a▁bench▁": 1914,
      "phone": 1915,
      "chocola": 1916,
      "ers": 1917,
      "is▁on▁a▁": 1918,
      "she▁": 1919,
      "kes▁a▁": 1920,
      "sse": 1921,
      "is▁walking▁": 1922,
      "street▁with▁": 1923,
      "es▁to▁": 1924,
      "The▁man▁is▁": 1925,
      "dish": 1926,
      "sed▁": 1927,
      "spo": 1928,
      "stop▁sign▁": 1929,
      "tan": 1930,
      "smo": 1931,
      "them": 1932,
      "helmet▁": 1933,
      "past▁a▁": 1934,
      "post": 1935,
      "snowboard▁": 1936,
      "d▁of▁people▁": 1937,
      "F▁": 1938,
      "▁above▁": 1939,
      "ired▁": 1940,
      "in▁their▁": 1941,
      "pped▁": 1942,
      "cell▁phone.": 1943,
      "A▁tennis▁player▁": 1944,
      "plays▁": 1945,
      "offic": 1946,
      "hair": 1947,
      "ms▁": 1948,
      "black▁and▁": 1949,
      "gri": 1950,
      "sof": 1951,
      "inten": 1952,
      "tran": 1953,
      "ddl": 1954,
      "costum": 1955,
      "tennis▁court.": 1956,
      "watching▁a▁": 1957,
      "in▁white▁": 1958,
      "sala": 1959,
      "outside▁a▁": 1960,
      "standing▁on▁": 1961,
      "s▁as▁": 1962,
      "iti": 1963,
      "right▁": 1964,
      "hill.": 1965,
      "him": 1966,
      "hit▁a▁": 1967,
      "seen▁": 1968,
      "tray▁": 1969,
      "while▁another▁": 1970,
      "ters▁": 1971,
      "A▁bird▁": 1972,
      "haired▁": 1973,
      "small": 1974,
      "ant.": 1975,
      "posing▁for▁a▁": 1976,
      "▁around▁a▁": 1977,
      "graff": 1978,
      "Bla": 1979,
      "A▁woman": 1980,
      "coat▁": 1981,
      "television▁": 1982,
      "scene▁": 1983,
      "them.": 1984,
      "couple▁": 1985,
      "building▁with▁a▁": 1986,
      "tur": 1987,
      "clock▁tower▁": 1988,
      "phone.": 1989,
      "A▁bus▁": 1990,
      "ing▁on▁the▁": 1991,
      "ers.": 1992,
      "in▁it.": 1993,
      "sitting▁at▁a▁table▁": 1994,
      "rist": 1995,
      "dire": 1996,
      "pizza.": 1997,
      "forest": 1998,
      "Three▁people▁": 1999,
      "truck": 2000,
      "▁are": 2001,
      "counter": 2002,
      "tion▁": 2003,
      "slid": 2004,
      "ges▁": 2005,
      "tar": 2006,
      "ck▁of▁": 2007,
      "throwing▁a▁": 2008,
      "shing▁": 2009,
      "An▁elephant▁": 2010,
      "who": 2011,
      "standing▁on▁the▁": 2012,
      "can▁": 2013,
      "distan": 2014,
      "hand.": 2015,
      "thday▁": 2016,
      "A▁couple▁": 2017,
      "sandwich": 2018,
      "screen▁": 2019,
      "white": 2020,
      "photograph▁": 2021,
      "▁and▁two▁": 2022,
      "Someone▁": 2023,
      "zed▁": 2024,
      "tennis▁racque": 2025,
      "refle": 2026,
      "towe": 2027,
      "motorcycles▁": 2028,
      "mall▁": 2029,
      "wr": 2030,
      "An▁a": 2031,
      "list": 2032,
      "sitting▁in▁front▁of▁a▁": 2033,
      "frisbee.": 2034,
      "family▁": 2035,
      "sheep": 2036,
      "ride▁": 2037,
      "rides▁a▁": 2038,
      "surfboard.": 2039,
      "Gro": 2040,
      "glo": 2041,
      "A▁person▁on▁a▁": 2042,
      "A▁bathroom▁with▁a▁": 2043,
      "equ": 2044,
      "they▁": 2045,
      "computer.": 2046,
      "A▁yellow▁": 2047,
      "undernea": 2048,
      "ball▁.": 2049,
      "ight▁": 2050,
      "there▁are▁": 2051,
      "on▁their▁": 2052,
      "sail": 2053,
      "A▁man▁with▁": 2054,
      "Several▁people▁": 2055,
      "clean": 2056,
      "ground": 2057,
      "tracks.": 2058,
      "wet▁": 2059,
      "laying▁down▁": 2060,
      "d▁and▁": 2061,
      "sty": 2062,
      "ken▁": 2063,
      "mach": 2064,
      "jeans▁": 2065,
      "in▁blue▁": 2066,
      "choo": 2067,
      "ary▁": 2068,
      "clock": 2069,
      "ger▁": 2070,
      "counter.": 2071,
      "keyboard": 2072,
      "laptop.": 2073,
      "sign.": 2074,
      "sunglasses▁": 2075,
      "grass▁.": 2076,
      "playing▁tennis▁": 2077,
      "the▁other▁": 2078,
      "A▁com": 2079,
      "bike": 2080,
      "row▁of▁": 2081,
      "A▁table▁": 2082,
      "blue▁and▁": 2083,
      "concre": 2084,
      "in▁its▁": 2085,
      "others▁": 2086,
      "city.": 2087,
      "bridge▁": 2088,
      "an▁image▁of▁a▁": 2089,
      "large": 2090,
      "objec": 2091,
      "chocolate▁": 2092,
      "tennis▁court▁": 2093,
      "police▁": 2094,
      "cen": 2095,
      "lderly▁": 2096,
      "ly": 2097,
      "trun": 2098,
      "them▁": 2099,
      "IN▁": 2100,
      "s▁ar": 2101,
      "together.": 2102,
      "This▁is▁a▁": 2103,
      "OF▁": 2104,
      "stove▁": 2105,
      "go▁": 2106,
      "▁airplane": 2107,
      ",▁with▁": 2108,
      "ive▁": 2109,
      "clear▁": 2110,
      "brown": 2111,
      "oven▁": 2112,
      "ing▁at▁the▁": 2113,
      "car.": 2114,
      "Ba": 2115,
      "seat▁": 2116,
      "hit▁": 2117,
      "tou": 2118,
      "ral▁": 2119,
      "in▁the▁snow.": 2120,
      "tly▁": 2121,
      "boats▁": 2122,
      "pen": 2123,
      "▁animals▁": 2124,
      "A▁blue▁": 2125,
      "hands▁": 2126,
      "red▁and▁white▁": 2127,
      "WI": 2128,
      "been▁": 2129,
      "intersection▁": 2130,
      "on▁the▁ground▁": 2131,
      "him▁.": 2132,
      "jump▁": 2133,
      "▁ad": 2134,
      "k.": 2135,
      "A▁pair▁of▁": 2136,
      "tan▁": 2137,
      "top▁of▁a▁": 2138,
      "kite": 2139,
      "someone▁": 2140,
      "dining▁": 2141,
      "▁and▁an▁": 2142,
      "double▁decker▁bus▁": 2143,
      "▁about▁to▁": 2144,
      "silver▁": 2145,
      "path▁": 2146,
      "lush▁green▁": 2147,
      "lake▁": 2148,
      "lights▁": 2149,
      "women▁are▁": 2150,
      "der▁": 2151,
      "team▁": 2152,
      "toma": 2153,
      "sit▁on▁a▁": 2154,
      "up▁to▁": 2155,
      "pillow": 2156,
      "banana▁": 2157,
      "bowl▁of▁": 2158,
      "in▁black▁": 2159,
      "cooking▁": 2160,
      "rain▁": 2161,
      "tv": 2162,
      "A▁young▁woman▁": 2163,
      "owl▁": 2164,
      "street▁sign▁": 2165,
      "grassy": 2166,
      "towards▁": 2167,
      "A▁group▁of▁men▁": 2168,
      "surfa": 2169,
      "frien": 2170,
      "bathroom▁with▁": 2171,
      "flower▁": 2172,
      "ple": 2173,
      "with▁people▁": 2174,
      "equip": 2175,
      "bun": 2176,
      "compe": 2177,
      "just▁": 2178,
      "off▁a▁": 2179,
      "is▁sitting▁": 2180,
      "little▁girl▁": 2181,
      "ical▁": 2182,
      "watch▁": 2183,
      "ional▁": 2184,
      "ble": 2185,
      "elderly▁": 2186,
      "displayed▁": 2187,
      "on▁some▁": 2188,
      "with▁many▁": 2189,
      "dog.": 2190,
      "rides▁": 2191,
      "ts▁and▁a▁": 2192,
      "hot": 2193,
      "walking▁down▁the▁": 2194,
      "sidewalk▁.": 2195,
      "multi": 2196,
      "ks▁": 2197,
      "talking▁on▁a▁": 2198,
      "Small▁": 2199,
      "football▁": 2200,
      "hot▁dog▁": 2201,
      "meal▁": 2202,
      "se▁and▁": 2203,
      "with▁a▁red▁": 2204,
      "THER": 2205,
      "A▁man▁and▁a▁woman▁": 2206,
      "bathroom": 2207,
      "leg": 2208,
      "decorated▁": 2209,
      "tennis▁racket▁": 2210,
      "toddl": 2211,
      "catch▁a▁": 2212,
      "red▁and▁": 2213,
      "Two▁men▁are▁": 2214,
      "looking▁at▁the▁": 2215,
      "grey▁": 2216,
      "our": 2217,
      "video▁game▁": 2218,
      "pose▁": 2219,
      "on▁the▁side▁of▁the▁": 2220,
      "pat": 2221,
      "contro": 2222,
      "new": 2223,
      "The▁man▁": 2224,
      "corn": 2225,
      "bananas▁": 2226,
      "trail": 2227,
      "sel": 2228,
      "A▁man▁and▁woman▁": 2229,
      "Group▁of▁": 2230,
      "making▁": 2231,
      "birthday▁": 2232,
      "ting▁a▁": 2233,
      "t▁of▁a▁": 2234,
      "he": 2235,
      "office▁": 2236,
      "Bo": 2237,
      "glass▁of▁": 2238,
      "both▁": 2239,
      "field▁.": 2240,
      "▁appe": 2241,
      "it.▁": 2242,
      "ant": 2243,
      "stove": 2244,
      "blo": 2245,
      "ice": 2246,
      "in▁a▁black▁": 2247,
      "country▁": 2248,
      "in▁front▁of▁the▁": 2249,
      "sandy▁": 2250,
      "onto▁a▁": 2251,
      "sun▁": 2252,
      "nice▁": 2253,
      "bush": 2254,
      "um▁": 2255,
      "construction▁": 2256,
      "woman▁are▁": 2257,
      "br": 2258,
      "crea": 2259,
      "with▁its▁": 2260,
      "A▁stop▁sign▁": 2261,
      "in▁red▁": 2262,
      "shower▁": 2263,
      "camera▁.": 2264,
      "flying▁a▁kite▁": 2265,
      "out▁of▁": 2266,
      "▁as▁he▁": 2267,
      "tto": 2268,
      "drink▁": 2269,
      "toilet.": 2270,
      "s,▁and▁": 2271,
      "A▁skateboarder▁": 2272,
      "phone▁.": 2273,
      "chair.": 2274,
      "spa": 2275,
      "kite.": 2276,
      "An▁airplane▁": 2277,
      "type": 2278,
      "on▁skis▁": 2279,
      "children▁are▁": 2280,
      "sca": 2281,
      "on▁a▁table": 2282,
      "self▁": 2283,
      "with▁a▁large▁": 2284,
      "s▁an▁": 2285,
      "on▁a▁white▁": 2286,
      "hitting▁a▁": 2287,
      "shi": 2288,
      "y▁and▁": 2289,
      "statue▁": 2290,
      "surf▁board▁": 2291,
      "ation▁": 2292,
      "concrete▁": 2293,
      "poses▁": 2294,
      "bor": 2295,
      "in▁a▁field.": 2296,
      "float": 2297,
      "bowl": 2298,
      "Lar": 2299,
      "struc": 2300,
      "gear▁": 2301,
      "p▁.": 2302,
      "court.": 2303,
      "is▁shown▁": 2304,
      "toilet▁and▁": 2305,
      "ty▁of▁": 2306,
      "▁at▁an▁": 2307,
      "bat.": 2308,
      "t▁an▁": 2309,
      "th▁a▁": 2310,
      "guys▁": 2311,
      "riding▁on▁a▁": 2312,
      "broccoli▁": 2313,
      "snowboarder▁": 2314,
      "schoo": 2315,
      "with▁several▁": 2316,
      "playing▁a▁game▁of▁": 2317,
      "reading▁a▁": 2318,
      "sea": 2319,
      "setting▁": 2320,
      "placed▁": 2321,
      "ast": 2322,
      "time▁": 2323,
      "buildings.": 2324,
      "basketball▁": 2325,
      "dish▁": 2326,
      "motor▁": 2327,
      "-haired▁": 2328,
      "perched▁": 2329,
      "ttemp": 2330,
      "bath▁": 2331,
      "filled▁": 2332,
      "ramp.": 2333,
      "A▁horse▁": 2334,
      "TH▁": 2335,
      "A▁group▁of▁people▁are▁": 2336,
      "wra": 2337,
      "other": 2338,
      "ing▁at▁": 2339,
      "tel▁": 2340,
      "slice▁of▁": 2341,
      "cheese▁": 2342,
      "subway▁": 2343,
      "mas▁": 2344,
      "cul": 2345,
      "kitchen▁with▁": 2346,
      "▁against▁a▁": 2347,
      "busine": 2348,
      "TO": 2349,
      "har": 2350,
      "is▁playing▁": 2351,
      "trees": 2352,
      "part": 2353,
      "ings▁": 2354,
      "iti▁": 2355,
      "is▁being▁": 2356,
      "Two▁people▁are▁": 2357,
      "people.": 2358,
      "on▁a▁wooden▁": 2359,
      "a▁young▁": 2360,
      "bus.": 2361,
      "yard▁": 2362,
      "sor": 2363,
      "plate▁with▁": 2364,
      "varie": 2365,
      "A▁wooden▁": 2366,
      "bikes▁": 2367,
      "doing▁a▁trick▁": 2368,
      "ged▁": 2369,
      "standing▁in▁": 2370,
      "wall▁.": 2371,
      "during▁the▁": 2372,
      "ul": 2373,
      "cat▁is▁": 2374,
      "THERE▁": 2375,
      "desk▁with▁a▁": 2376,
      "A▁surfer▁": 2377,
      "tty▁": 2378,
      "laugh": 2379,
      "plate▁with▁a▁": 2380,
      "city": 2381,
      "mac": 2382,
      "sink▁and▁": 2383,
      "making▁a▁": 2384,
      "tiled▁": 2385,
      "fly": 2386,
      "A▁woman▁holding▁a▁": 2387,
      "chick": 2388,
      "t▁with▁a▁": 2389,
      "A▁bowl▁": 2390,
      "which▁": 2391,
      "suitcase▁": 2392,
      "blue▁and▁white▁": 2393,
      "n.": 2394,
      "each▁other": 2395,
      "on▁a▁sunny▁": 2396,
      "Five▁": 2397,
      "van": 2398,
      "a▁bunch▁of▁": 2399,
      "waves▁": 2400,
      "like▁a▁": 2401,
      "in▁the▁air.": 2402,
      "ess": 2403,
      "group▁": 2404,
      "ing.▁": 2405,
      "sitting▁down▁": 2406,
      "ber": 2407,
      "shou": 2408,
      "pan▁": 2409,
      "frisbee": 2410,
      "clothing▁": 2411,
      "figh": 2412,
      "while▁holding▁a▁": 2413,
      "a▁large▁": 2414,
      "preparing▁to▁": 2415,
      "in▁a▁small▁": 2416,
      "tub▁": 2417,
      "PL": 2418,
      "vo": 2419,
      "pulling▁": 2420,
      "camera.": 2421,
      "brush▁": 2422,
      "strum": 2423,
      "skiers▁": 2424,
      "piec": 2425,
      "on▁a▁beach▁": 2426,
      "WITH▁": 2427,
      "pota": 2428,
      "In": 2429,
      "is▁on▁the▁": 2430,
      "Large▁": 2431,
      "▁and▁one▁": 2432,
      "holding▁up▁a▁": 2433,
      "outside▁.": 2434,
      "ese▁": 2435,
      "where▁": 2436,
      "by.": 2437,
      "far": 2438,
      "race▁": 2439,
      "A▁couple▁of▁people▁": 2440,
      "RE": 2441,
      "in▁a▁green▁": 2442,
      "in▁an▁a": 2443,
      "itten▁": 2444,
      "▁animal▁": 2445,
      "t▁and▁a▁": 2446,
      "A▁city▁": 2447,
      "A▁view▁of▁a▁": 2448,
      "rail▁": 2449,
      "moder": 2450,
      "flag": 2451,
      "keyboard▁": 2452,
      "stre": 2453,
      "performing▁a▁": 2454,
      "vegetables▁": 2455,
      "cap▁": 2456,
      "pep": 2457,
      "driving▁down▁a▁": 2458,
      "left▁": 2459,
      "ed▁by▁a▁": 2460,
      "traffic▁light▁": 2461,
      "sser": 2462,
      "hit▁the▁": 2463,
      "▁af": 2464,
      "spea": 2465,
      "sitting▁next▁to▁": 2466,
      "graffiti▁": 2467,
      "out▁of▁the▁": 2468,
      "AT▁": 2469,
      "photo▁of▁": 2470,
      "tie.": 2471,
      "intendo▁": 2472,
      "moving▁": 2473,
      "mountain.": 2474,
      "IT": 2475,
      "A▁male▁": 2476,
      "A▁female▁": 2477,
      "▁adult▁": 2478,
      "out▁a▁": 2479,
      "instrum": 2480,
      "having▁": 2481,
      "MA": 2482,
      "in▁the▁water▁": 2483,
      "showing▁": 2484,
      "living▁room.": 2485,
      "standing▁around▁": 2486,
      "A▁green▁": 2487,
      "station▁": 2488,
      "miling▁": 2489,
      "passing▁": 2490,
      "pple▁": 2491,
      "tomato": 2492,
      "ally▁": 2493,
      "ev": 2494,
      "house": 2495,
      "forma": 2496,
      "a▁group▁of▁": 2497,
      "prac": 2498,
      "le▁.": 2499,
      "are": 2500,
      "ents▁": 2501,
      "skate▁board▁": 2502,
      "forest.": 2503,
      "pede": 2504,
      "park▁.": 2505,
      "llow▁": 2506,
      "merican▁": 2507,
      "ppy▁": 2508,
      "kneel": 2509,
      "run▁": 2510,
      "pretty▁": 2511,
      "truck.": 2512,
      "pulling▁a▁": 2513,
      "zoo": 2514,
      "talk": 2515,
      "Black": 2516,
      "A▁man▁wearing▁": 2517,
      "deser": 2518,
      "light.": 2519,
      "tion": 2520,
      "man▁and▁": 2521,
      "A▁motorcycle▁": 2522,
      "takes▁a▁": 2523,
      "him.": 2524,
      "sits▁on▁the▁": 2525,
      "enjoying▁": 2526,
      "les▁and▁": 2527,
      "cart▁": 2528,
      "body▁of▁water.": 2529,
      "railroad▁": 2530,
      "chur": 2531,
      "on▁a▁table▁": 2532,
      "buses▁": 2533,
      "A▁group▁of▁young▁": 2534,
      "same▁": 2535,
      "ofess": 2536,
      ",▁with▁a▁": 2537,
      "having▁a▁": 2538,
      "case▁": 2539,
      "dding▁": 2540,
      "motorcycle.": 2541,
      "lay": 2542,
      "A▁young▁child▁": 2543,
      "trick": 2544,
      "outside.": 2545,
      "in▁the▁water.": 2546,
      "stea": 2547,
      "in▁a▁room.": 2548,
      "kitchen▁with▁a▁": 2549,
      "ll.": 2550,
      "umbrellas▁": 2551,
      "skir": 2552,
      "side▁by▁": 2553,
      "A▁woman▁wearing▁a▁": 2554,
      "near▁some▁": 2555,
      "crowded▁": 2556,
      "in▁a▁parking▁lo": 2557,
      "▁attached▁": 2558,
      "hat▁and▁": 2559,
      "swimming▁": 2560,
      "push": 2561,
      "Two▁giraffes▁": 2562,
      "leaning▁": 2563,
      "track.": 2564,
      "variety▁of▁": 2565,
      "cutting▁a▁": 2566,
      "grassy▁field.": 2567,
      "feat": 2568,
      "A▁laptop▁": 2569,
      "hotel▁": 2570,
      "huge▁": 2571,
      "couch.": 2572,
      "dirty▁": 2573,
      "slope▁": 2574,
      "cup▁": 2575,
      "A▁baseball▁": 2576,
      "watche": 2577,
      "leaves▁": 2578,
      "bread▁": 2579,
      "mounted▁": 2580,
      "Pers": 2581,
      "A▁woman▁with▁a▁": 2582,
      "city▁street.": 2583,
      "▁appear": 2584,
      "Y▁": 2585,
      "tarmac": 2586,
      "types▁of▁": 2587,
      "hard▁": 2588,
      "ramp▁": 2589,
      "bedroom▁": 2590,
      "RO": 2591,
      "A▁toilet▁": 2592,
      "putting▁": 2593,
      "d▁at▁a▁": 2594,
      "out▁the▁": 2595,
      "AND▁": 2596,
      "A▁man▁that▁is▁": 2597,
      "mouth.": 2598,
      "sting▁": 2599,
      "pick": 2600,
      "walking▁on▁a▁": 2601,
      "river.": 2602,
      "ated▁": 2603,
      "band▁": 2604,
      "on▁a▁skateboard▁": 2605,
      "suit▁and▁": 2606,
      "bed▁with▁": 2607,
      "fast▁": 2608,
      "shaped▁": 2609,
      "scar": 2610,
      "them▁.": 2611,
      "runway.": 2612,
      "dinner▁": 2613,
      "led": 2614,
      "als▁": 2615,
      "land": 2616,
      "standing▁next▁to▁each▁other▁": 2617,
      "ving▁a": 2618,
      "tro": 2619,
      "lamp": 2620,
      "in▁mid": 2621,
      "ump": 2622,
      "in▁a▁large▁": 2623,
      "desser": 2624,
      "reaching▁": 2625,
      "A▁B": 2626,
      "teen": 2627,
      "pool▁": 2628,
      "Three▁men▁": 2629,
      "gard": 2630,
      "scoo": 2631,
      "giant▁": 2632,
      "a▁cat▁": 2633,
      "train▁is▁": 2634,
      "man▁with▁a▁": 2635,
      "baseball▁game.": 2636,
      "outfit▁": 2637,
      "reading▁": 2638,
      "meat▁": 2639,
      "toward": 2640,
      "park▁bench▁": 2641,
      "skiing▁down▁a▁": 2642,
      "blue▁shirt▁": 2643,
      "bar▁": 2644,
      "Men▁": 2645,
      "a▁white▁": 2646,
      "place▁": 2647,
      "spec": 2648,
      "▁appli": 2649,
      "electron": 2650,
      "on▁its▁": 2651,
      "A▁woman▁with▁": 2652,
      "train.": 2653,
      "station.": 2654,
      ",▁while▁": 2655,
      "boy▁is▁": 2656,
      "A▁cat▁is▁": 2657,
      "ker▁": 2658,
      "standing▁by▁a▁": 2659,
      "cell▁phone": 2660,
      "modern▁": 2661,
      "ning▁": 2662,
      "A▁compu": 2663,
      "s,▁a▁": 2664,
      "flowers.": 2665,
      "bit": 2666,
      "foun": 2667,
      "sses▁": 2668,
      "fresh▁": 2669,
      "on▁a▁snowy▁": 2670,
      "plates▁of▁": 2671,
      "produ": 2672,
      "shopping▁": 2673,
      "horse.": 2674,
      "Child": 2675,
      "two▁men▁": 2676,
      "oven.": 2677,
      "line▁of▁": 2678,
      "standing▁near▁a▁": 2679,
      "tage▁": 2680,
      "cats▁": 2681,
      "Person▁": 2682,
      "rela": 2683,
      "pastu": 2684,
      "side▁of▁": 2685,
      "his▁ar": 2686,
      "stick▁": 2687,
      "Black▁and▁white▁": 2688,
      "s▁the▁": 2689,
      "ers▁.": 2690,
      "dry▁": 2691,
      "a▁group▁of▁people▁": 2692,
      "backpack▁": 2693,
      "The▁young▁": 2694,
      "oo▁": 2695,
      "use": 2696,
      "walking▁across▁a▁": 2697,
      "rocky▁": 2698,
      "s▁of▁a▁": 2699,
      "tive▁": 2700,
      "dev": 2701,
      "yellow▁and▁": 2702,
      "A▁street▁sign▁": 2703,
      "youn": 2704,
      "living▁room": 2705,
      "wing▁": 2706,
      "riding▁on▁the▁": 2707,
      "school▁": 2708,
      "d▁.": 2709,
      "in▁the▁ocean.": 2710,
      "ofessional▁": 2711,
      "Childre": 2712,
      "▁and▁a▁woman▁": 2713,
      "donuts▁": 2714,
      "in▁the▁middle▁of▁the▁": 2715,
      "toddler▁": 2716,
      "stret": 2717,
      "player": 2718,
      "cap": 2719,
      "signs▁": 2720,
      "lls▁": 2721,
      "parked▁a": 2722,
      "house.": 2723,
      "furniture": 2724,
      "street▁with▁a▁": 2725,
      "town▁": 2726,
      "rea.": 2727,
      "lined▁up▁": 2728,
      "hot▁dog": 2729,
      "ance": 2730,
      "A▁smiling▁": 2731,
      "ristmas▁": 2732,
      "bed▁with▁a▁": 2733,
      "under▁an▁": 2734,
      "cup▁of▁": 2735,
      "up.": 2736,
      "frid": 2737,
      "ded▁a": 2738,
      "f.": 2739,
      "A▁skier▁": 2740,
      "▁al": 2741,
      "pole": 2742,
      "someth": 2743,
      "painting▁": 2744,
      "A▁vase▁": 2745,
      "in▁a▁field": 2746,
      "in▁the▁grass▁": 2747,
      "eat▁": 2748,
      "end▁": 2749,
      "with▁one▁": 2750,
      "skis.": 2751,
      "kick": 2752,
      "not▁": 2753,
      "TV▁": 2754,
      "style▁": 2755,
      "stick": 2756,
      "A▁dog▁is▁": 2757,
      "oven": 2758,
      "remote▁contro": 2759,
      "dle": 2760,
      "brown▁dog▁": 2761,
      "grazing▁in▁a▁": 2762,
      "verti": 2763,
      "ssi": 2764,
      "mess": 2765,
      "cir": 2766,
      "vin": 2767,
      "in▁it": 2768,
      "through▁the▁air▁": 2769,
      "tank▁": 2770,
      "2▁": 2771,
      "him▁": 2772,
      "vegetables.": 2773,
      "shelf▁": 2774,
      "ON▁THE▁": 2775,
      "who▁are▁": 2776,
      "A▁boat▁": 2777,
      "itary▁": 2778,
      "with▁white▁": 2779,
      "wedding▁": 2780,
      "standing▁around▁a▁": 2781,
      "ish": 2782,
      "▁and▁another▁": 2783,
      "to▁be▁": 2784,
      "list▁": 2785,
      "topped▁": 2786,
      "blond▁": 2787,
      "short▁": 2788,
      "LO": 2789,
      "The▁two▁": 2790,
      "road▁.": 2791,
      "coat": 2792,
      "goo": 2793,
      "tle▁": 2794,
      "ing▁down▁a▁": 2795,
      "tenni": 2796,
      "riding▁skis▁": 2797,
      "workers▁": 2798,
      "sticking▁": 2799,
      "clothes▁": 2800,
      "edge▁of▁a▁": 2801,
      "table▁and▁": 2802,
      "gathered▁": 2803,
      "lic": 2804,
      "man▁wearing▁a▁": 2805,
      "hal": 2806,
      "women": 2807,
      "tor▁": 2808,
      "runs▁": 2809,
      "A▁tall▁": 2810,
      "cement▁": 2811,
      "laying▁on▁the▁": 2812,
      "▁above▁a▁": 2813,
      "tte▁": 2814,
      "off▁the▁": 2815,
      "working▁on▁a▁": 2816,
      "sted▁": 2817,
      "day▁.": 2818,
      "gr": 2819,
      "ction.": 2820,
      "set▁of▁": 2821,
      "chairs▁": 2822,
      "AT": 2823,
      "A▁big▁": 2824,
      "next▁to▁some▁": 2825,
      "flag▁": 2826,
      "▁and▁the▁": 2827,
      "Nintendo▁": 2828,
      "lm▁": 2829,
      "zoo▁": 2830,
      "head.": 2831,
      "covered▁with▁": 2832,
      "om▁": 2833,
      "teeth▁": 2834,
      "a▁big▁": 2835,
      "Two▁dogs▁": 2836,
      "gent": 2837,
      "a▁number▁of▁": 2838,
      "grazing▁": 2839,
      "pole.": 2840,
      "pedestri": 2841,
      "bove▁": 2842,
      "topping": 2843,
      "blow": 2844,
      "body▁of▁water▁": 2845,
      "potato": 2846,
      "ing▁her▁": 2847,
      "There▁": 2848,
      "lif": 2849,
      "traffic": 2850,
      "beach▁.": 2851,
      "egg": 2852,
      "on▁a▁plate.": 2853,
      "face": 2854,
      "view▁of▁": 2855,
      "vest": 2856,
      "ST": 2857,
      "ckey▁": 2858,
      "pow": 2859,
      "A▁computer▁": 2860,
      "pping▁": 2861,
      "engine▁": 2862,
      "bottle▁of▁": 2863,
      "guitar": 2864,
      "practic": 2865,
      "fra": 2866,
      "A▁sign▁": 2867,
      "base▁": 2868,
      "vy▁": 2869,
      "A▁few▁": 2870,
      "on.▁": 2871,
      "balan": 2872,
      "tter": 2873,
      "picture.": 2874,
      "microwave▁": 2875,
      "st▁the▁": 2876,
      "bow▁": 2877,
      "table.▁": 2878,
      "forest▁": 2879,
      "pitcher▁": 2880,
      "Two▁children▁": 2881,
      "fix": 2882,
      "knife▁": 2883,
      "nch▁": 2884,
      "tennis▁ball": 2885,
      "pizza▁with▁": 2886,
      "street.▁": 2887,
      "▁appears▁to▁": 2888,
      "divid": 2889,
      "jean": 2890,
      "writ": 2891,
      "stands▁on▁a▁": 2892,
      "platform": 2893,
      "ment▁of▁": 2894,
      "pieces▁of▁": 2895,
      "sitting▁in▁": 2896,
      "it▁.": 2897,
      "shoes▁": 2898,
      "enclosure.": 2899,
      "sits▁in▁a▁": 2900,
      "parking▁meter▁": 2901,
      "towards▁a▁": 2902,
      "blue▁sky.": 2903,
      "field▁of▁": 2904,
      "A▁crowd▁of▁people▁": 2905,
      "next▁to▁an▁": 2906,
      "Stree": 2907,
      "between▁two▁": 2908,
      "kers▁": 2909,
      "que▁": 2910,
      "American▁": 2911,
      "low": 2912,
      "ate": 2913,
      "conver": 2914,
      "sink,▁": 2915,
      "skate▁board": 2916,
      "up▁the▁": 2917,
      "prepares▁to▁": 2918,
      "bird": 2919,
      "urin": 2920,
      "hat▁is▁": 2921,
      "flat▁": 2922,
      "▁an▁airport▁": 2923,
      "low▁": 2924,
      "pea": 2925,
      "ballo": 2926,
      "jet": 2927,
      "standing▁and▁": 2928,
      "mouth": 2929,
      "prote": 2930,
      "in▁an▁open▁": 2931,
      "catching▁a▁": 2932,
      "ned▁": 2933,
      "site▁": 2934,
      "in▁the▁distan": 2935,
      "items▁": 2936,
      "shirtless▁": 2937,
      "wearing▁a▁red▁": 2938,
      "sitting▁around▁a▁": 2939,
      "on▁a▁street▁": 2940,
      "read": 2941,
      "so▁": 2942,
      "wash": 2943,
      "while▁the▁": 2944,
      "multiple▁": 2945,
      "ddle▁": 2946,
      "in▁the▁wood": 2947,
      "vest▁": 2948,
      "towards▁the▁": 2949,
      "L▁": 2950,
      "A▁family▁": 2951,
      "by▁some▁": 2952,
      "shin": 2953,
      "to▁his▁": 2954,
      "age": 2955,
      "fenced▁": 2956,
      "professional▁": 2957,
      "should": 2958,
      "A▁f": 2959,
      "man▁in▁": 2960,
      "a▁man▁is▁": 2961,
      "door.": 2962,
      "wheel": 2963,
      "pepper": 2964,
      "plates▁": 2965,
      "little▁boy▁": 2966,
      "vehicle▁": 2967,
      "with▁a▁white▁": 2968,
      "ioned▁": 2969,
      "coll": 2970,
      "says▁": 2971,
      "polar▁": 2972,
      "pool▁.": 2973,
      "A▁plane▁": 2974,
      "place": 2975,
      "well▁": 2976,
      "s▁are": 2977,
      "ent▁.": 2978,
      "view": 2979,
      "A▁fire▁hydrant▁": 2980,
      "surf▁board": 2981,
      "too": 2982,
      "ur▁": 2983,
      "clock▁tow": 2984,
      "s▁around▁": 2985,
      "laying▁on▁top▁of▁a▁": 2986,
      "merci": 2987,
      "leather▁": 2988,
      "jacket▁and▁": 2989,
      "nic▁": 2990,
      "ton": 2991,
      "Two▁girls▁": 2992,
      "A▁row▁of▁": 2993,
      "IS▁A▁": 2994,
      "▁ac": 2995,
      "a▁dog▁": 2996,
      "dogs▁are▁": 2997,
      "stor": 2998,
      "A▁brown": 2999,
      "in▁the▁water": 3000,
      "flies▁": 3001,
      "compet": 3002,
      "playing▁the▁": 3003,
      "band": 3004,
      "An▁elderly▁": 3005,
      "riding▁a▁skateboard▁": 3006,
      "sou": 3007,
      "gy": 3008,
      "are▁": 3009,
      "get▁": 3010,
      "A▁cow▁": 3011,
      "baseball.": 3012,
      "umbrellas.": 3013,
      "field▁with▁": 3014,
      "rang": 3015,
      "A▁bat": 3016,
      "luggage.": 3017,
      "mix": 3018,
      "tennis▁ball.": 3019,
      "is▁about▁to▁": 3020,
      "snow▁covered▁slope.": 3021,
      "on▁the▁beach.": 3022,
      "steel▁": 3023,
      "taken▁": 3024,
      "ing▁around▁": 3025,
      "A▁small▁child▁": 3026,
      "neck▁": 3027,
      "▁as▁the▁": 3028,
      "ure": 3029,
      "lley": 3030,
      "cellphone▁": 3031,
      "botto": 3032,
      "Gir": 3033,
      "A▁snowboarder▁": 3034,
      "erse": 3035,
      "A▁woman▁in▁": 3036,
      "buildings▁": 3037,
      "in▁the▁sky.": 3038,
      "baseball▁bat▁": 3039,
      "seated▁": 3040,
      "keyboard.": 3041,
      "curtain": 3042,
      "ial▁": 3043,
      "ment.": 3044,
      "stain": 3045,
      "batter▁": 3046,
      "break": 3047,
      "▁along▁a▁": 3048,
      "playing▁soccer▁": 3049,
      "ground▁.": 3050,
      "jerse": 3051,
      "vintage▁": 3052,
      "A▁teddy▁bear▁": 3053,
      "serving▁": 3054,
      "A▁truck▁": 3055,
      "cream▁": 3056,
      "sty▁": 3057,
      "tile▁": 3058,
      "A▁long▁": 3059,
      "white▁shirt▁": 3060,
      "military▁": 3061,
      "A▁man▁in▁a▁black▁": 3062,
      "fin": 3063,
      "urry▁": 3064,
      "gaz": 3065,
      "fall": 3066,
      "spr": 3067,
      "laptop▁computer.": 3068,
      "ely▁": 3069,
      "suitcase": 3070,
      "take▁": 3071,
      "CH": 3072,
      "in▁this▁": 3073,
      "what▁": 3074,
      "gentle": 3075,
      "underneath▁a▁": 3076,
      "dock▁": 3077,
      "A▁bed▁": 3078,
      "foot▁": 3079,
      "store": 3080,
      "▁attemp": 3081,
      "in▁an▁orange▁": 3082,
      "plaid▁": 3083,
      "bears▁": 3084,
      "on▁top▁of▁it.": 3085,
      "t-shirt▁": 3086,
      "shop▁": 3087,
      "type▁": 3088,
      "post▁": 3089,
      "girls▁are▁": 3090,
      "Do": 3091,
      "fish▁": 3092,
      "sitting▁and▁": 3093,
      "ctive▁": 3094,
      "lawn▁": 3095,
      "shirts▁": 3096,
      "ts,▁": 3097,
      "fish": 3098,
      "Christmas▁": 3099,
      "ves.": 3100,
      "vases▁": 3101,
      "ban▁": 3102,
      "to▁catch▁a▁": 3103,
      "restaurant.": 3104,
      "on▁a▁field.": 3105,
      "lake.": 3106,
      "A▁blond▁": 3107,
      "ing▁an▁a": 3108,
      "cute▁": 3109,
      "giraffes▁are▁": 3110,
      "rocks▁": 3111,
      "dien": 3112,
      ",▁are▁": 3113,
      "▁area▁with▁": 3114,
      "dark": 3115,
      "close": 3116,
      "back.": 3117,
      "building▁with▁": 3118,
      "mouth▁.": 3119,
      "yar": 3120,
      "on▁the▁street▁": 3121,
      "RA": 3122,
      "ts▁a▁": 3123,
      "with▁a▁blue▁": 3124,
      "land▁": 3125,
      "carriage▁": 3126,
      "church▁": 3127,
      "tin": 3128,
      "is▁flying▁": 3129,
      "Two▁zebras▁": 3130,
      "broccoli▁and▁": 3131,
      "held▁": 3132,
      "A▁white▁plate▁": 3133,
      "bananas.": 3134,
      "relax": 3135,
      "woman▁in▁a▁": 3136,
      "An▁Asian▁": 3137,
      "lush▁green▁field.": 3138,
      "in▁a": 3139,
      "selling▁": 3140,
      "going▁down▁a▁": 3141,
      "ya": 3142,
      "strea": 3143,
      "some▁people▁": 3144,
      "field.▁": 3145,
      "dresse": 3146,
      "t▁is▁": 3147,
      "MAN▁": 3148,
      "cig": 3149,
      "A▁kid▁": 3150,
      "vase": 3151,
      "mong▁": 3152,
      "lays▁": 3153,
      "ance▁": 3154,
      "dies▁": 3155,
      "stud": 3156,
      "with▁an▁a": 3157,
      "playing▁with▁": 3158,
      "city▁street▁": 3159,
      "ac": 3160,
      "le▁and▁": 3161,
      "mouse▁": 3162,
      "A▁boy▁is▁": 3163,
      "lid": 3164,
      "s▁on▁it.": 3165,
      "stoppe": 3166,
      "toothbrush": 3167,
      "eaten▁": 3168,
      "pres": 3169,
      "television": 3170,
      "photograph▁of▁a▁": 3171,
      "culp": 3172,
      "A▁piece▁of▁": 3173,
      "sett": 3174,
      "mode": 3175,
      "plate▁of▁food▁": 3176,
      "corner▁of▁a▁": 3177,
      "bowl.": 3178,
      "▁at▁night.": 3179,
      "onion": 3180,
      "of▁food▁": 3181,
      "cake▁with▁": 3182,
      "pati": 3183,
      "air▁": 3184,
      "ceil": 3185,
      "by▁.": 3186,
      "walking▁in▁the▁": 3187,
      "bus▁is▁": 3188,
      "ted▁with▁": 3189,
      "A▁beautiful▁": 3190,
      "show▁": 3191,
      "gold▁": 3192,
      "body▁of▁water": 3193,
      "A▁car▁": 3194,
      "drawn▁": 3195,
      "Clo": 3196,
      "HO": 3197,
      "in▁some▁": 3198,
      "lined▁": 3199,
      "spra": 3200,
      "fig": 3201,
      "news": 3202,
      "reads▁": 3203,
      "fly▁": 3204,
      "top▁a▁": 3205,
      "green▁and▁": 3206,
      "music▁": 3207,
      "Mo": 3208,
      "ep▁": 3209,
      "in▁a▁kitchen▁": 3210,
      "tted▁": 3211,
      "shore▁": 3212,
      "performing▁": 3213,
      "fully▁": 3214,
      "up▁and▁": 3215,
      "image▁of▁": 3216,
      "Two": 3217,
      "past▁": 3218,
      "meat▁and▁": 3219,
      "turn▁": 3220,
      "trash▁": 3221,
      "trail▁": 3222,
      "rug": 3223,
      "police▁offic": 3224,
      "gets▁": 3225,
      "market▁": 3226,
      "lap▁": 3227,
      "fork": 3228,
      "A▁close": 3229,
      "machin": 3230,
      "hold▁": 3231,
      "colle": 3232,
      "winter▁": 3233,
      "ster▁": 3234,
      "game▁.": 3235,
      "dult▁": 3236,
      "A▁close▁up▁of▁a▁": 3237,
      "Afr": 3238,
      "toast": 3239,
      "on▁it.▁": 3240,
      "television.": 3241,
      "tat": 3242,
      "ting▁to▁": 3243,
      "elephant.": 3244,
      "ssort": 3245,
      "in▁the▁grass.": 3246,
      "rider▁": 3247,
      "pizza▁on▁a▁": 3248,
      "bottle▁": 3249,
      "toilet▁and▁a▁": 3250,
      "fash": 3251,
      "runway▁": 3252,
      "toward▁": 3253,
      "bowls▁": 3254,
      "rope▁": 3255,
      "man▁with▁": 3256,
      "bever": 3257,
      "wet": 3258,
      "cooked▁": 3259,
      "dividu": 3260,
      "e▁a▁": 3261,
      "nar": 3262,
      "tes▁": 3263,
      "tennis▁racket.": 3264,
      "▁arm": 3265,
      "toilet,▁": 3266,
      "An▁orange▁": 3267,
      "parked▁in▁a▁": 3268,
      "A▁white▁toilet▁": 3269,
      "business▁": 3270,
      "mask": 3271,
      "hands.": 3272,
      "reflection▁": 3273,
      "A▁sandwich▁": 3274,
      "stacked▁": 3275,
      "is▁an▁": 3276,
      "train▁station.": 3277,
      "tennis.": 3278,
      "wire▁": 3279,
      "next▁to▁each▁other▁": 3280,
      "electric▁": 3281,
      "▁at▁a▁table▁": 3282,
      "check": 3283,
      "driving▁down▁the▁": 3284,
      "baseball▁players▁": 3285,
      "even": 3286,
      "▁again": 3287,
      "is▁holding▁": 3288,
      "in▁front▁of▁an▁": 3289,
      "picnic▁": 3290,
      "this▁is▁a▁": 3291,
      "Frisbee.": 3292,
      "t,▁": 3293,
      "A▁black▁cat▁": 3294,
      "food▁and▁": 3295,
      "enti": 3296,
      "tator": 3297,
      "ll▁.": 3298,
      "worker▁": 3299,
      "way▁.": 3300,
      "eyes▁": 3301,
      "topped▁with▁a▁": 3302,
      "clock.": 3303,
      "Children▁": 3304,
      "the▁air": 3305,
      "walking▁through▁a▁": 3306,
      "ery▁": 3307,
      "benches▁": 3308,
      "A▁black▁dog▁": 3309,
      "A▁man▁riding▁a▁skateboard▁": 3310,
      "ARE▁": 3311,
      "Little▁": 3312,
      "gue▁": 3313,
      "ssortment▁of▁": 3314,
      "with▁another▁": 3315,
      "fire▁hydrant.": 3316,
      "boat.": 3317,
      "blon": 3318,
      "posit": 3319,
      "while▁holding▁": 3320,
      "stage▁.": 3321,
      "cigare": 3322,
      "home": 3323,
      "enter": 3324,
      "▁along▁": 3325,
      "A▁S": 3326,
      "toy": 3327,
      "station": 3328,
      "with▁lots▁of▁": 3329,
      "in▁the▁snow": 3330,
      "salad▁": 3331,
      "background.": 3332,
      "A▁plate▁of▁food▁": 3333,
      "am": 3334,
      "on▁the▁street.": 3335,
      "sitting▁on▁a▁couch▁": 3336,
      "crowd▁.": 3337,
      "guitar▁.": 3338,
      "of▁an▁a": 3339,
      "lett": 3340,
      "sna": 3341,
      "runway": 3342,
      "running▁a": 3343,
      "gathered": 3344,
      "orn": 3345,
      "drum": 3346,
      "parked▁next▁to▁a▁": 3347,
      "in▁the▁middle▁of▁": 3348,
      "side▁by▁side▁": 3349,
      "▁appliance": 3350,
      "p.": 3351,
      "with▁red▁": 3352,
      "past": 3353,
      "black▁dog▁": 3354,
      "Wh": 3355,
      "er.▁": 3356,
      "other▁people▁": 3357,
      "travel": 3358,
      "going▁down▁the▁": 3359,
      "wooded▁a": 3360,
      "ds▁of▁": 3361,
      "lies▁": 3362,
      "zebras▁are▁": 3363,
      "watches▁": 3364,
      "filled▁with▁lots▁of▁": 3365,
      "cheese": 3366,
      "on▁the▁sidewalk▁": 3367,
      "baseball": 3368,
      "grass▁covered▁": 3369,
      "boys▁are▁": 3370,
      "A▁person▁holding▁a▁": 3371,
      "city▁.": 3372,
      "microwave": 3373,
      "ka": 3374,
      "stun": 3375,
      "chop": 3376,
      "living▁room▁with▁a▁": 3377,
      "a▁person▁riding▁a▁": 3378,
      "in▁a▁kitchen.": 3379,
      "▁animal": 3380,
      "tree▁.": 3381,
      "stopped▁": 3382,
      "center▁": 3383,
      "a▁train▁": 3384,
      "including▁": 3385,
      "costume▁": 3386,
      "▁across▁a▁": 3387,
      "A▁m": 3388,
      "that▁says▁": 3389,
      "sitting▁on▁a▁table.": 3390,
      "crowd▁of▁people▁": 3391,
      "off▁of▁a▁": 3392,
      "containing▁": 3393,
      "brown▁and▁white▁": 3394,
      "3▁": 3395,
      "in▁a▁grassy▁": 3396,
      "cele": 3397,
      "suits▁": 3398,
      "A▁young▁man▁is▁": 3399,
      "direction": 3400,
      "urban▁": 3401,
      "luggage": 3402,
      "snow▁.": 3403,
      "liner▁": 3404,
      "glasses▁and▁a▁": 3405,
      "wii▁": 3406,
      "in▁a▁pink▁": 3407,
      "on▁the▁beach": 3408,
      "ies.": 3409,
      "tub.": 3410,
      "sy": 3411,
      "van▁": 3412,
      "individu": 3413,
      "does▁a▁": 3414,
      "An▁empty▁": 3415,
      "scissors▁": 3416,
      "udien": 3417,
      "ons▁": 3418,
      "lled▁": 3419,
      "ture": 3420,
      "store.": 3421,
      "shows▁": 3422,
      "▁as▁they▁": 3423,
      "crossing▁a▁": 3424,
      "ering▁": 3425,
      "shar": 3426,
      "room▁.": 3427,
      "sofa": 3428,
      "berri": 3429,
      "tch": 3430,
      "carpe": 3431,
      "five▁": 3432,
      "inside▁of▁": 3433,
      "on▁a▁street.": 3434,
      "A▁man▁standing▁": 3435,
      "shot▁of▁a▁": 3436,
      "branch▁": 3437,
      "WO": 3438,
      "in.": 3439,
      "with▁trees▁": 3440,
      "clean▁": 3441,
      "teddy▁bear.": 3442,
      "own▁": 3443,
      "ER▁": 3444,
      "AL": 3445,
      "A▁passenger▁": 3446,
      "on▁a▁dirt▁": 3447,
      "wine.": 3448,
      "grass▁field.": 3449,
      "cook": 3450,
      "bicycle": 3451,
      "hand▁.": 3452,
      "refrigerator.": 3453,
      "sculp": 3454,
      "rope": 3455,
      "standing▁together▁": 3456,
      "trees▁and▁": 3457,
      "tricks▁": 3458,
      "A▁couple▁of▁men▁": 3459,
      "▁and▁a▁man▁": 3460,
      "parti": 3461,
      "party▁": 3462,
      "her▁.": 3463,
      "face.": 3464,
      "drives▁": 3465,
      "▁an▁airport.": 3466,
      "ment▁.": 3467,
      "wearing▁a▁blue▁": 3468,
      "very▁large▁": 3469,
      "under▁the▁": 3470,
      "s▁another▁": 3471,
      "wild": 3472,
      "Gi": 3473,
      "enger": 3474,
      "righ": 3475,
      "pave": 3476,
      "ven▁": 3477,
      "buse": 3478,
      "flock▁of▁": 3479,
      "store▁.": 3480,
      "polar▁bear▁": 3481,
      "la▁": 3482,
      "in▁the▁ocean▁": 3483,
      "follow": 3484,
      "draw": 3485,
      "▁after▁": 3486,
      "A▁bear▁": 3487,
      "An▁open▁": 3488,
      "stop▁sign": 3489,
      "sweater▁": 3490,
      "on▁a▁skateboard.": 3491,
      "t▁at▁a▁": 3492,
      "soccer▁ball▁": 3493,
      "knife": 3494,
      "fun": 3495,
      "you": 3496,
      "s▁while▁": 3497,
      "upside▁": 3498,
      "video▁game": 3499,
      "building.▁": 3500,
      "different▁types▁of▁": 3501,
      "fashioned▁": 3502,
      "together▁.": 3503,
      "there▁": 3504,
      "fold": 3505,
      "two": 3506,
      "A▁ba": 3507,
      "s▁at": 3508,
      "ici": 3509,
      "supp": 3510,
      "A▁room▁": 3511,
      "on▁the▁floor▁": 3512,
      "jacket▁is▁": 3513,
      "on▁display▁": 3514,
      "in▁the▁fore": 3515,
      "table▁.": 3516,
      "curb▁": 3517,
      "fruits▁and▁": 3518,
      "grass▁and▁": 3519,
      "ssorted▁": 3520,
      "bedroom▁with▁a▁": 3521,
      "ing▁another▁": 3522,
      "wide▁": 3523,
      "girl▁is▁": 3524,
      "muse": 3525,
      "range": 3526,
      "tv▁": 3527,
      "fountain▁": 3528,
      "Car": 3529,
      "oranges▁": 3530,
      "cattle▁": 3531,
      "brigh": 3532,
      "racquet.": 3533,
      "below": 3534,
      "White▁": 3535,
      "te.": 3536,
      "young▁boy▁": 3537,
      "steps▁": 3538,
      "one▁another▁": 3539,
      "es,▁": 3540,
      "a▁.": 3541,
      "A▁ben": 3542,
      "prin": 3543,
      "A▁white▁and▁": 3544,
      "skateboarding▁": 3545,
      "enjoying▁a▁": 3546,
      "sleeping▁on▁a▁": 3547,
      "A▁brown▁dog▁": 3548,
      "La": 3549,
      "beer▁": 3550,
      "wooden▁table.": 3551,
      "OU": 3552,
      "A▁bicyc": 3553,
      "sitting▁in▁a▁chair▁": 3554,
      "passenger": 3555,
      "A▁lone▁": 3556,
      "roof▁": 3557,
      "boarder▁": 3558,
      "waiting▁to▁": 3559,
      "stainless▁": 3560,
      "fing": 3561,
      "hear": 3562,
      "crowd▁of▁": 3563,
      "mes▁": 3564,
      "wine": 3565,
      "wearing▁a▁black▁": 3566,
      "riding▁a▁wave▁": 3567,
      "Man▁in▁": 3568,
      "during▁": 3569,
      "donut▁": 3570,
      "step": 3571,
      "blen": 3572,
      "Street▁": 3573,
      "A▁man▁in▁a▁blue▁": 3574,
      "▁area▁.": 3575,
      "screen": 3576,
      "Nintendo▁Wii▁": 3577,
      "key▁": 3578,
      "riding▁his▁": 3579,
      "kind▁of▁": 3580,
      "dy": 3581,
      "in▁a▁yellow▁": 3582,
      "vel▁": 3583,
      "ttered▁": 3584,
      "towel▁": 3585,
      "P▁": 3586,
      "dirt.": 3587,
      "single▁": 3588,
      "of▁them▁": 3589,
      "neck": 3590,
      "fork▁": 3591,
      "platform▁": 3592,
      "ancy▁": 3593,
      "stuffed▁animal▁": 3594,
      "K▁": 3595,
      "pink": 3596,
      "served▁": 3597,
      "vend": 3598,
      "LE": 3599,
      "of▁a": 3600,
      "ladies▁": 3601,
      "stuffed▁animal": 3602,
      "zoo.": 3603,
      "snowboard.": 3604,
      "A▁man▁in▁a▁red▁": 3605,
      "electronic▁": 3606,
      "A▁man▁stands▁": 3607,
      "The": 3608,
      "fishing▁": 3609,
      "▁adults▁": 3610,
      "volley": 3611,
      "narrow▁": 3612,
      "age.": 3613,
      "hee": 3614,
      "pour": 3615,
      "ed▁and▁": 3616,
      "feet▁": 3617,
      "into▁the▁air▁": 3618,
      "leaning▁a": 3619,
      "of▁an": 3620,
      "Var": 3621,
      "plant▁": 3622,
      "trucks▁": 3623,
      "competiti": 3624,
      "life▁": 3625,
      "young▁girl▁": 3626,
      "tter▁": 3627,
      "surfing▁": 3628,
      "safe": 3629,
      "ction▁of▁": 3630,
      "A▁girl▁is▁": 3631,
      "microphone▁": 3632,
      "match▁": 3633,
      "spla": 3634,
      "s▁his▁": 3635,
      "equipment▁": 3636,
      "Zebra": 3637,
      "free": 3638,
      "les": 3639,
      "ed▁to▁": 3640,
      "on▁a▁city▁street.": 3641,
      "corner.": 3642,
      "A▁bowl▁of▁": 3643,
      "dit": 3644,
      "kitten▁": 3645,
      "person▁is▁": 3646,
      "guy": 3647,
      "field▁with▁a▁": 3648,
      "box.": 3649,
      "sprink": 3650,
      "cru": 3651,
      "des▁": 3652,
      "char": 3653,
      "len": 3654,
      "background": 3655,
      "french▁": 3656,
      "garden▁": 3657,
      "standing▁at▁a▁": 3658,
      "stadi": 3659,
      "sized▁": 3660,
      "night▁": 3661,
      "in▁front▁of▁a▁large▁": 3662,
      "bridge.": 3663,
      "The▁woman▁is▁": 3664,
      "commerci": 3665,
      "car▁.": 3666,
      "monitor▁": 3667,
      "bottom▁": 3668,
      "dig": 3669,
      "walking▁around▁": 3670,
      "structure▁": 3671,
      "Wom": 3672,
      "er▁and▁a▁": 3673,
      "bove▁a▁": 3674,
      "palm▁": 3675,
      "crou": 3676,
      "showing▁a▁": 3677,
      "blanket▁": 3678,
      "sink▁and▁a▁": 3679,
      "behind▁the▁": 3680,
      "head▁.": 3681,
      "oni": 3682,
      "rest▁": 3683,
      "in▁a▁park.": 3684,
      "on▁top▁of▁the▁": 3685,
      "team": 3686,
      "loun": 3687,
      "ers▁and▁": 3688,
      "middle": 3689,
      "walking▁along▁a▁": 3690,
      "vegetables▁and▁": 3691,
      "ed.": 3692,
      "class": 3693,
      "bat▁at▁a▁": 3694,
      "holding▁an▁umbrella▁": 3695,
      "posing▁for▁a▁picture▁": 3696,
      "The▁woman▁": 3697,
      "benea": 3698,
      "bike▁.": 3699,
      "PE": 3700,
      "dock": 3701,
      "OM": 3702,
      "waits▁": 3703,
      "parked▁on▁a▁": 3704,
      "sleep▁": 3705,
      "feeding▁": 3706,
      "A▁kitchen▁with▁a▁": 3707,
      "climbing▁": 3708,
      "dian▁": 3709,
      "cliff": 3710,
      "shirt▁and▁a▁": 3711,
      "a▁black▁": 3712,
      "court▁": 3713,
      "▁as▁she▁": 3714,
      "Girl▁": 3715,
      "pig": 3716,
      "take▁a▁": 3717,
      "deep▁": 3718,
      "Two▁men▁in▁": 3719,
      "Wii": 3720,
      "in▁the▁snow▁.": 3721,
      "IN▁THE▁": 3722,
      "feature": 3723,
      "bur": 3724,
      "man.": 3725,
      "bicycles▁": 3726,
      "I▁": 3727,
      "A▁cu": 3728,
      "Giraff": 3729,
      "cted▁": 3730,
      "▁across▁the▁": 3731,
      "onlook": 3732,
      "baseball▁game▁": 3733,
      "phones▁": 3734,
      "cowboy▁": 3735,
      "sitting▁at▁": 3736,
      "There▁are▁two▁": 3737,
      "spectator": 3738,
      "pin": 3739,
      "anan": 3740,
      "gold": 3741,
      "catch▁": 3742,
      "sunse": 3743,
      "players▁are▁": 3744,
      "some▁sor": 3745,
      "lying▁on▁a▁": 3746,
      "controller.": 3747,
      "sandwich▁and▁": 3748,
      "a▁baseball▁player▁": 3749,
      "computers▁": 3750,
      "celebra": 3751,
      "dro": 3752,
      "A▁women▁": 3753,
      "stroll": 3754,
      "with▁blue▁": 3755,
      "shirt▁,▁": 3756,
      "safety▁": 3757,
      "Gu": 3758,
      "A▁picture▁of▁": 3759,
      "walks▁a": 3760,
      "glass": 3761,
      "ter▁a▁": 3762,
      "mountains▁": 3763,
      "with▁an▁umbrella▁": 3764,
      "on▁it's▁": 3765,
      "intersection.": 3766,
      "parade▁": 3767,
      "sports▁": 3768,
      "listen": 3769,
      "kneeling▁": 3770,
      "A▁C": 3771,
      "ladd": 3772,
      "in▁a▁park▁": 3773,
      "bean": 3774,
      "racing▁": 3775,
      "A▁bench▁": 3776,
      "val▁": 3777,
      "thing": 3778,
      "A▁hand▁": 3779,
      "standing▁outside▁": 3780,
      "jumping▁in▁the▁air▁": 3781,
      "enclosure▁": 3782,
      "A▁pile▁of▁": 3783,
      "the▁airpor": 3784,
      "shows▁a▁": 3785,
      "flying▁through▁the▁air▁": 3786,
      "Ma": 3787,
      "was▁": 3788,
      "laptop▁computer▁": 3789,
      "toothbrush▁": 3790,
      "paper.": 3791,
      "THERE▁IS▁A▁": 3792,
      "with▁a▁clock▁": 3793,
      "cakes▁": 3794,
      "cars.": 3795,
      "clothe": 3796,
      "playing▁baseball▁": 3797,
      "curb": 3798,
      "game▁of▁": 3799,
      "et▁": 3800,
      "in▁a▁bathroom.": 3801,
      "A▁man▁standing▁on▁a▁": 3802,
      "se▁.": 3803,
      "parked▁in▁front▁of▁a▁": 3804,
      "has▁been▁": 3805,
      "down▁the▁street▁": 3806,
      "range▁": 3807,
      "doughnuts▁": 3808,
      "messy▁": 3809,
      "IR": 3810,
      "resid": 3811,
      "A▁person▁that▁is▁": 3812,
      "decorated▁with▁": 3813,
      "basket▁": 3814,
      "slices▁of▁": 3815,
      "partially▁": 3816,
      "al.": 3817,
      "the▁ball▁": 3818,
      "wea": 3819,
      "A▁sing": 3820,
      "DING▁": 3821,
      "Si": 3822,
      "on▁a▁tennis▁court.": 3823,
      "pack": 3824,
      "in▁front▁of▁some▁": 3825,
      "ming▁": 3826,
      "race▁.": 3827,
      "with▁three▁": 3828,
      "train▁traveling▁": 3829,
      "overlook": 3830,
      "is▁sitting▁on▁the▁": 3831,
      "riding▁the▁": 3832,
      "friends▁": 3833,
      "behind▁it.": 3834,
      "suitcase.": 3835,
      "new▁": 3836,
      "uniforms▁": 3837,
      "scarf▁": 3838,
      "on▁display": 3839,
      "up▁on▁a▁": 3840,
      "down.": 3841,
      "stove.": 3842,
      "sliced▁": 3843,
      "in▁the▁sky": 3844,
      "Two▁boys▁": 3845,
      "holding▁his▁": 3846,
      "microphone▁.": 3847,
      "remote": 3848,
      "wearing▁a▁white▁": 3849,
      "desktop▁": 3850,
      "Two▁women▁are▁": 3851,
      "A▁person▁with▁a▁": 3852,
      "riding▁a▁horse▁": 3853,
      "ation": 3854,
      "Base": 3855,
      "to▁an▁": 3856,
      "siz": 3857,
      "gogg": 3858,
      "something▁.": 3859,
      "tracks": 3860,
      "trains▁": 3861,
      "track▁.": 3862,
      "plane▁flying▁": 3863,
      "crossing▁the▁": 3864,
      "cloud": 3865,
      "pri": 3866,
      "hats▁": 3867,
      "cheese▁and▁": 3868,
      "road.▁": 3869,
      "straw": 3870,
      "ledge▁": 3871,
      "read▁": 3872,
      "couche": 3873,
      "that▁is▁sitting▁on▁a▁": 3874,
      "pointing▁": 3875,
      "turned▁": 3876,
      "Baseball▁": 3877,
      "lamp▁": 3878,
      "place.": 3879,
      "design": 3880,
      "kites.": 3881,
      "that▁is▁on▁a▁": 3882,
      "les▁of▁": 3883,
      "transit▁": 3884,
      "scooter▁": 3885,
      "African▁": 3886,
      "ige▁": 3887,
      "comple": 3888,
      "Boy▁": 3889,
      "wag": 3890,
      "be▁a▁": 3891,
      "onstruction▁": 3892,
      "on▁a▁beach.": 3893,
      "video▁game.": 3894,
      "TV.": 3895,
      "dancing▁": 3896,
      "on▁top.": 3897,
      "A▁person▁in▁a▁": 3898,
      "A▁train▁is▁": 3899,
      "yard.": 3900,
      "son▁": 3901,
      "a▁male▁": 3902,
      "some▁food▁": 3903,
      "sheep▁are▁": 3904,
      "ating▁": 3905,
      "beige▁": 3906,
      "bikin": 3907,
      "scop": 3908,
      "eating▁grass▁": 3909,
      "oldi": 3910,
      "landsca": 3911,
      "wetsuit▁": 3912,
      "e.▁": 3913,
      "for▁sa": 3914,
      "shallow▁": 3915,
      "▁above▁the▁": 3916,
      "ric": 3917,
      "wire": 3918,
      "of▁his▁": 3919,
      "log": 3920,
      "dressed▁in▁a▁": 3921,
      "train▁station▁": 3922,
      "partment▁": 3923,
      "-a": 3924,
      "with▁a": 3925,
      "surfers▁": 3926,
      "looks▁on▁": 3927,
      "jumping▁a▁": 3928,
      "there▁are▁many▁": 3929,
      "play▁a▁": 3930,
      "face▁.": 3931,
      "thle": 3932,
      "object▁": 3933,
      "man▁on▁a▁": 3934,
      "Many▁people▁": 3935,
      "street▁signs▁": 3936,
      "during▁the▁day.": 3937,
      "hom": 3938,
      "pass▁": 3939,
      "they": 3940,
      "container▁": 3941,
      "square▁": 3942,
      "trunk▁": 3943,
      "ss.": 3944,
      "A▁shirtless▁": 3945,
      "▁and▁other▁": 3946,
      "swing▁": 3947,
      "Various▁": 3948,
      "kn": 3949,
      "A▁person": 3950,
      "with▁a▁dog▁": 3951,
      "next▁to▁each▁other.": 3952,
      "swing▁at▁a▁": 3953,
      "shadow": 3954,
      "▁arm▁": 3955,
      "pulled▁": 3956,
      "sits▁a": 3957,
      "market▁.": 3958,
      "restaurant▁.": 3959,
      "A▁bu": 3960,
      "out.": 3961,
      "ggy▁": 3962,
      "EN": 3963,
      "ite": 3964,
      "mush": 3965,
      "coffee": 3966,
      "▁adverti": 3967,
      "ulti": 3968,
      "fe.": 3969,
      "tun": 3970,
      "thou": 3971,
      "make▁": 3972,
      "a▁black▁and▁white▁": 3973,
      ",▁is▁": 3974,
      "mobi": 3975,
      "closed▁": 3976,
      "prope": 3977,
      "resting▁": 3978,
      "himself▁": 3979,
      "chicken▁": 3980,
      "A▁double▁decker▁bus▁": 3981,
      "shirt▁.": 3982,
      "display▁of▁": 3983,
      "chicken": 3984,
      "ward▁": 3985,
      "tour▁": 3986,
      "hockey▁": 3987,
      "tique▁": 3988,
      "parked▁on▁the▁": 3989,
      "windows.": 3990,
      "A▁man▁in▁a▁white▁": 3991,
      "skateboarder▁is▁": 3992,
      "planes▁": 3993,
      "enclosure": 3994,
      "open.": 3995,
      "with▁a▁black▁": 3996,
      "THAT▁": 3997,
      "sitting▁at▁a▁table▁with▁": 3998,
      "shelf.": 3999,
      "teddy▁bears▁": 4000,
      "A▁batter▁": 4001,
      "how▁": 4002,
      "items.": 4003,
      "fore▁": 4004,
      "playing▁in▁a▁": 4005,
      "serv": 4006,
      "glasses▁and▁": 4007,
      "below▁": 4008,
      "upside▁down▁": 4009,
      "is▁in▁a▁": 4010,
      "vase.": 4011,
      "Several▁people▁are▁": 4012,
      "convers": 4013,
      "d-": 4014,
      "on▁a▁plate▁": 4015,
      "with▁other▁": 4016,
      "in▁the▁sky▁": 4017,
      "baseball▁field.": 4018,
      "hanging▁from▁a▁": 4019,
      "ali": 4020,
      "pastri": 4021,
      "a▁couple▁of▁people▁": 4022,
      "bite▁": 4023,
      "▁along▁the▁": 4024,
      "ssing▁": 4025,
      "passengers▁": 4026,
      "parking▁lot.": 4027,
      "sausa": 4028,
      "teena": 4029,
      "pen▁": 4030,
      "on▁the▁ground.": 4031,
      "graze▁": 4032,
      "Four▁people▁": 4033,
      "rocks.": 4034,
      "There▁is▁": 4035,
      "balanc": 4036,
      "er,▁": 4037,
      "wrapped▁": 4038,
      "on▁ski": 4039,
      "a▁red▁": 4040,
      "A▁sil": 4041,
      "happy▁": 4042,
      "ear▁": 4043,
      "smi": 4044,
      "ts.▁": 4045,
      "doughnut▁": 4046,
      "ranged▁": 4047,
      "Lon": 4048,
      "Pa": 4049,
      "noo": 4050,
      "on▁one▁": 4051,
      "lef": 4052,
      "grocer": 4053,
      "ing▁around▁a▁": 4054,
      "watch.": 4055,
      "mouse": 4056,
      "beard▁": 4057,
      "glasses.": 4058,
      "IC": 4059,
      "booth": 4060,
      "pair": 4061,
      "its▁head▁": 4062,
      "Ro": 4063,
      "s▁and▁other▁": 4064,
      "while▁people▁": 4065,
      "nearby.": 4066,
      "sits▁at▁a▁": 4067,
      "end▁of▁a▁": 4068,
      "A▁brown▁and▁white▁": 4069,
      "A▁traffic▁light▁": 4070,
      "is▁looking▁": 4071,
      "with▁a▁small▁": 4072,
      "comfor": 4073,
      "water.▁": 4074,
      "sitting▁on▁the▁side▁of▁a▁": 4075,
      "traffic▁sign": 4076,
      "young": 4077,
      "disc": 4078,
      "for▁a▁picture▁": 4079,
      "A▁man▁sitting▁on▁a▁": 4080,
      "plants▁": 4081,
      "mong": 4082,
      "computer▁monitor": 4083,
      "before▁": 4084,
      "skier▁is▁": 4085,
      "court": 4086,
      "▁approa": 4087,
      "platform.": 4088,
      "propell": 4089,
      "tail▁": 4090,
      "▁as▁it▁": 4091,
      "cross▁country▁": 4092,
      "a▁close▁up▁of▁": 4093,
      "legs▁": 4094,
      "with▁black▁": 4095,
      "standing▁near▁": 4096,
      "pipe": 4097,
      "rubb": 4098,
      "ches▁a▁": 4099,
      "vegetable▁": 4100,
      "standing▁next▁to▁each▁other.": 4101,
      "dic": 4102,
      "in▁it▁": 4103,
      "sitting▁under▁a▁": 4104,
      "sits▁next▁to▁a▁": 4105,
      "muter▁": 4106,
      "patter": 4107,
      "Group▁of▁people▁": 4108,
      "top▁and▁": 4109,
      "Bi": 4110,
      "rai": 4111,
      "coa": 4112,
      "down▁a▁street.": 4113,
      "people▁and▁": 4114,
      "Three▁people▁are▁": 4115,
      "a▁little▁": 4116,
      "neat": 4117,
      "grazing▁on▁": 4118,
      "broken▁": 4119,
      "grass.▁": 4120,
      "ital▁": 4121,
      "card": 4122,
      "while▁riding▁a▁": 4123,
      "laying▁in▁a▁": 4124,
      "bridge": 4125,
      "brightly▁": 4126,
      "A▁group▁": 4127,
      "city▁street": 4128,
      "fence▁.": 4129,
      "pitch▁": 4130,
      "rain.": 4131,
      "smaller▁": 4132,
      "pushing▁a▁": 4133,
      "dressed▁a": 4134,
      "playing▁frisbee▁": 4135,
      "A▁large▁group▁of▁": 4136,
      "next▁to▁another▁": 4137,
      "uce": 4138,
      "pastr": 4139,
      "pot▁": 4140,
      "ilt▁": 4141,
      "Three▁young▁": 4142,
      "standing▁at▁the▁": 4143,
      "carrots▁": 4144,
      "machine▁": 4145,
      "paved▁": 4146,
      "liqu": 4147,
      "men▁in▁": 4148,
      "chairs.": 4149,
      "jumping▁over▁a▁": 4150,
      "hat.": 4151,
      "ature▁": 4152,
      "A▁black▁and▁white▁photo▁of▁a▁": 4153,
      "locat": 4154,
      "hay▁": 4155,
      "decorative▁": 4156,
      "waiting▁for▁": 4157,
      "tank▁top▁": 4158,
      "ones▁": 4159,
      "k▁.": 4160,
      "case": 4161,
      "over▁his▁": 4162,
      "ocean▁.": 4163,
      "cano": 4164,
      "kaya": 4165,
      "ct▁": 4166,
      "one▁is▁": 4167,
      "o▁.": 4168,
      "in▁the▁air▁.": 4169,
      "striped▁shirt▁": 4170,
      "sauce": 4171,
      "breakfast▁": 4172,
      "fer": 4173,
      "Two▁men": 4174,
      "surfer▁is▁": 4175,
      "stands▁in▁front▁of▁a▁": 4176,
      "landing▁": 4177,
      "still▁": 4178,
      "stop▁sign.": 4179,
      "shirt▁and▁black▁": 4180,
      "skate▁park.": 4181,
      "crossing▁": 4182,
      "a▁close▁up▁of▁a▁person▁": 4183,
      "singing▁": 4184,
      "cloudy▁sky.": 4185,
      "in▁a▁parking▁lot.": 4186,
      "lunch▁": 4187,
      "of▁animals▁": 4188,
      "ching▁a▁": 4189,
      "ches▁of▁": 4190,
      "with▁long▁": 4191,
      "A▁man▁standing▁next▁to▁a▁": 4192,
      "s▁all▁": 4193,
      "dog▁and▁a▁": 4194,
      "elephants▁are▁": 4195,
      "in▁his▁hand": 4196,
      "box▁of▁": 4197,
      "A▁woman▁and▁": 4198,
      "setting.": 4199,
      "male": 4200,
      "bending▁": 4201,
      "watches▁.": 4202,
      "ready▁to▁be▁": 4203,
      "umpire▁": 4204,
      "indoor▁": 4205,
      "termin": 4206,
      "shade▁": 4207,
      "skirt▁": 4208,
      "model▁": 4209,
      "roof": 4210,
      "bearded▁": 4211,
      "serve▁": 4212,
      "bottle": 4213,
      "a▁lady▁": 4214,
      "gray": 4215,
      "train▁tracks▁": 4216,
      "ice▁cream▁": 4217,
      "mud": 4218,
      "drive": 4219,
      "perched▁on▁a▁": 4220,
      "el▁": 4221,
      "med▁": 4222,
      "wait▁": 4223,
      "ripe▁": 4224,
      "grin": 4225,
      "lake": 4226,
      "sitting▁on▁a▁table▁": 4227,
      "sitting▁at▁a▁table▁with▁a▁": 4228,
      "on▁the▁beach▁.": 4229,
      "watch▁.": 4230,
      "mer▁": 4231,
      "The▁large▁": 4232,
      "spen": 4233,
      "decoration": 4234,
      "rainy▁": 4235,
      "half": 4236,
      "jersey▁": 4237,
      "Old▁": 4238,
      "TA": 4239,
      "her.": 4240,
      "furniture▁": 4241,
      "french▁fri": 4242,
      "gan": 4243,
      "smar": 4244,
      "s▁with▁a▁": 4245,
      "bike.": 4246,
      "▁arti": 4247,
      "dea": 4248,
      "sla": 4249,
      "pick▁": 4250,
      "line": 4251,
      "trick.": 4252,
      "pron▁": 4253,
      "cows▁are▁": 4254,
      "in▁a▁living▁room.": 4255,
      ",▁two▁": 4256,
      "path": 4257,
      "deck▁": 4258,
      "ment": 4259,
      "scra": 4260,
      "taking▁a▁picture▁": 4261,
      "screen.": 4262,
      "lake▁.": 4263,
      "A▁lot▁of▁": 4264,
      "while▁a▁man▁": 4265,
      "seagu": 4266,
      "A▁single▁": 4267,
      "ctor▁": 4268,
      "fancy▁": 4269,
      "ging▁": 4270,
      "A▁large": 4271,
      "on▁and▁": 4272,
      "rec": 4273,
      "leg▁": 4274,
      "padd": 4275,
      "gear": 4276,
      "while▁others▁": 4277,
      "walking▁in▁a▁": 4278,
      "market.": 4279,
      "underneath▁": 4280,
      "ign▁": 4281,
      "loading▁": 4282,
      "ship▁": 4283,
      "dance▁": 4284,
      "A▁P": 4285,
      "chu": 4286,
      "on▁a▁field▁": 4287,
      "book.": 4288,
      "d.▁": 4289,
      "docked▁": 4290,
      "ffy▁": 4291,
      "fruit.": 4292,
      "hugg": 4293,
      "multic": 4294,
      "Women▁": 4295,
      "Six▁": 4296,
      "males▁": 4297,
      "es▁in▁a▁": 4298,
      "but▁": 4299,
      "front▁of▁a▁": 4300,
      "a▁girl▁": 4301,
      "plays▁a▁": 4302,
      "concer": 4303,
      "wearing▁black▁": 4304,
      "fruits▁": 4305,
      "space▁": 4306,
      "round.": 4307,
      "in▁the▁sand▁": 4308,
      "time": 4309,
      "chef▁": 4310,
      "flip▁": 4311,
      "fighter▁": 4312,
      "A▁busy▁": 4313,
      "with▁various▁": 4314,
      "wooden▁bench▁": 4315,
      "goat": 4316,
      "tree▁bran": 4317,
      "broccoli.": 4318,
      "garba": 4319,
      "inside": 4320,
      "standing▁behind▁a▁": 4321,
      "deli": 4322,
      "talking▁to▁": 4323,
      "olored▁": 4324,
      "A▁photo▁of▁a▁": 4325,
      "Two▁small▁": 4326,
      "s▁are▁parked▁": 4327,
      "bathing▁": 4328,
      "ball.▁": 4329,
      "photo.": 4330,
      "A▁herd▁of▁sheep▁": 4331,
      "transpor": 4332,
      "on▁a▁surfboard▁": 4333,
      "takes▁": 4334,
      "three▁people▁": 4335,
      "tennis▁court▁holding▁a▁": 4336,
      "BO": 4337,
      "make": 4338,
      "goes▁": 4339,
      "brushing▁his▁": 4340,
      "A▁clock▁tower▁": 4341,
      "newspaper▁": 4342,
      "UR": 4343,
      "tic▁": 4344,
      "seem": 4345,
      "sandwich.": 4346,
      "living▁room▁with▁": 4347,
      "A▁toddler▁": 4348,
      "a▁giraffe▁": 4349,
      "resting▁on▁a▁": 4350,
      "suitcases▁": 4351,
      "ren": 4352,
      "bed▁and▁": 4353,
      "pitch.": 4354,
      "grassy▁area▁": 4355,
      "riding▁on▁the▁back▁of▁a▁": 4356,
      "cars▁and▁": 4357,
      "holding▁a▁bat▁": 4358,
      "hill▁.": 4359,
      "den▁": 4360,
      "beds▁": 4361,
      ",▁the▁": 4362,
      "posite▁": 4363,
      "swim": 4364,
      "Black▁": 4365,
      "Par": 4366,
      "a▁boy▁": 4367,
      "tall": 4368,
      "stack▁of▁": 4369,
      "brown▁horse▁": 4370,
      "cake▁with▁a▁": 4371,
      "towel": 4372,
      "near▁an▁": 4373,
      "glass.": 4374,
      "shore.": 4375,
      "elephant": 4376,
      "on▁a▁busy▁": 4377,
      "sitting▁inside▁of▁a▁": 4378,
      "standing▁up▁": 4379,
      "gas▁": 4380,
      "laptop▁computer": 4381,
      "mountains.": 4382,
      "preparing▁food▁": 4383,
      "flat▁screen▁": 4384,
      "es▁are▁": 4385,
      "A▁man▁who▁is▁": 4386,
      "throw▁a▁": 4387,
      "made▁of▁": 4388,
      "surface.": 4389,
      "hotdog▁": 4390,
      "▁attached▁to▁a▁": 4391,
      "Pla": 4392,
      "socc": 4393,
      "A▁room▁with▁a▁": 4394,
      "tax": 4395,
      "see▁": 4396,
      "wearing▁an▁": 4397,
      "tables▁": 4398,
      "A▁sl": 4399,
      "wood▁floor": 4400,
      "lley▁": 4401,
      "statue▁of▁a▁": 4402,
      "A▁laptop▁computer▁": 4403,
      "device▁": 4404,
      "leaning▁against▁a▁": 4405,
      "uten": 4406,
      "bal": 4407,
      "surfing▁on▁a▁": 4408,
      "tiny▁": 4409,
      "ey▁": 4410,
      "with▁a▁green▁": 4411,
      "background▁": 4412,
      "A▁bathroom▁with▁": 4413,
      "trees▁.": 4414,
      "he▁is▁": 4415,
      "a▁guy▁": 4416,
      "lined▁with▁": 4417,
      "kids▁are▁": 4418,
      "A▁black▁and▁white▁cat▁": 4419,
      "knife.": 4420,
      "grass▁covered▁field.": 4421,
      "cle▁": 4422,
      "memb": 4423,
      "riding▁a▁bike▁": 4424,
      "A▁small▁dog▁": 4425,
      "leash▁": 4426,
      "stands▁next▁to▁a▁": 4427,
      "sitting▁on▁the▁floor▁": 4428,
      "A▁kitchen▁with▁": 4429,
      "wheel▁": 4430,
      "smoke▁": 4431,
      "cr": 4432,
      "fir": 4433,
      "iff": 4434,
      "laid▁": 4435,
      "with▁a▁man▁": 4436,
      "tries▁to▁": 4437,
      "help": 4438,
      "Some▁people▁": 4439,
      "wet▁suit▁": 4440,
      "Gre": 4441,
      "ski▁slope.": 4442,
      "flying▁a▁kite.": 4443,
      "backpack": 4444,
      "Air": 4445,
      "Ele": 4446,
      "flu": 4447,
      "on▁a▁small▁": 4448,
      "oper": 4449,
      "most▁": 4450,
      "wearing▁blue▁": 4451,
      "riding▁horses▁": 4452,
      "traffic▁light": 4453,
      "hitting▁a▁tennis▁ball▁": 4454,
      "in▁green▁": 4455,
      "opposite▁": 4456,
      "white▁dog▁": 4457,
      "window▁.": 4458,
      "shirt▁and▁blue▁": 4459,
      "written▁": 4460,
      "sandy▁beach.": 4461,
      "Multi": 4462,
      "use▁": 4463,
      "is▁in▁the▁": 4464,
      "sail▁": 4465,
      "riding▁down▁a▁": 4466,
      "a▁man▁that▁is▁": 4467,
      "musici": 4468,
      "▁appears▁to▁be▁": 4469,
      "teleph": 4470,
      "on▁a▁green▁": 4471,
      "with▁no▁": 4472,
      "in▁a▁room▁": 4473,
      "white▁and▁blue▁": 4474,
      "set▁up▁": 4475,
      "facing▁": 4476,
      "LE▁": 4477,
      "on▁a▁cloudy▁": 4478,
      "in▁a▁bathroom▁": 4479,
      "kinds▁of▁": 4480,
      "on▁a▁city▁street": 4481,
      "toward▁a▁": 4482,
      "checkered▁": 4483,
      "Chin": 4484,
      "a▁bathroom▁with▁a▁": 4485,
      "flying▁kites▁": 4486,
      "buildings": 4487,
      "performs▁a▁": 4488,
      "event▁.": 4489,
      "residenti": 4490,
      "im": 4491,
      "fun▁": 4492,
      "projec": 4493,
      "green▁and▁white▁": 4494,
      "listening▁": 4495,
      "LA": 4496,
      "tied▁": 4497,
      "wind": 4498,
      "giving▁a▁": 4499,
      "boat▁.": 4500,
      "▁arms▁": 4501,
      "each▁other▁.": 4502,
      "just": 4503,
      "market": 4504,
      "tooth▁": 4505,
      "cast": 4506,
      "poles▁": 4507,
      "cloth▁": 4508,
      "in▁front▁of▁a▁building.": 4509,
      "playing▁a▁video▁game▁": 4510,
      "overlooking▁a▁": 4511,
      "mor": 4512,
      "holding▁up▁": 4513,
      "A▁bicycle▁": 4514,
      "mushroom": 4515,
      "ental▁": 4516,
      "baked▁": 4517,
      "stoo": 4518,
      "blanket.": 4519,
      "mini": 4520,
      "point": 4521,
      "surface▁": 4522,
      "Dog▁": 4523,
      "A▁desk▁": 4524,
      "benche": 4525,
      "hillside.": 4526,
      "catcher▁": 4527,
      "standing▁in▁the▁grass▁": 4528,
      "toward▁the▁": 4529,
      "Bu": 4530,
      "before": 4531,
      "Two▁elephants▁": 4532,
      "suspen": 4533,
      "truck▁is▁": 4534,
      "throw▁": 4535,
      "horses▁are▁": 4536,
      "floating▁": 4537,
      "they▁are▁": 4538,
      "rack▁": 4539,
      "to▁her▁": 4540,
      "window▁of▁a▁": 4541,
      "in▁a▁field▁of▁": 4542,
      "coffee.": 4543,
      "A▁crowd▁": 4544,
      "multicolored▁": 4545,
      "bou": 4546,
      "sing▁a▁": 4547,
      "on▁a▁plate": 4548,
      "with▁a▁yellow▁": 4549,
      "on▁the▁wall": 4550,
      "Two▁little▁": 4551,
      "red▁and▁black▁": 4552,
      "paint": 4553,
      "smiling▁and▁": 4554,
      "waiting▁for▁the▁": 4555,
      "traveling▁down▁a▁": 4556,
      "staring▁": 4557,
      "waves.": 4558,
      "power▁": 4559,
      "bikini▁": 4560,
      "KING▁": 4561,
      "hid": 4562,
      "rode": 4563,
      "▁and▁a▁dog▁": 4564,
      "craft▁": 4565,
      "A▁living▁room▁with▁a▁": 4566,
      "Ha": 4567,
      "s,": 4568,
      "on▁the▁table.": 4569,
      "focu": 4570,
      "men▁and▁": 4571,
      "holding▁the▁": 4572,
      "holding▁onto▁a▁": 4573,
      "behind▁him▁.": 4574,
      "that▁has▁been▁": 4575,
      "A▁plate▁with▁": 4576,
      "A▁close▁up▁": 4577,
      "stopped▁at▁a▁": 4578,
      "DO": 4579,
      "ton▁": 4580,
      "▁antique▁": 4581,
      "man▁holding▁a▁": 4582,
      "train▁tracks.": 4583,
      "proce": 4584,
      "mb▁": 4585,
      "wrest": 4586,
      "y,▁": 4587,
      "side▁.": 4588,
      "reaches▁": 4589,
      "holding▁an▁umbrella.": 4590,
      "steep▁": 4591,
      "golden▁": 4592,
      "A▁slice▁of▁": 4593,
      "hole▁": 4594,
      "in▁the▁kitchen▁": 4595,
      "bucke": 4596,
      "baseball▁game": 4597,
      "A▁red▁fire▁hydrant▁": 4598,
      "fruit▁and▁": 4599,
      "grassy▁area.": 4600,
      "Ski": 4601,
      "ior▁": 4602,
      "vil": 4603,
      "bee": 4604,
      "ung": 4605,
      "stand.": 4606,
      "looks▁at▁": 4607,
      "wearing▁white▁": 4608,
      "boots▁": 4609,
      "serve": 4610,
      "stuffed▁bear▁": 4611,
      "PLE▁": 4612,
      "tarmac.": 4613,
      "utensil": 4614,
      "shed▁": 4615,
      "cat.": 4616,
      "someone": 4617,
      "sandwiche": 4618,
      "talking▁on▁the▁": 4619,
      "smiling▁.": 4620,
      "nap": 4621,
      "flying▁a": 4622,
      "Sk": 4623,
      "mountain▁.": 4624,
      "on▁it▁.": 4625,
      "sliding▁": 4626,
      "gloves▁": 4627,
      "fighting▁": 4628,
      "steam▁": 4629,
      "traffic.": 4630,
      "balcon": 4631,
      "A▁large▁white▁": 4632,
      "back▁of▁": 4633,
      "sleep": 4634,
      "bag.": 4635,
      "A▁man▁and▁a▁woman▁are▁": 4636,
      "bble": 4637,
      "controller▁": 4638,
      "candles▁": 4639,
      "how▁to▁": 4640,
      "Vie": 4641,
      "ssing▁a▁": 4642,
      "walking▁a▁": 4643,
      "bus▁stop": 4644,
      "that▁has▁some▁": 4645,
      "bags▁": 4646,
      "friend": 4647,
      "younger▁": 4648,
      "muddy▁": 4649,
      "cting▁": 4650,
      "ing,▁": 4651,
      "A▁number▁of▁": 4652,
      "ori": 4653,
      "that▁looks▁": 4654,
      "two▁women▁": 4655,
      "up▁against▁a▁": 4656,
      "spin": 4657,
      "log▁": 4658,
      "ing▁as▁": 4659,
      "chip": 4660,
      "horse▁and▁": 4661,
      "onto▁the▁": 4662,
      "in▁a▁city▁": 4663,
      "net▁": 4664,
      "on▁the▁floor.": 4665,
      "standing▁in▁front▁of▁": 4666,
      "bathtub▁": 4667,
      "custo": 4668,
      "fallen▁": 4669,
      "-aged▁": 4670,
      "YING▁": 4671,
      "ei": 4672,
      "rou": 4673,
      "top▁of▁": 4674,
      "ttire▁": 4675,
      "vehicle": 4676,
      "reading▁a▁book▁": 4677,
      "on▁a▁sunny▁day.": 4678,
      "oli": 4679,
      "A▁flock▁of▁": 4680,
      "white▁plate.": 4681,
      "ts▁to▁": 4682,
      "driving▁a▁": 4683,
      "working▁on▁": 4684,
      "tennis▁racquet▁": 4685,
      "bin": 4686,
      "on▁the▁street▁.": 4687,
      "hall": 4688,
      "fligh": 4689,
      "falling▁": 4690,
      "town": 4691,
      "water▁and▁": 4692,
      "crowd.": 4693,
      "night": 4694,
      "brick▁building.": 4695,
      "vendor▁": 4696,
      "SE": 4697,
      "mee": 4698,
      "only▁": 4699,
      "own": 4700,
      "A▁group▁of▁children▁": 4701,
      "horses.": 4702,
      "bread": 4703,
      "match.": 4704,
      "neon▁": 4705,
      "many▁people▁": 4706,
      "carries▁a▁": 4707,
      "man▁and▁woman▁": 4708,
      "fridge▁": 4709,
      "ornate▁": 4710,
      "race": 4711,
      "potted▁": 4712,
      "ketch": 4713,
      "people▁at▁a▁": 4714,
      "snow▁board▁": 4715,
      "An▁adult▁": 4716,
      "grazing▁on▁a▁": 4717,
      "grassy▁field▁": 4718,
      "sitting▁at▁the▁": 4719,
      "smiles▁": 4720,
      "a▁tennis▁player▁": 4721,
      "skin": 4722,
      "other.": 4723,
      "giving▁": 4724,
      "lights.": 4725,
      "overlooking▁": 4726,
      "shower.": 4727,
      "chairs▁and▁": 4728,
      "straw▁": 4729,
      "matching▁": 4730,
      "outdoors▁": 4731,
      "A▁line▁of▁": 4732,
      "on▁a▁bench▁": 4733,
      "train▁track": 4734,
      "fake▁": 4735,
      "vase▁with▁": 4736,
      "cluttered▁": 4737,
      "photograph▁of▁": 4738,
      "nic": 4739,
      "is▁running▁": 4740,
      "young▁woman▁": 4741,
      "stuffed▁animals▁": 4742,
      "ished▁": 4743,
      "Two▁horses▁": 4744,
      "racket.": 4745,
      "sofa▁": 4746,
      "REE": 4747,
      "under▁an▁umbrella▁": 4748,
      "blowing▁": 4749,
      "type▁of▁": 4750,
      "my▁": 4751,
      "walking▁through▁the▁": 4752,
      "sign▁.": 4753,
      "holding▁two▁": 4754,
      "Many▁people▁are▁": 4755,
      "An▁older▁man▁": 4756,
      "pillow▁": 4757,
      "festi": 4758,
      "together▁in▁a▁": 4759,
      "These▁": 4760,
      "leading▁": 4761,
      "truck▁.": 4762,
      "taking▁off▁": 4763,
      "hood▁": 4764,
      "day.▁": 4765,
      "in▁its▁mouth▁.": 4766,
      "tunne": 4767,
      "to▁another▁": 4768,
      "bun▁": 4769,
      "paddle▁": 4770,
      "while▁one▁": 4771,
      "eating▁some▁": 4772,
      "practicing▁": 4773,
      "garbage▁": 4774,
      "Red▁": 4775,
      "tail": 4776,
      "sem": 4777,
      "passes▁": 4778,
      "clocks▁": 4779,
      "next▁to▁it.": 4780,
      "sand.": 4781,
      "down▁the▁street.": 4782,
      "a▁man▁in▁a▁": 4783,
      "batter": 4784,
      "cellphone": 4785,
      "candle": 4786,
      "cut▁in▁": 4787,
      "parked▁at▁a▁": 4788,
      "iz": 4789,
      "makes▁a▁": 4790,
      "pie▁": 4791,
      "A▁white▁dog▁": 4792,
      "s▁on▁it": 4793,
      "color▁": 4794,
      "A▁train▁traveling▁": 4795,
      "graffiti": 4796,
      "speaking▁": 4797,
      "ded▁with▁": 4798,
      "umer": 4799,
      "baseball▁bat.": 4800,
      "laying▁in▁": 4801,
      "wooden▁cabine": 4802,
      "sandwiches▁": 4803,
      "body▁of▁water▁.": 4804,
      "tongue▁": 4805,
      "stainless▁steel▁": 4806,
      "commercial▁": 4807,
      "A▁small": 4808,
      "entran": 4809,
      "young▁man▁": 4810,
      "obsta": 4811,
      "outdoors▁.": 4812,
      "fireplace": 4813,
      "together.▁": 4814,
      "Hor": 4815,
      "Loo": 4816,
      "A▁colorful▁": 4817,
      "A▁boy": 4818,
      "is▁next▁to▁a▁": 4819,
      "on▁a▁sidewalk▁": 4820,
      "en▁a▁": 4821,
      "A▁man▁walking▁": 4822,
      "fork.": 4823,
      "an▁old▁": 4824,
      "floral▁": 4825,
      "lines▁": 4826,
      "shoo": 4827,
      "A▁man▁in▁black▁": 4828,
      "▁apple": 4829,
      "silver": 4830,
      "surfboards▁": 4831,
      "eye▁": 4832,
      "house▁.": 4833,
      "is▁jumping▁": 4834,
      "tray.": 4835,
      "taking▁picture": 4836,
      "blue▁and▁yellow▁": 4837,
      "TO▁": 4838,
      "looks▁on▁.": 4839,
      "es▁and▁a▁": 4840,
      "A▁gray▁": 4841,
      "is▁wearing▁a▁": 4842,
      "living▁a": 4843,
      "A▁man▁in▁a▁suit▁": 4844,
      "gged▁": 4845,
      "mobile▁": 4846,
      "A▁glass▁": 4847,
      "with▁a▁lot▁of▁": 4848,
      "pee": 4849,
      "on▁the▁ground": 4850,
      "A▁large▁group▁of▁people▁": 4851,
      "feeding▁a▁": 4852,
      "lists▁": 4853,
      "good▁": 4854,
      "volleyball▁": 4855,
      "smile▁": 4856,
      "on▁a▁bed.": 4857,
      "s▁at▁an▁": 4858,
      "exten": 4859,
      "gym": 4860,
      "entertain": 4861,
      "Guy▁": 4862,
      "A▁cake▁": 4863,
      "what": 4864,
      "separ": 4865,
      "shelf": 4866,
      "keyboard▁and▁": 4867,
      "lean▁": 4868,
      "with▁green▁": 4869,
      "flying▁over▁a▁": 4870,
      "grocery▁": 4871,
      "es.▁": 4872,
      "of▁another▁": 4873,
      "s▁and▁some▁": 4874,
      "wears▁a▁": 4875,
      "most": 4876,
      "Three▁women▁": 4877,
      "leaves.": 4878,
      "talking▁to▁a▁": 4879,
      "bicycle▁.": 4880,
      "W▁": 4881,
      "magaz": 4882,
      "in▁one▁": 4883,
      "in▁background.": 4884,
      "▁and▁blue▁": 4885,
      "in▁the▁ocean": 4886,
      "wear▁": 4887,
      "The▁small▁": 4888,
      "it▁is▁": 4889,
      "sitting▁on▁the▁ground▁": 4890,
      "swim▁": 4891,
      "vehicles▁": 4892,
      "carrots▁and▁": 4893,
      "couch,▁": 4894,
      "BE": 4895,
      "Ne": 4896,
      "on▁a▁blue▁": 4897,
      "on▁a▁skateboard": 4898,
      "room.▁": 4899,
      "A▁woman▁wearing▁": 4900,
      "▁and▁white▁cat▁": 4901,
      "chair▁and▁": 4902,
      "grazing▁in▁the▁": 4903,
      "standing▁in▁the▁grass.": 4904,
      "can▁be▁": 4905,
      "son": 4906,
      "the▁ball.": 4907,
      "wild▁": 4908,
      "lot▁": 4909,
      "case.": 4910,
      "gather▁": 4911,
      "bathtub": 4912,
      "riding▁a▁motorcycle▁": 4913,
      "dirt": 4914,
      "▁area▁with▁a▁": 4915,
      "down▁a▁snow▁covered▁slope.": 4916,
      "line.": 4917,
      "E▁OF▁": 4918,
      "A▁red▁stop▁sign▁": 4919,
      "meal": 4920,
      "▁at▁night▁": 4921,
      "produce▁": 4922,
      "sculpture▁": 4923,
      "cri": 4924,
      "A▁bike▁": 4925,
      "up▁to▁a▁": 4926,
      "ham": 4927,
      "out▁on▁the▁": 4928,
      "chain": 4929,
      "heads▁": 4930,
      "heavy▁": 4931,
      "Multiple▁": 4932,
      "Cat▁": 4933,
      "man▁.": 4934,
      "time.": 4935,
      "sniff": 4936,
      "A▁man▁is▁holding▁a▁": 4937,
      "line▁.": 4938,
      "broccoli,▁": 4939,
      "soa": 4940,
      "A▁woman▁and▁a▁": 4941,
      "PLA": 4942,
      "pickup▁": 4943,
      "pasture.": 4944,
      "one.": 4945,
      "doll▁": 4946,
      "A▁brid": 4947,
      "pasture▁": 4948,
      "View▁": 4949,
      "gat": 4950,
      "s▁and▁a": 4951,
      "well": 4952,
      "s▁along▁a▁": 4953,
      "down▁and▁": 4954,
      "meat,▁": 4955,
      "troll": 4956,
      "front.": 4957,
      "rural▁": 4958,
      "train▁on▁a▁": 4959,
      "has▁his▁": 4960,
      "tennis▁racquet.": 4961,
      "pige": 4962,
      "sitting▁outside▁": 4963,
      "foods▁": 4964,
      "A▁girl▁in▁a▁": 4965,
      "sticks▁": 4966,
      "walking▁down▁the▁street▁": 4967,
      "PEO": 4968,
      "SI": 4969,
      "To": 4970,
      "butt": 4971,
      "that▁have▁": 4972,
      "como": 4973,
      "▁atten": 4974,
      "cutting▁board.": 4975,
      "river▁.": 4976,
      "▁airplanes▁": 4977,
      "TING▁": 4978,
      "Wor": 4979,
      "dia": 4980,
      "walking▁on▁the▁": 4981,
      "way▁from▁the▁": 4982,
      "standing▁in▁a▁field▁": 4983,
      "window▁si": 4984,
      "home▁plate.": 4985,
      "smart▁": 4986,
      "in▁pink▁": 4987,
      "There": 4988,
      "bull▁": 4989,
      "tial": 4990,
      "man▁and▁a▁": 4991,
      "A▁young▁lady▁": 4992,
      "truck▁parked▁": 4993,
      "brushing▁her▁": 4994,
      "climbing▁a▁": 4995,
      "kicking▁a▁": 4996,
      "Kid": 4997,
      "die": 4998,
      "red▁a": 4999,
      "roll▁": 5000,
      "baby": 5001,
      "in▁the▁sun": 5002,
      "an▁image▁of▁": 5003,
      "golf▁": 5004,
      "looking▁up": 5005,
      "skate▁park": 5006,
      "couch▁and▁": 5007,
      "Pi": 5008,
      "We": 5009,
      "fan": 5010,
      "A▁variety▁of▁": 5011,
      "built▁": 5012,
      "A▁soccer▁": 5013,
      "s▁on▁his▁": 5014,
      "in▁his▁hand.": 5015,
      "nose▁": 5016,
      "Man▁and▁": 5017,
      "white▁and▁black▁": 5018,
      "controllers.": 5019,
      "including▁a▁": 5020,
      "mop": 5021,
      "pian": 5022,
      "train▁.": 5023,
      "chain▁": 5024,
      "pple": 5025,
      "exhi": 5026,
      "cutting▁board▁": 5027,
      "OR": 5028,
      "if▁": 5029,
      "A▁▁": 5030,
      "with▁glasses▁": 5031,
      "in▁a▁kitchen": 5032,
      "with▁a▁bunch▁of▁": 5033,
      "group": 5034,
      "trees.▁": 5035,
      "A▁small▁boy▁": 5036,
      "police": 5037,
      "birds▁are▁": 5038,
      "A▁hot▁dog▁": 5039,
      "is▁seen▁": 5040,
      "A▁man▁flying▁through▁the▁air▁": 5041,
      "riders▁": 5042,
      "uses▁a▁": 5043,
      "hun": 5044,
      "on▁a▁desk.": 5045,
      "bucket▁": 5046,
      "tion.": 5047,
      "playing▁on▁a▁": 5048,
      "stall▁": 5049,
      "sitting▁on▁top▁of▁a▁wooden▁": 5050,
      "purse▁": 5051,
      "dog▁is▁running▁": 5052,
      "cellphone▁.": 5053,
      "on▁a▁city▁street▁": 5054,
      "squat": 5055,
      "Men": 5056,
      "han": 5057,
      "rear▁": 5058,
      "on▁a▁pole▁": 5059,
      "bus▁parked▁": 5060,
      "leaping▁": 5061,
      "shot▁": 5062,
      "led▁up▁": 5063,
      "swee": 5064,
      "collar▁": 5065,
      "first▁": 5066,
      "ever": 5067,
      "s▁above▁": 5068,
      "checking▁": 5069,
      "A▁cat▁that▁is▁": 5070,
      "martial": 5071,
      "eating▁food▁": 5072,
      "swinging▁at▁a▁": 5073,
      "freez": 5074,
      "mly▁": 5075,
      "lder▁": 5076,
      "ch▁of▁": 5077,
      "s▁and▁two▁": 5078,
      "puppy▁": 5079,
      "skiing▁on▁a▁": 5080,
      "eats▁": 5081,
      "bed▁in▁a▁": 5082,
      "catcher▁and▁": 5083,
      "A▁woman▁in▁a▁red▁": 5084,
      "parking▁lot▁": 5085,
      "scissors.": 5086,
      "sheep.": 5087,
      "speak": 5088,
      "electronic": 5089,
      "jeans▁and▁a▁": 5090,
      "de.": 5091,
      "lun": 5092,
      "▁about▁": 5093,
      "ings.": 5094,
      "A▁view▁": 5095,
      "mag": 5096,
      "organ": 5097,
      "Two▁cats▁": 5098,
      "diving▁": 5099,
      "that▁reads▁": 5100,
      "baseball▁bat": 5101,
      "present": 5102,
      "blond-": 5103,
      "either▁": 5104,
      "▁an▁airplane▁": 5105,
      "tray": 5106,
      "street▁and▁": 5107,
      "dog▁.": 5108,
      "traffic▁light.": 5109,
      "opened▁": 5110,
      "sauce▁": 5111,
      "balloon": 5112,
      "onto▁": 5113,
      "hosp": 5114,
      "that▁inclu": 5115,
      "tennis▁players▁": 5116,
      "headed▁": 5117,
      "clock▁tower.": 5118,
      "Com": 5119,
      "ure▁": 5120,
      "to▁hit▁a▁": 5121,
      "walls.": 5122,
      "hanging▁on▁a▁": 5123,
      "Foo": 5124,
      "ill": 5125,
      "scu": 5126,
      "s,▁and▁a▁": 5127,
      "soldi": 5128,
      "A▁picture▁": 5129,
      "in▁the▁water▁.": 5130,
      "sitting▁on▁top▁of▁": 5131,
      "the▁a": 5132,
      "picking▁": 5133,
      "▁an▁ar": 5134,
      "paint▁": 5135,
      "intersection": 5136,
      "dessert▁": 5137,
      "law": 5138,
      "ant.▁": 5139,
      "out▁on▁a▁": 5140,
      "wearing▁red▁": 5141,
      "snow▁board": 5142,
      "leave": 5143,
      "stand▁in▁a▁": 5144,
      "boxes▁": 5145,
      "of▁an▁old▁": 5146,
      "tennis▁racquet▁on▁a▁": 5147,
      "Indian▁": 5148,
      "watches.": 5149,
      "cigarett": 5150,
      "Wii.": 5151,
      "PEOPLE▁": 5152,
      "oni▁": 5153,
      "ed▁.": 5154,
      "locomo": 5155,
      "ribb": 5156,
      "sitting▁on▁top▁": 5157,
      "woman▁holding▁a▁": 5158,
      "s▁against▁a▁": 5159,
      "A▁band▁": 5160,
      "shove": 5161,
      "laptop▁and▁": 5162,
      "note": 5163,
      "football▁player▁": 5164,
      "suit▁and▁tie▁": 5165,
      "gets▁ready▁to▁": 5166,
      "middle-aged▁": 5167,
      "gate▁": 5168,
      "ence▁": 5169,
      "have▁a▁": 5170,
      "pizza▁and▁": 5171,
      "exa": 5172,
      "A▁black▁bear▁": 5173,
      "mid▁": 5174,
      "A▁crowd▁of▁": 5175,
      "gs▁": 5176,
      "on▁the▁floor": 5177,
      "walking▁and▁": 5178,
      "overhead▁": 5179,
      "skateboards▁": 5180,
      "clock▁on▁the▁": 5181,
      "throws▁a▁": 5182,
      "remote.": 5183,
      "half▁eaten▁": 5184,
      "below▁a▁": 5185,
      "Ja": 5186,
      "burn": 5187,
      "e▁is▁": 5188,
      "see": 5189,
      "Two▁guys▁": 5190,
      "perfor": 5191,
      "roller": 5192,
      "leans▁": 5193,
      "highway▁": 5194,
      "dressed▁in▁black▁": 5195,
      "during▁a▁game.": 5196,
      "A▁man▁on▁a▁skateboard▁": 5197,
      "teenage▁": 5198,
      "stadium": 5199,
      "gymna": 5200,
      "Co": 5201,
      "▁attire▁": 5202,
      "The▁people▁are▁": 5203,
      "rub": 5204,
      "dry": 5205,
      "through▁an▁": 5206,
      "ation▁.": 5207,
      "A▁baseball▁player▁is▁": 5208,
      "glove▁": 5209,
      "THERE▁ARE▁": 5210,
      "positi": 5211,
      "A▁silver▁": 5212,
      "rece": 5213,
      "too▁": 5214,
      "st.": 5215,
      "ties▁": 5216,
      "games▁": 5217,
      "leaf": 5218,
      "while▁a▁woman▁": 5219,
      "Sur": 5220,
      "da▁": 5221,
      "glid": 5222,
      "▁among▁": 5223,
      "A▁parking▁meter▁": 5224,
      "fried▁": 5225,
      "doors▁": 5226,
      "plays▁with▁a▁": 5227,
      "surface": 5228,
      "farm": 5229,
      "in▁midair▁": 5230,
      "she": 5231,
      "sea▁": 5232,
      "biker▁": 5233,
      "daugh": 5234,
      "boats▁are▁": 5235,
      "birthday▁cake▁": 5236,
      "ingre": 5237,
      "A▁table▁with▁": 5238,
      "A▁tray▁": 5239,
      "lage▁": 5240,
      "pier▁": 5241,
      "put▁": 5242,
      "has▁two▁": 5243,
      "e▁and▁gro": 5244,
      "stuck▁": 5245,
      "A▁child▁is▁": 5246,
      "craf": 5247,
      "Someone▁is▁": 5248,
      "block▁": 5249,
      "ise▁": 5250,
      "in▁.": 5251,
      "petting▁a▁": 5252,
      "riding▁an▁": 5253,
      "vegg": 5254,
      "compan": 5255,
      "fabr": 5256,
      "woman▁and▁": 5257,
      "A▁young▁boy▁is▁": 5258,
      "cheese.": 5259,
      "A▁very▁cute▁": 5260,
      "before▁a▁": 5261,
      "Fre": 5262,
      "Ho": 5263,
      "IL": 5264,
      "neigh": 5265,
      "Two▁large▁": 5266,
      "rug▁": 5267,
      "bus▁stop▁": 5268,
      "looking▁out▁": 5269,
      "pizzas▁": 5270,
      "tennis▁court": 5271,
      "musical▁": 5272,
      "collection▁of▁": 5273,
      "homemade▁": 5274,
      "Ca": 5275,
      "Cow": 5276,
      "s▁as▁a▁": 5277,
      "A▁man▁in▁a▁green▁": 5278,
      "watching▁the▁": 5279,
      "wave▁in▁the▁ocean.": 5280,
      "A▁living▁room▁with▁": 5281,
      "yard": 5282,
      "ing▁and▁a▁": 5283,
      "A▁professional▁": 5284,
      "a▁kitchen▁with▁a▁": 5285,
      "grey": 5286,
      "surfing▁in▁the▁": 5287,
      "walk.": 5288,
      "must": 5289,
      "hands▁.": 5290,
      "teams▁": 5291,
      "sandwich▁with▁": 5292,
      "hotdog": 5293,
      "mask▁": 5294,
      "De": 5295,
      "den": 5296,
      "mother▁": 5297,
      "spi": 5298,
      "▁another": 5299,
      "beg": 5300,
      "▁at▁the▁beach.": 5301,
      "fire▁hydrant": 5302,
      "woman.": 5303,
      "edge▁of▁the▁": 5304,
      "A▁close-": 5305,
      "path.": 5306,
      "skating▁": 5307,
      "out▁in▁the▁": 5308,
      "town.": 5309,
      "sits▁in▁front▁of▁a▁": 5310,
      "behind▁him.": 5311,
      "several▁people▁": 5312,
      "Young▁boy▁": 5313,
      "fresh": 5314,
      "the▁air.": 5315,
      "ster": 5316,
      "rais": 5317,
      "tradit": 5318,
      "while▁wearing▁a▁": 5319,
      "leaps▁": 5320,
      "dirt▁road.": 5321,
      "ticip": 5322,
      "walking▁down▁a▁street▁": 5323,
      "▁are▁a▁": 5324,
      "event▁": 5325,
      "dead▁": 5326,
      "in▁a▁ca": 5327,
      "Two▁white▁": 5328,
      "paw": 5329,
      "looks▁at▁a▁": 5330,
      "bed,▁": 5331,
      "dressed▁up▁": 5332,
      "shorts▁and▁": 5333,
      "▁arrange": 5334,
      "stairs▁": 5335,
      "stove▁top▁": 5336,
      "Sn": 5337,
      "boun": 5338,
      "A▁group▁of▁women▁": 5339,
      "A▁banan": 5340,
      "leaning▁on▁a▁": 5341,
      "furniture▁and▁a▁": 5342,
      "remote▁control▁": 5343,
      "Chi": 5344,
      "a▁plate▁": 5345,
      "es▁his▁": 5346,
      ",▁white▁": 5347,
      "looks▁at▁the▁": 5348,
      "with▁an▁open▁": 5349,
      "A▁black▁and▁white▁dog▁": 5350,
      "surf▁board.": 5351,
      "seated": 5352,
      "rainbow▁": 5353,
      "beside▁the▁": 5354,
      "cleaning▁": 5355,
      "dining▁room▁": 5356,
      "anta▁": 5357,
      "hang▁": 5358,
      "Lo": 5359,
      "A▁skateboarder▁is▁": 5360,
      "on▁top": 5361,
      "with▁large▁": 5362,
      "plac": 5363,
      "while▁sitting▁on▁a▁": 5364,
      "looking▁down": 5365,
      "banana.": 5366,
      "hot▁dogs▁": 5367,
      "plate.▁": 5368,
      "path▁.": 5369,
      "competing▁": 5370,
      "funny▁": 5371,
      "makes▁": 5372,
      "on▁a▁motorcycle▁": 5373,
      "cold▁": 5374,
      "laying▁on▁": 5375,
      "with▁an▁orange▁": 5376,
      "▁around▁the▁": 5377,
      "▁airplane.": 5378,
      "stove▁and▁": 5379,
      "cular▁": 5380,
      "A▁female▁tennis▁player▁": 5381,
      "A▁white▁plate▁topped▁with▁": 5382,
      "neighbor": 5383,
      "lo▁": 5384,
      "sk▁": 5385,
      "on▁the▁grass▁": 5386,
      "eats▁a▁": 5387,
      "giraffe.": 5388,
      "six▁": 5389,
      "tall▁buildings.": 5390,
      "rail.": 5391,
      "furniture.": 5392,
      "s▁as▁he▁": 5393,
      "featur": 5394,
      "writing▁": 5395,
      "soup▁": 5396,
      "THAT▁IS▁": 5397,
      "in▁the▁street.": 5398,
      "moving▁a": 5399,
      "try▁": 5400,
      "tie▁and▁": 5401,
      "during▁a▁baseball▁game.": 5402,
      "personal▁": 5403,
      "block": 5404,
      "patio▁": 5405,
      "dverti": 5406,
      "plu": 5407,
      "in▁yellow▁": 5408,
      "with▁it's▁": 5409,
      "in▁a▁city.": 5410,
      "pipe▁": 5411,
      "table,▁": 5412,
      "muff": 5413,
      "down▁the▁street▁.": 5414,
      "road▁with▁": 5415,
      "stand▁on▁a▁": 5416,
      "rolling▁": 5417,
      "dirt▁bike▁": 5418,
      "A▁bunch▁of▁people▁": 5419,
      "dishes▁": 5420,
      "devic": 5421,
      "fil": 5422,
      "ring▁": 5423,
      "posed▁": 5424,
      "while▁two▁": 5425,
      "A▁black▁and▁": 5426,
      "A▁modern▁": 5427,
      "riding▁on▁": 5428,
      "food▁and▁a▁": 5429,
      "containing▁a▁": 5430,
      "foreign▁": 5431,
      "The▁man▁in▁the▁": 5432,
      "trailer▁": 5433,
      "pouring▁": 5434,
      "goggles▁": 5435,
      "pastry▁": 5436,
      "Blu": 5437,
      "A▁ma": 5438,
      "is▁standing▁on▁a▁": 5439,
      "chan": 5440,
      "wind▁": 5441,
      "a▁man▁with▁a▁": 5442,
      "talk▁": 5443,
      "sit▁in▁a▁": 5444,
      "A▁table▁topped▁with▁": 5445,
      "t▁a": 5446,
      "y▁a▁": 5447,
      "ness▁": 5448,
      "sitting▁in▁the▁middle▁of▁a▁": 5449,
      "ing▁along▁a▁": 5450,
      "libr": 5451,
      "other▁and▁": 5452,
      "bathroom▁has▁a▁": 5453,
      "word▁": 5454,
      "leash": 5455,
      "spread▁": 5456,
      "posing▁for▁the▁": 5457,
      "Motor": 5458,
      "Shee": 5459,
      "sides▁": 5460,
      "cover▁": 5461,
      "tall▁building.": 5462,
      "racket": 5463,
      "'▁": 5464,
      "4▁": 5465,
      ";▁": 5466,
      "over▁an▁": 5467,
      "chew": 5468,
      "tea▁": 5469,
      "bedroom.": 5470,
      "doorway▁": 5471,
      "together▁on▁a▁": 5472,
      "seat▁of▁a▁": 5473,
      "residential▁": 5474,
      "Ta": 5475,
      "rice": 5476,
      "A▁refrigerator▁": 5477,
      "▁and▁red▁": 5478,
      "in▁a▁park": 5479,
      "flie": 5480,
      "by▁an▁": 5481,
      "has▁just▁": 5482,
      "walk▁down▁a▁": 5483,
      "▁at▁the▁beach": 5484,
      "motorcycle▁parked▁": 5485,
      "desk▁with▁": 5486,
      "This▁is▁an▁": 5487,
      "hair▁is▁": 5488,
      "shop.": 5489,
      "teeth.": 5490,
      "on▁stage▁": 5491,
      "of▁people▁": 5492,
      "Three▁men▁are▁": 5493,
      "shirt▁and▁jeans▁": 5494,
      "railing▁": 5495,
      "spoon▁": 5496,
      "twi": 5497,
      "ing▁their▁": 5498,
      "return": 5499,
      "baseball▁uniform▁": 5500,
      "ments▁": 5501,
      "phone▁and▁": 5502,
      "marble▁": 5503,
      "visible▁": 5504,
      "A▁woman▁in▁a▁black▁": 5505,
      "crosswalk▁": 5506,
      "helmet▁and▁": 5507,
      "in▁the▁background.▁": 5508,
      "desert▁": 5509,
      "mostly▁": 5510,
      "is▁riding▁a▁": 5511,
      "lid▁": 5512,
      "s▁along▁the▁": 5513,
      "stands▁in▁a▁": 5514,
      "pan.": 5515,
      "donuts.": 5516,
      "counter▁top": 5517,
      "shelves▁": 5518,
      "▁apples▁": 5519,
      "cup.": 5520,
      "▁at▁night▁.": 5521,
      "his▁arms▁": 5522,
      "▁against▁": 5523,
      "Pic": 5524,
      "RI": 5525,
      "ut": 5526,
      "walking▁on▁": 5527,
      "conne": 5528,
      "hiking▁": 5529,
      "walkway▁": 5530,
      "shop▁.": 5531,
      "▁as▁people▁": 5532,
      "hangs▁": 5533,
      "clear": 5534,
      "Two▁young▁men▁": 5535,
      "smoking▁a▁": 5536,
      "themsel": 5537,
      "glove": 5538,
      "gentleman▁": 5539,
      "ladder▁": 5540,
      "s▁,▁": 5541,
      "A▁MAN▁": 5542,
      "The▁dog▁is▁": 5543,
      "A▁young▁person▁": 5544,
      "consi": 5545,
      "next▁to▁two▁": 5546,
      "father▁": 5547,
      "bent▁": 5548,
      "cycle▁": 5549,
      "taking▁a▁picture▁of▁": 5550,
      "A▁plate▁with▁a▁": 5551,
      "country": 5552,
      "yard▁.": 5553,
      "a▁number▁of▁people▁": 5554,
      "cigarette▁": 5555,
      "beneath▁a▁": 5556,
      "ED▁": 5557,
      "indu": 5558,
      "thumb": 5559,
      "third▁": 5560,
      "A▁meal▁": 5561,
      "moves▁": 5562,
      "shirt.": 5563,
      "down▁a▁snowy▁": 5564,
      "cheer": 5565,
      "s,▁one▁": 5566,
      "chairs▁and▁a▁": 5567,
      "microwave.": 5568,
      "Some▁people▁are▁": 5569,
      "tennis▁racket": 5570,
      "posted▁": 5571,
      "grill▁": 5572,
      "fountain▁.": 5573,
      "Eleph": 5574,
      "ders▁": 5575,
      "▁▁": 5576,
      "A▁bedroom▁with▁a▁": 5577,
      "enga": 5578,
      ",▁wearing▁a▁": 5579,
      "ing▁across▁a▁": 5580,
      "▁and▁a▁white▁": 5581,
      "their": 5582,
      "street▁next▁to▁a▁": 5583,
      "standing▁in▁the▁snow▁": 5584,
      "A▁man▁holds▁a▁": 5585,
      "ing▁area▁": 5586,
      "s▁and▁one▁": 5587,
      "sual▁": 5588,
      "train▁track▁": 5589,
      "vegetables▁on▁a▁": 5590,
      "red,▁": 5591,
      "drink.": 5592,
      "surfboards.": 5593,
      "trunk": 5594,
      "enjoying▁the▁": 5595,
      "WO▁": 5596,
      "traditional▁": 5597,
      "ron▁": 5598,
      "in▁it's▁": 5599,
      "A▁woman▁that▁is▁": 5600,
      "tennis": 5601,
      "prepare▁": 5602,
      "flying▁a▁kite": 5603,
      "parking▁meter": 5604,
      "salad": 5605,
      "sandy▁beach▁": 5606,
      "wagon▁": 5607,
      "▁as▁another▁": 5608,
      "on▁the▁street": 5609,
      "streets▁": 5610,
      "tire": 5611,
      "gie▁": 5612,
      "child▁is▁": 5613,
      "slice▁": 5614,
      "▁airplane▁flying▁": 5615,
      "looks▁like▁": 5616,
      "s▁to▁be▁": 5617,
      "between▁a▁": 5618,
      "seat.": 5619,
      "fridge": 5620,
      "semi▁": 5621,
      "En": 5622,
      "ppi": 5623,
      "uses▁": 5624,
      "in▁orange▁": 5625,
      "plain": 5626,
      "dora": 5627,
      "up▁.": 5628,
      "cal▁": 5629,
      "d▁at▁": 5630,
      "bed.▁": 5631,
      "painting▁a▁": 5632,
      "soccer▁ball.": 5633,
      "red▁and▁yellow▁": 5634,
      "performing▁a▁trick▁": 5635,
      "Big▁": 5636,
      "hospital▁": 5637,
      "'t▁": 5638,
      "TWO▁": 5639,
      "hard": 5640,
      "where": 5641,
      "buff": 5642,
      "grow": 5643,
      "ride": 5644,
      "tered▁": 5645,
      "duck▁": 5646,
      "throwing▁": 5647,
      "mbur": 5648,
      "drinks▁": 5649,
      "bag▁of▁": 5650,
      "scene▁with▁": 5651,
      "▁at▁an▁outdoor▁": 5652,
      "police▁officer▁": 5653,
      "splash": 5654,
      "martial▁ar": 5655,
      "pen.": 5656,
      "sum": 5657,
      "A▁beach▁": 5658,
      "lay▁": 5659,
      "on▁a▁red▁": 5660,
      "A▁man▁standing▁in▁a▁": 5661,
      "does▁": 5662,
      "on▁the▁wall.": 5663,
      "dog▁are▁": 5664,
      "ready▁for▁": 5665,
      "bunches▁of▁": 5666,
      "tattoo": 5667,
      "s▁attached▁": 5668,
      "in▁water▁": 5669,
      "beside": 5670,
      "A▁woman▁on▁a▁": 5671,
      "frost": 5672,
      "near▁a▁large▁": 5673,
      "bench▁.": 5674,
      "watching.": 5675,
      "bedroom▁with▁": 5676,
      "on▁the▁side▁of▁the▁road.": 5677,
      "pedestrian": 5678,
      "pedestrian▁": 5679,
      "you▁": 5680,
      "living▁area▁": 5681,
      "AN▁": 5682,
      "Fa": 5683,
      "kitt": 5684,
      "▁around": 5685,
      "A▁ca": 5686,
      "with▁a▁pink▁": 5687,
      "delic": 5688,
      "commuter▁": 5689,
      "floor▁.": 5690,
      "look▁on▁.": 5691,
      "motorcycles.": 5692,
      "individual▁": 5693,
      "neatly▁": 5694,
      "St": 5695,
      "ie▁": 5696,
      "is▁standing▁in▁a▁": 5697,
      "in▁the▁grass▁.": 5698,
      "A▁car": 5699,
      "some▁kind▁of▁": 5700,
      "sitting▁on▁a▁wooden▁": 5701,
      "look▁at▁": 5702,
      "on▁top▁of▁a▁table.": 5703,
      "double": 5704,
      "playing▁a▁video▁game.": 5705,
      "bicycle.": 5706,
      "A▁herd▁of▁elephants▁": 5707,
      "trunks▁": 5708,
      "slice▁of▁pizza▁": 5709,
      "hit▁the▁ball.": 5710,
      "Chinese▁": 5711,
      "cran": 5712,
      "tw": 5713,
      "A▁G": 5714,
      "in▁the▁back▁": 5715,
      "Two▁brown▁": 5716,
      "horse▁drawn▁": 5717,
      "plane.": 5718,
      "home▁plate▁": 5719,
      "stuffed▁bear": 5720,
      "hair▁and▁": 5721,
      "ES▁": 5722,
      "Wa": 5723,
      "ies▁": 5724,
      "to▁look▁": 5725,
      "habit": 5726,
      "his▁head▁": 5727,
      "tree.▁": 5728,
      "over▁her▁": 5729,
      "vehicle.": 5730,
      "bag▁.": 5731,
      "▁against▁the▁": 5732,
      "a.": 5733,
      "ma▁": 5734,
      "opposing▁": 5735,
      "next▁to▁each▁other": 5736,
      "catches▁a▁": 5737,
      "▁at▁the▁beach▁": 5738,
      "wall▁with▁": 5739,
      "waiting▁for▁a▁": 5740,
      "holds▁up▁a▁": 5741,
      "which▁is▁": 5742,
      "instrumen": 5743,
      "formation▁": 5744,
      "something.": 5745,
      "lar▁": 5746,
      "grape": 5747,
      "tow▁": 5748,
      "flowers": 5749,
      "sauce.": 5750,
      "self": 5751,
      "laughing▁": 5752,
      "home.": 5753,
      "TAB": 5754,
      "dum": 5755,
      "gers▁": 5756,
      "A▁bearded▁": 5757,
      "with▁a▁woman▁": 5758,
      "s▁across▁a▁": 5759,
      "green▁field.": 5760,
      "cups▁": 5761,
      "▁arranged▁": 5762,
      "restaurant": 5763,
      "A▁brown▁bear▁": 5764,
      "sitting▁next▁to▁each▁other▁": 5765,
      "A▁mother▁": 5766,
      "strawberri": 5767,
      "Looking▁": 5768,
      "hur": 5769,
      "ist▁": 5770,
      "down▁the▁side▁of▁a▁": 5771,
      "park▁bench.": 5772,
      "land.": 5773,
      "glasses▁is▁": 5774,
      "cellphone.": 5775,
      "there▁are▁two▁": 5776,
      "jetliner▁": 5777,
      "event.": 5778,
      "fter▁": 5779,
      "beer.": 5780,
      "in▁the▁street▁": 5781,
      "an▁elephant▁": 5782,
      "shaking▁": 5783,
      "talking▁on▁her▁": 5784,
      "A▁woman▁in▁a▁white▁": 5785,
      "books.": 5786,
      "containers▁": 5787,
      "walks▁down▁a▁": 5788,
      "swinging▁a▁bat▁": 5789,
      "tton▁": 5790,
      "plates▁of▁food▁": 5791,
      "beverage▁": 5792,
      "industri": 5793,
      "A▁sheep▁": 5794,
      "make▁a▁": 5795,
      "on▁horse": 5796,
      "lemon": 5797,
      "in▁a▁living▁room▁": 5798,
      "hambur": 5799,
      "next▁to▁a▁large▁": 5800,
      "off.": 5801,
      "boat▁is▁": 5802,
      "brush.": 5803,
      "kites▁flying▁": 5804,
      "wooded▁area.": 5805,
      "ctor": 5806,
      "numer": 5807,
      "sy▁": 5808,
      "ward": 5809,
      "A▁bedroom▁": 5810,
      "A▁surfer▁is▁": 5811,
      "rack": 5812,
      "A▁man▁riding▁skis▁": 5813,
      "walking▁past▁a▁": 5814,
      "brown▁bear▁": 5815,
      "d▁at▁the▁": 5816,
      "mirror▁and▁": 5817,
      "cabinets.": 5818,
      "story▁": 5819,
      "exhib": 5820,
      "bor▁": 5821,
      "snea": 5822,
      "ut▁": 5823,
      "A▁polar▁bear▁": 5824,
      "poles.": 5825,
      "There▁is▁a▁man▁": 5826,
      "blow▁": 5827,
      "walking▁along▁the▁": 5828,
      "dinn": 5829,
      "▁and▁an▁a": 5830,
      "playing▁tennis▁on▁a▁": 5831,
      "business": 5832,
      "formal▁": 5833,
      "pepperoni▁": 5834,
      "CK▁": 5835,
      "natu": 5836,
      "sco": 5837,
      "on▁this▁": 5838,
      "rate▁": 5839,
      "in▁the▁rain▁": 5840,
      "sitting▁by▁a▁": 5841,
      "woman▁in▁": 5842,
      "moto": 5843,
      "shower": 5844,
      "toy▁.": 5845,
      "shiny▁": 5846,
      "spectators▁": 5847,
      "pick▁up▁": 5848,
      "▁asian▁": 5849,
      "infla": 5850,
      "on▁a▁beach": 5851,
      "a▁table▁": 5852,
      "lot.": 5853,
      ",▁holding▁a▁": 5854,
      "trays▁": 5855,
      "man▁are▁": 5856,
      "playing▁tennis.": 5857,
      "A▁person▁wearing▁a▁": 5858,
      "People": 5859,
      "speed": 5860,
      "Two▁young▁boys▁": 5861,
      "A▁living▁room▁filled▁with▁": 5862,
      "whole▁": 5863,
      "ish▁": 5864,
      "pop": 5865,
      "repair": 5866,
      "on▁the▁back▁of▁a▁": 5867,
      "ride▁a▁": 5868,
      "young▁men▁": 5869,
      "great▁": 5870,
      "running▁on▁a▁": 5871,
      "glasses▁of▁": 5872,
      "b▁.": 5873,
      "hanging▁from▁the▁": 5874,
      "tarmac▁": 5875,
      "cardboard▁": 5876,
      "can▁be▁seen▁": 5877,
      "zen▁": 5878,
      "thin▁": 5879,
      "tack": 5880,
      "has▁an▁": 5881,
      "A▁cat": 5882,
      "A▁group▁of▁three▁": 5883,
      "shorts▁and▁a▁": 5884,
      "bottle.": 5885,
      "meadow": 5886,
      "pool": 5887,
      "A▁man▁riding▁a▁wave▁": 5888,
      "cake▁and▁": 5889,
      "carrots,▁": 5890,
      "hitting▁the▁": 5891,
      "outfit": 5892,
      "talking▁on▁a▁cell▁phone.": 5893,
      "machine▁.": 5894,
      "miniature▁": 5895,
      "SIT": 5896,
      "rice▁": 5897,
      "on▁a▁large▁": 5898,
      "a▁living▁room▁with▁a▁": 5899,
      "standing▁with▁a▁": 5900,
      "tents▁": 5901,
      "ture.": 5902,
      "display.": 5903,
      "in▁a▁field▁.": 5904,
      "class▁": 5905,
      "Skate": 5906,
      "Surf": 5907,
      "gun": 5908,
      "ns▁": 5909,
      "walking▁in▁": 5910,
      "umbrella.▁": 5911,
      "baby▁elephant▁": 5912,
      "cooki": 5913,
      "excit": 5914,
      "name▁": 5915,
      "doing▁tricks▁": 5916,
      "clean▁and▁": 5917,
      "locomotive▁": 5918,
      "UN": 5919,
      "s▁an▁a": 5920,
      "doll": 5921,
      "stripe": 5922,
      "kick▁": 5923,
      "▁area.▁": 5924,
      "looking▁at▁her▁": 5925,
      "gathering▁": 5926,
      "smiling▁while▁": 5927,
      "guys▁are▁": 5928,
      "someone's▁": 5929,
      "A▁pretty▁": 5930,
      ",▁black▁": 5931,
      "part▁": 5932,
      "bowling▁": 5933,
      "herself▁": 5934,
      "lane▁": 5935,
      "▁art▁": 5936,
      "lying▁down▁": 5937,
      "ROOM": 5938,
      "Close": 5939,
      "erial▁": 5940,
      "enn": 5941,
      "with▁umbrella": 5942,
      "ried▁": 5943,
      "teri": 5944,
      "bathroom▁is▁": 5945,
      "travels▁": 5946,
      "looking▁at▁his▁": 5947,
      "motorcycles▁parked▁": 5948,
      "A▁baseball▁game▁": 5949,
      "students▁": 5950,
      "gathered▁around▁a▁": 5951,
      "ath": 5952,
      "on▁a▁sidewalk.": 5953,
      "on▁the▁sidewalk▁.": 5954,
      "cast▁": 5955,
      "depic": 5956,
      "young▁child▁": 5957,
      "city▁street▁.": 5958,
      "behind▁them▁.": 5959,
      "is▁at▁the▁": 5960,
      "bund": 5961,
      "der.": 5962,
      "ler▁": 5963,
      "▁across▁": 5964,
      "A▁hotel▁": 5965,
      "bo▁": 5966,
      ",▁some▁": 5967,
      "dium▁": 5968,
      "behind": 5969,
      "sitting▁on▁top▁of▁a▁table.": 5970,
      "purple": 5971,
      "intere": 5972,
      "item▁": 5973,
      "telephone▁": 5974,
      "iou": 5975,
      "A▁red▁and▁white▁": 5976,
      "▁and▁is▁": 5977,
      "on▁the▁table": 5978,
      "ch▁.": 5979,
      "larger▁": 5980,
      "young▁people▁": 5981,
      "mouse.": 5982,
      "s▁on▁it▁": 5983,
      "snowboarder▁is▁": 5984,
      "sitting▁around▁": 5985,
      "pictures▁": 5986,
      "parachu": 5987,
      "A▁pizza▁with▁": 5988,
      "while▁another▁man▁": 5989,
      "direction▁": 5990,
      "his▁arm": 5991,
      "-colored▁": 5992,
      "▁asleep▁": 5993,
      "A▁full▁": 5994,
      "on▁a▁surfboard.": 5995,
      "caugh": 5996,
      "riding▁in▁a▁": 5997,
      "dresses▁": 5998,
      "d▁as▁": 5999,
      "behind▁them.": 6000,
      "bananas▁and▁": 6001,
      "flowers▁and▁": 6002,
      "meal.": 6003,
      "teeth": 6004,
      "red▁and▁blue▁": 6005,
      "STREE": 6006,
      "lettuce": 6007,
      "oned▁": 6008,
      "with▁yellow▁": 6009,
      "with▁food▁": 6010,
      ",▁wearing▁": 6011,
      "standing▁under▁a▁": 6012,
      "piled▁": 6013,
      "toilets▁": 6014,
      "A▁boy▁in▁a▁": 6015,
      "sit▁on▁": 6016,
      "getting▁ready▁to▁hit▁a▁": 6017,
      "in▁action▁": 6018,
      "examin": 6019,
      "A▁photo▁": 6020,
      "itself▁": 6021,
      "lear": 6022,
      "A▁clean▁": 6023,
      "blue▁sky▁": 6024,
      "while▁wearing▁": 6025,
      "while▁standing▁on▁a▁": 6026,
      "flying▁kites.": 6027,
      "gainst▁the▁": 6028,
      "sweatshirt▁": 6029,
      "▁after▁a▁": 6030,
      "does▁a▁trick▁": 6031,
      "EL": 6032,
      "A▁dark▁": 6033,
      "ants▁": 6034,
      "stands▁a": 6035,
      "The▁cat▁is▁": 6036,
      "small▁child▁": 6037,
      "A▁person▁riding▁a▁": 6038,
      "condi": 6039,
      "baseball▁cap▁": 6040,
      "guard▁": 6041,
      "with▁an▁umbrella.": 6042,
      "passenger▁train▁": 6043,
      "coming▁down▁the▁": 6044,
      "hair▁and▁a▁": 6045,
      "bar▁.": 6046,
      "bowls▁of▁": 6047,
      "onlookers▁": 6048,
      "yo": 6049,
      "ina▁": 6050,
      "thi": 6051,
      "A▁me": 6052,
      "A▁desk▁with▁a▁": 6053,
      "in▁the▁rain.": 6054,
      "cam": 6055,
      "vely▁": 6056,
      "city▁bus▁": 6057,
      "showing▁the▁": 6058,
      "chef": 6059,
      "cow.": 6060,
      "yellow▁and▁black▁": 6061,
      "tricks▁on▁a▁": 6062,
      "yellow▁and▁blue▁": 6063,
      "toppings.": 6064,
      "dark-haired▁": 6065,
      "transit▁bus▁": 6066,
      "rice▁and▁": 6067,
      "Pizz": 6068,
      "\".": 6069,
      "Mar": 6070,
      "ON": 6071,
      "A▁pink▁": 6072,
      "oppon": 6073,
      "base.": 6074,
      "frosted▁": 6075,
      "dog▁and▁": 6076,
      "a▁man▁on▁a▁": 6077,
      "clock▁on▁a▁": 6078,
      "swing▁.": 6079,
      "discu": 6080,
      "laptop▁and▁a▁": 6081,
      "clay▁": 6082,
      "A▁city▁street▁": 6083,
      "frame▁": 6084,
      "in▁the▁distance.": 6085,
      "5▁": 6086,
      "Traff": 6087,
      "ies▁of▁": 6088,
      "iron▁": 6089,
      "Two▁dogs▁are▁": 6090,
      "The▁person▁": 6091,
      "shoes.": 6092,
      "bed▁and▁a▁": 6093,
      "in▁an▁empty▁": 6094,
      "different▁kinds▁of▁": 6095,
      "houe": 6096,
      "into▁a▁microphone▁.": 6097,
      "taking▁a▁picture▁of▁a▁": 6098,
      "mini▁": 6099,
      "persons▁": 6100,
      "Lond": 6101,
      "Fe": 6102,
      "SK": 6103,
      "man▁wearing▁": 6104,
      "with▁brown▁": 6105,
      "Two▁black▁": 6106,
      "cal": 6107,
      "young▁lady▁": 6108,
      "downhill▁": 6109,
      "next▁to▁trees.": 6110,
      "lap.": 6111,
      "sits▁in▁the▁": 6112,
      "hat▁.": 6113,
      "ggage▁": 6114,
      "taking▁a▁swing▁at▁a▁": 6115,
      "video▁games▁": 6116,
      "in▁a▁blue▁shirt▁": 6117,
      "fireplace.": 6118,
      "A▁person▁on▁a▁skateboard▁": 6119,
      "bridge▁.": 6120,
      "coat▁and▁": 6121,
      "▁advertise": 6122,
      "suspended▁": 6123,
      "Po": 6124,
      "kar": 6125,
      "mbo": 6126,
      "indic": 6127,
      "A▁man▁swinging▁a▁": 6128,
      "umpi": 6129,
      "A▁woman▁sitting▁on▁a▁": 6130,
      "blue▁sky": 6131,
      "driver▁": 6132,
      "sheet▁": 6133,
      "close▁to▁": 6134,
      "loaded▁with▁": 6135,
      "rides▁his▁": 6136,
      "filled▁with▁a▁": 6137,
      "▁appears▁to▁be▁a▁": 6138,
      "udience▁": 6139,
      "inside.": 6140,
      "A▁metal▁": 6141,
      "A▁display▁": 6142,
      "stem": 6143,
      "on▁to▁a▁": 6144,
      "on▁the▁sidewalk.": 6145,
      "particip": 6146,
      "board▁.": 6147,
      "bik": 6148,
      "glazed▁": 6149,
      "s.▁▁": 6150,
      "A▁man▁in▁a▁yellow▁": 6151,
      "A▁small▁bird▁": 6152,
      "tex": 6153,
      "watch▁a▁": 6154,
      "walls▁and▁": 6155,
      "in▁an▁outdoor▁": 6156,
      "gainst▁": 6157,
      "bare▁": 6158,
      "flowers▁in▁a▁": 6159,
      "traveling▁down▁the▁": 6160,
      "headphones▁": 6161,
      "work▁.": 6162,
      "loaded▁": 6163,
      "spoon": 6164,
      "corner": 6165,
      "wearing▁an▁orange▁": 6166,
      "tire▁": 6167,
      "ral": 6168,
      "in▁a▁zoo▁": 6169,
      "part▁of▁a▁": 6170,
      "veg": 6171,
      "table▁next▁to▁a▁": 6172,
      "stall": 6173,
      "ducks▁": 6174,
      "drive▁": 6175,
      "car▁is▁": 6176,
      "jackets▁": 6177,
      "sand▁.": 6178,
      "salad.": 6179,
      "ttached▁": 6180,
      "indoor": 6181,
      "y▁of▁": 6182,
      "a▁few▁": 6183,
      "dimly▁": 6184,
      "in▁front▁of▁an▁a": 6185,
      "green▁grass.": 6186,
      "holding▁her▁": 6187,
      "sits▁on▁top▁of▁a▁": 6188,
      "words▁": 6189,
      "courty": 6190,
      "driver": 6191,
      "grassy▁field": 6192,
      "break▁": 6193,
      "a▁woman▁is▁": 6194,
      "A▁man▁and▁woman▁are▁": 6195,
      "soda": 6196,
      "using▁his▁": 6197,
      "harbor▁": 6198,
      "landscape▁": 6199,
      "disc▁": 6200,
      "SITTING▁": 6201,
      "eg": 6202,
      "The▁girl▁": 6203,
      "ball▁with▁a▁": 6204,
      "down▁to▁": 6205,
      "out▁.": 6206,
      "mug▁": 6207,
      "being▁held▁": 6208,
      "prepared▁": 6209,
      "speed▁": 6210,
      "A▁baseball▁player▁holding▁a▁bat▁": 6211,
      "island▁": 6212,
      "fenced▁in": 6213,
      "Kit": 6214,
      "floo": 6215,
      "ler": 6216,
      "▁atop▁a▁": 6217,
      "inf": 6218,
      "erman▁": 6219,
      "packed▁": 6220,
      "A▁construction▁": 6221,
      "shirts▁and▁": 6222,
      "man's▁": 6223,
      "cub": 6224,
      "window.▁": 6225,
      "ation.": 6226,
      "someones▁": 6227,
      "shape▁": 6228,
      "preparing▁a▁": 6229,
      "long-": 6230,
      "barri": 6231,
      "inside▁the▁": 6232,
      "oriental▁": 6233,
      "big": 6234,
      "A▁pitcher▁": 6235,
      "A▁vintage▁": 6236,
      "of▁an▁airport▁": 6237,
      "tak": 6238,
      "on▁the▁road.": 6239,
      "bull": 6240,
      "pasta": 6241,
      "s▁are▁on▁a▁": 6242,
      "nearby▁": 6243,
      "▁air▁plane▁": 6244,
      "wave▁.": 6245,
      "dress▁is▁": 6246,
      "lightly▁": 6247,
      "fence.▁": 6248,
      "having▁fun▁": 6249,
      "watches▁a▁": 6250,
      "▁attempting▁to▁": 6251,
      "brushing▁his▁teeth▁": 6252,
      "jung": 6253,
      "tation▁": 6254,
      "inspec": 6255,
      "▁ang": 6256,
      "wii": 6257,
      "ways▁": 6258,
      "cessor": 6259,
      "cars": 6260,
      "fall▁": 6261,
      "▁aircraft▁": 6262,
      "motorcyclist▁": 6263,
      "cows▁in▁a▁": 6264,
      "night.": 6265,
      "A▁very▁tall▁": 6266,
      "blender▁": 6267,
      "more▁": 6268,
      "Ar": 6269,
      "In▁": 6270,
      "TRA": 6271,
      "n▁.": 6272,
      "ating▁a▁": 6273,
      "in▁a▁public▁": 6274,
      "nette▁": 6275,
      "s▁across▁the▁": 6276,
      "pill": 6277,
      "street▁corner▁": 6278,
      "court▁with▁a▁": 6279,
      "view▁of▁the▁": 6280,
      "different▁colored▁": 6281,
      "▁airport▁": 6282,
      "there▁is▁a▁man▁": 6283,
      "train▁station": 6284,
      "outfits▁": 6285,
      "dishwash": 6286,
      "BA": 6287,
      "ne▁": 6288,
      "A▁grey▁": 6289,
      "on▁skis.": 6290,
      "cher": 6291,
      "plaz": 6292,
      "in▁the▁grass": 6293,
      "on▁the▁side.": 6294,
      ",▁while▁a▁": 6295,
      "tent▁": 6296,
      "qui": 6297,
      "pants▁and▁": 6298,
      "serving▁a▁": 6299,
      "soccer▁players▁": 6300,
      "A▁woman▁in▁a▁blue▁": 6301,
      "cabinets▁and▁": 6302,
      "pants▁is▁": 6303,
      "brightly▁colored▁": 6304,
      "is▁full▁of▁": 6305,
      "a▁blue▁": 6306,
      "gravel▁": 6307,
      "foot": 6308,
      "playing▁Frisbee▁": 6309,
      "people▁are": 6310,
      "heading▁": 6311,
      "mug": 6312,
      "shoe▁": 6313,
      "jumping▁up▁": 6314,
      "pulls▁": 6315,
      "flowers▁.": 6316,
      "instruments▁": 6317,
      "produc": 6318,
      "ssion▁": 6319,
      "New▁": 6320,
      "Don": 6321,
      "Older▁": 6322,
      "Re": 6323,
      "ship": 6324,
      "die▁": 6325,
      "green▁grass▁": 6326,
      "pical▁": 6327,
      "▁at▁sunse": 6328,
      "A▁cat▁sitting▁on▁a▁": 6329,
      "Man▁with▁": 6330,
      "suit▁is▁": 6331,
      "A▁very▁big▁": 6332,
      "entrance▁": 6333,
      "double-": 6334,
      "Adult▁": 6335,
      "im▁": 6336,
      "A▁table▁with▁a▁": 6337,
      "A▁room▁with▁": 6338,
      "toys▁": 6339,
      "with▁a▁person▁": 6340,
      "jets▁": 6341,
      "skateboard.▁": 6342,
      "swinging▁his▁": 6343,
      "travel▁": 6344,
      "vase▁of▁": 6345,
      "looking▁at▁something▁": 6346,
      "ware": 6347,
      "on▁a▁sunny▁day▁.": 6348,
      "furniture▁and▁": 6349,
      "A▁passenger▁train▁": 6350,
      "pine▁": 6351,
      "s▁is▁": 6352,
      "bage": 6353,
      "ound▁": 6354,
      "lish": 6355,
      "lift▁": 6356,
      "walking▁through▁": 6357,
      "quar": 6358,
      "THIS▁": 6359,
      "traffic▁lights▁": 6360,
      "barbe": 6361,
      "slices▁": 6362,
      "faces▁": 6363,
      "A▁group▁of▁young▁men▁": 6364,
      "shoulder▁": 6365,
      "nood": 6366,
      "industrial▁": 6367,
      "Di": 6368,
      "fea": 6369,
      "A▁blue▁and▁white▁": 6370,
      "washing▁": 6371,
      "woman▁with▁a▁": 6372,
      "tractor▁": 6373,
      "calm▁": 6374,
      "lip": 6375,
      "black▁bear▁": 6376,
      "s▁are▁in▁a▁": 6377,
      "bathtub.": 6378,
      "sitting▁on▁a▁bench": 6379,
      "riding▁their▁": 6380,
      "▁at▁the▁airpor": 6381,
      "back▁.": 6382,
      "restroom▁": 6383,
      "red-": 6384,
      "▁at▁an▁airport.": 6385,
      "There▁are▁many▁": 6386,
      "▁attached▁to▁": 6387,
      "located▁": 6388,
      "performan": 6389,
      "Bir": 6390,
      "WH": 6391,
      "roses▁": 6392,
      "labo": 6393,
      "lee": 6394,
      "like": 6395,
      "while▁he▁": 6396,
      "An▁un": 6397,
      "wearing▁a▁green▁": 6398,
      "ellow▁": 6399,
      "Three▁giraffes▁": 6400,
      "displaying▁": 6401,
      "talking▁on▁his▁": 6402,
      "chair▁.": 6403,
      "An▁old▁man▁": 6404,
      "drinking▁a▁": 6405,
      "A▁yellow▁fire▁hydrant▁": 6406,
      "A▁male▁tennis▁player▁": 6407,
      "mixed▁": 6408,
      "Lady▁": 6409,
      "Construction▁": 6410,
      "y.▁": 6411,
      "skiers▁are▁": 6412,
      "plants.": 6413,
      "riding▁a▁wave.": 6414,
      "pproa": 6415,
      "mark": 6416,
      "laptops.": 6417,
      "smiling.": 6418,
      "t-shirt▁is▁": 6419,
      "holds▁his▁": 6420,
      "An▁assortment▁of▁": 6421,
      "pasta▁": 6422,
      "features▁a▁": 6423,
      "-covered▁": 6424,
      "on▁a▁field": 6425,
      "a▁child▁": 6426,
      "on▁the▁tracks▁": 6427,
      "Two▁children▁are▁": 6428,
      "pants▁and▁a▁": 6429,
      "off▁his▁": 6430,
      "A▁woman▁is▁holding▁a▁": 6431,
      "books▁": 6432,
      "bushes.": 6433,
      "shadow▁": 6434,
      "BOAR": 6435,
      "lurry▁": 6436,
      "od": 6437,
      "stic": 6438,
      "is▁show": 6439,
      "in▁it.▁": 6440,
      "cher▁": 6441,
      "Two▁giraffes▁are▁": 6442,
      "ing▁all▁": 6443,
      "bill": 6444,
      "light▁and▁": 6445,
      "food▁.": 6446,
      "pizza▁is▁": 6447,
      "moufla": 6448,
      "toilet▁paper▁": 6449,
      "barre": 6450,
      "plates▁and▁": 6451,
      "cabinet▁": 6452,
      "orange▁and▁": 6453,
      "garage▁": 6454,
      "fly▁a▁": 6455,
      "forest▁.": 6456,
      "wooded▁area▁": 6457,
      "Traffic▁": 6458,
      "0▁": 6459,
      "ds▁a▁": 6460,
      "ka▁": 6461,
      "mon▁": 6462,
      "s▁and▁an▁": 6463,
      "thrown▁": 6464,
      "A▁man▁riding▁": 6465,
      "standing▁in▁the▁middle▁of▁a▁": 6466,
      "people▁walking▁": 6467,
      "til": 6468,
      "nearby▁.": 6469,
      "rough▁": 6470,
      "truck▁is▁parked▁": 6471,
      "being▁flow": 6472,
      "Four▁men▁": 6473,
      "bottles▁": 6474,
      "A▁red▁double▁decker▁bus▁": 6475,
      "candle▁": 6476,
      "drinking▁from▁a▁": 6477,
      "stairs▁.": 6478,
      "direc": 6479,
      "A▁wooden▁bench▁": 6480,
      "ceiling▁": 6481,
      "Picture▁": 6482,
      "mitt": 6483,
      "the▁ball": 6484,
      "in▁the▁city.": 6485,
      "perform▁": 6486,
      "motion▁": 6487,
      "surfing▁a▁": 6488,
      "chasing▁a▁": 6489,
      "light▁blue▁": 6490,
      "boats.": 6491,
      "dirt▁road▁": 6492,
      "bottles▁of▁": 6493,
      "brick▁wall.": 6494,
      "carrot▁": 6495,
      "on▁the▁ground▁.": 6496,
      "motor▁bike▁": 6497,
      "▁also▁": 6498,
      "remote▁control": 6499,
      "soup": 6500,
      "museum": 6501,
      "tour▁bus▁": 6502,
      "begin": 6503,
      "A▁kite▁": 6504,
      "A▁set▁of▁": 6505,
      "with▁all▁": 6506,
      "on▁a▁clear▁": 6507,
      "on▁the▁court.": 6508,
      "tabby▁": 6509,
      "paja": 6510,
      "tending▁": 6511,
      "dog▁on▁a▁": 6512,
      "man▁and▁a▁woman▁": 6513,
      "mel": 6514,
      "come▁": 6515,
      "water▁with▁a▁": 6516,
      "ular▁": 6517,
      "A▁group▁of▁young▁people▁": 6518,
      "e▁and▁groom▁": 6519,
      "A▁banana▁": 6520,
      "Tenn": 6521,
      "fter▁a▁": 6522,
      "recor": 6523,
      "laund": 6524,
      "bacon": 6525,
      "a▁little▁girl▁": 6526,
      "waving▁": 6527,
      "playing▁an▁": 6528,
      "ies▁and▁": 6529,
      "parro": 6530,
      "wearing▁a▁pink▁": 6531,
      "eaten": 6532,
      "looking▁out▁the▁": 6533,
      "A▁group▁of▁people▁that▁are▁": 6534,
      "close▁to▁a▁": 6535,
      "talking▁.": 6536,
      "jogg": 6537,
      "camera.▁": 6538,
      "girl▁are▁": 6539,
      "cliff▁": 6540,
      "Santa▁": 6541,
      "of▁a▁large▁": 6542,
      "bus▁.": 6543,
      "Two▁women": 6544,
      "top▁of▁the▁": 6545,
      "possi": 6546,
      "rusty▁": 6547,
      "black▁cat▁": 6548,
      "fie▁": 6549,
      "shore": 6550,
      "stuff▁": 6551,
      "is▁attemp": 6552,
      "▁at▁night": 6553,
      "tomato▁": 6554,
      "ramp▁.": 6555,
      "ALL▁": 6556,
      "ingredi": 6557,
      "Pol": 6558,
      "ki▁": 6559,
      "pt▁": 6560,
      "in▁all▁": 6561,
      "iron": 6562,
      "secon": 6563,
      "veral": 6564,
      "▁and▁a▁small▁": 6565,
      "tion▁.": 6566,
      "The▁boy▁": 6567,
      "ttre": 6568,
      "puts▁": 6569,
      "fries.": 6570,
      "T▁OF▁": 6571,
      "A▁man▁wearing▁a▁black▁": 6572,
      "squar": 6573,
      "city.▁": 6574,
      "curb.": 6575,
      "There▁are▁a▁": 6576,
      "mit": 6577,
      "bak": 6578,
      "in▁a▁big▁": 6579,
      "need": 6580,
      "cloth.": 6581,
      "A▁person▁in▁": 6582,
      "d▁area.": 6583,
      "A▁ser": 6584,
      "watering▁": 6585,
      "hat▁,▁": 6586,
      "laptops▁": 6587,
      "surfboard▁on▁a▁": 6588,
      "bread.": 6589,
      "surrounded▁by▁a▁": 6590,
      "helmets▁": 6591,
      "farm▁": 6592,
      "in▁the▁woods.": 6593,
      "bandan": 6594,
      "A▁bald▁": 6595,
      "tennis▁court▁holding▁a▁racquet.": 6596,
      "Tennis▁": 6597,
      "gen": 6598,
      "on▁a▁baseball▁": 6599,
      "in▁a▁park▁.": 6600,
      "plain▁": 6601,
      "in▁the▁street▁.": 6602,
      "white▁plate▁": 6603,
      "s▁around▁a▁": 6604,
      "tables▁and▁": 6605,
      "very▁small▁": 6606,
      "stand▁.": 6607,
      "in▁front▁of▁it.": 6608,
      "used▁": 6609,
      "canop": 6610,
      "esca": 6611,
      "cupboard": 6612,
      "shorts▁is▁": 6613,
      "in▁a▁red▁shirt▁": 6614,
      "slide▁": 6615,
      "nice▁looking▁": 6616,
      "space.": 6617,
      "▁attempts▁to▁": 6618,
      "every": 6619,
      "ling▁a▁": 6620,
      "rock.": 6621,
      "putting▁a▁": 6622,
      "tory▁": 6623,
      "st▁.": 6624,
      "grilled▁": 6625,
      "posing▁for▁a▁picture.": 6626,
      "trail.": 6627,
      "Children": 6628,
      "cup▁of▁coffee.": 6629,
      "pavement▁": 6630,
      "Li": 6631,
      "platter▁": 6632,
      "board▁a▁": 6633,
      "vel": 6634,
      "down▁an▁": 6635,
      "Three▁children▁": 6636,
      "quie": 6637,
      "picture▁.": 6638,
      "skateboard▁trick▁": 6639,
      "elephants.": 6640,
      "behind▁him": 6641,
      "them.▁": 6642,
      "costumes▁": 6643,
      "stretched▁": 6644,
      "inside▁of▁it▁": 6645,
      "kneeling▁down▁": 6646,
      "size▁": 6647,
      "trolley▁": 6648,
      "freshly▁": 6649,
      "▁among": 6650,
      "thy▁": 6651,
      "in▁a▁grassy▁field.": 6652,
      "on▁the▁other▁": 6653,
      "two▁giraffes▁": 6654,
      "eled▁": 6655,
      "guid": 6656,
      "▁at▁the▁top▁of▁a▁": 6657,
      "playing▁a▁video▁game": 6658,
      "chair▁with▁a▁": 6659,
      "bare": 6660,
      "contains▁": 6661,
      "A▁little▁girl▁is▁": 6662,
      "street▁sign.": 6663,
      "laying▁down▁on▁a▁": 6664,
      "Child▁": 6665,
      "kha": 6666,
      "on▁a▁table▁with▁": 6667,
      "A▁man▁standing▁in▁front▁of▁a▁": 6668,
      "has▁many▁": 6669,
      "wall▁with▁a▁": 6670,
      "quet▁of▁": 6671,
      "ently▁": 6672,
      "A▁young▁girl▁is▁": 6673,
      "Two▁young▁girls▁": 6674,
      "on▁display.": 6675,
      "natural▁": 6676,
      "NE": 6677,
      "pet▁": 6678,
      "dock.": 6679,
      "standing▁outside▁of▁a▁": 6680,
      "playing▁in▁the▁": 6681,
      "looking▁into▁a▁": 6682,
      "musta": 6683,
      "stands▁near▁a▁": 6684,
      "orange▁and▁white▁": 6685,
      "white▁airplane▁": 6686,
      "berry▁": 6687,
      "spray▁": 6688,
      "Stu": 6689,
      "▁athle": 6690,
      "in▁a▁bathroom": 6691,
      "a▁yellow▁": 6692,
      "a▁little▁boy▁": 6693,
      "ican": 6694,
      "A▁man▁rides▁a▁": 6695,
      "that▁is▁a": 6696,
      "pictured▁": 6697,
      "cook▁": 6698,
      "shirt▁and▁tie▁": 6699,
      "Young▁girl▁": 6700,
      "A▁herd▁of▁cattle▁": 6701,
      "computer▁and▁": 6702,
      "pond.": 6703,
      "slide▁.": 6704,
      "pillows.": 6705,
      "patch▁of▁": 6706,
      "sitting▁around▁a▁table▁": 6707,
      "amic▁": 6708,
      "propeller▁": 6709,
      "martial▁arts▁": 6710,
      "infant▁": 6711,
      "Ve": 6712,
      "kin▁": 6713,
      "lamb": 6714,
      "bas": 6715,
      "woman▁.": 6716,
      "standing▁beside▁a▁": 6717,
      "umin": 6718,
      "A▁ce": 6719,
      "demon": 6720,
      "two▁children▁": 6721,
      "gular▁": 6722,
      "tower.": 6723,
      "A▁large▁clock▁": 6724,
      "way▁from▁a▁": 6725,
      "progre": 6726,
      "park▁bench": 6727,
      "roller▁": 6728,
      "camera▁while▁": 6729,
      "A▁giraffe▁is▁": 6730,
      "jacket▁.": 6731,
      "selfie▁": 6732,
      "birthday▁cake.": 6733,
      "stove,▁": 6734,
      "shower▁curtain": 6735,
      "pedestrians▁": 6736,
      "stunt▁": 6737,
      "passengers.": 6738,
      "Col": 6739,
      "bly▁": 6740,
      "in▁a▁restaurant▁": 6741,
      "hose▁": 6742,
      "▁and▁a▁girl▁": 6743,
      "move▁": 6744,
      "cargo▁": 6745,
      "kitchen▁counter▁": 6746,
      "goal▁": 6747,
      "shorel": 6748,
      "truck▁with▁a▁": 6749,
      "in▁an▁office▁": 6750,
      "ggling▁": 6751,
      "in▁his▁mouth.": 6752,
      "basket": 6753,
      "basket.": 6754,
      "man▁in▁a▁black▁": 6755,
      "cabinets": 6756,
      "boy▁and▁": 6757,
      "having▁a▁convers": 6758,
      "jeans▁and▁": 6759,
      "reflection▁of▁a▁": 6760,
      "some▁sort▁of▁": 6761,
      "napkin": 6762,
      "Ra": 6763,
      "far▁": 6764,
      "on▁stage▁.": 6765,
      "shu": 6766,
      ".▁\n": 6767,
      "camoufla": 6768,
      "lish▁": 6769,
      "▁airliner▁": 6770,
      "chili": 6771,
      "into▁the▁distan": 6772,
      "hits▁a▁": 6773,
      "friend▁": 6774,
      "equipment.": 6775,
      "trash▁can": 6776,
      "liquid▁": 6777,
      "illumin": 6778,
      "egg▁": 6779,
      "lly": 6780,
      "local▁": 6781,
      "ses▁a▁": 6782,
      ",▁in▁a▁": 6783,
      "woman▁with▁": 6784,
      "standing▁by▁": 6785,
      "cobble": 6786,
      "A▁con": 6787,
      "table▁and▁a▁": 6788,
      "holding▁their▁": 6789,
      "lights▁and▁": 6790,
      "kitchen▁counter.": 6791,
      "close▁to▁the▁": 6792,
      "a▁person▁holding▁a▁": 6793,
      "blurry▁": 6794,
      "interior▁": 6795,
      "displayed▁on▁": 6796,
      "urinal": 6797,
      "A▁batter": 6798,
      "canoe▁": 6799,
      "themselves▁": 6800,
      "spar": 6801,
      "▁apple▁": 6802,
      "tag▁": 6803,
      "with▁a▁sky▁": 6804,
      "ves▁a▁": 6805,
      "people▁and▁a▁": 6806,
      "beach▁with▁": 6807,
      "d▁area▁": 6808,
      "stand▁in▁front▁of▁a▁": 6809,
      "sleeps▁": 6810,
      "hanging▁from▁": 6811,
      "A▁stop▁sign": 6812,
      "A▁tennis▁player▁is▁": 6813,
      "building▁with▁a▁clock▁": 6814,
      "chocolate▁cake▁": 6815,
      "harbor": 6816,
      "folded▁": 6817,
      "patterned▁": 6818,
      "soccer.": 6819,
      "magne": 6820,
      "long-slee": 6821,
      "EN▁": 6822,
      "na▁": 6823,
      "lie▁": 6824,
      "down▁a▁street▁": 6825,
      "sits▁on▁": 6826,
      "sit▁on▁the▁": 6827,
      "tall▁grass.": 6828,
      "soccer▁ball▁.": 6829,
      "microscop": 6830,
      "toppings▁": 6831,
      "shirt▁and▁white▁": 6832,
      "wheels▁": 6833,
      "match": 6834,
      "parking▁meter.": 6835,
      "tray▁of▁": 6836,
      "towels▁": 6837,
      "a▁young▁boy▁": 6838,
      "pulling▁into▁a▁": 6839,
      "peppers": 6840,
      "lamp.": 6841,
      "Cou": 6842,
      "A▁skier▁is▁": 6843,
      "mate▁": 6844,
      "robe": 6845,
      "wilder": 6846,
      "raf": 6847,
      "a▁bath▁": 6848,
      "in▁the▁wild": 6849,
      "The▁person▁is▁": 6850,
      "s▁along▁": 6851,
      "behind.": 6852,
      "phones.": 6853,
      "d▁around▁": 6854,
      "wall.▁": 6855,
      "buildings▁and▁": 6856,
      "A▁couple▁of▁women▁": 6857,
      "eating▁from▁a▁": 6858,
      "hair▁.": 6859,
      "is▁standing▁in▁front▁of▁a▁": 6860,
      "drinks.": 6861,
      "stare": 6862,
      "pole▁.": 6863,
      "rock▁.": 6864,
      "outside.▁": 6865,
      "A▁wooden▁table▁": 6866,
      "dimly▁lit▁": 6867,
      "gran": 6868,
      "in▁a▁room": 6869,
      "a▁brown▁": 6870,
      "pad": 6871,
      "walking▁by▁a▁": 6872,
      "backdro": 6873,
      "eating.": 6874,
      "A▁dog▁that▁is▁": 6875,
      "soccer▁ball": 6876,
      "Some▁very▁": 6877,
      "clouds▁": 6878,
      "in▁its▁mouth.": 6879,
      "touching▁": 6880,
      "equipment▁.": 6881,
      "circular▁": 6882,
      "protective▁": 6883,
      "daughter▁": 6884,
      "on▁a": 6885,
      "sitting▁in▁front▁of▁": 6886,
      "tram": 6887,
      "trash": 6888,
      "forward▁": 6889,
      "skis▁and▁": 6890,
      "sign▁is▁": 6891,
      "bank▁": 6892,
      "maro": 6893,
      "runner▁": 6894,
      "swinging▁": 6895,
      "skate▁board.": 6896,
      "pictures▁of▁": 6897,
      "laying▁on▁a▁bed▁": 6898,
      "oranges.": 6899,
      "jet▁flying▁": 6900,
      "fireplace▁": 6901,
      "trunk.": 6902,
      "stream▁": 6903,
      "print▁": 6904,
      "stadium▁": 6905,
      "resor": 6906,
      "lady": 6907,
      "strange▁": 6908,
      "A▁man▁in▁an▁orange▁": 6909,
      "sitting▁near▁a▁": 6910,
      "Two▁kids▁": 6911,
      "person.": 6912,
      "plates.": 6913,
      "A▁group▁of▁elephants▁": 6914,
      "tennis▁player": 6915,
      "side.▁": 6916,
      "shirt▁holding▁a▁": 6917,
      "on▁top▁of▁a▁surfboard.": 6918,
      "bus▁that▁is▁": 6919,
      "windows▁": 6920,
      "child▁are▁": 6921,
      "A▁man▁in▁a▁blue▁shirt▁": 6922,
      "over▁some▁": 6923,
      "marath": 6924,
      "jockey▁": 6925,
      "Frisbee": 6926,
      "A▁man▁on▁a▁surfboard▁": 6927,
      "A▁baby▁elephant▁": 6928,
      "lit▁up▁": 6929,
      "cream": 6930,
      "WITH▁A▁": 6931,
      "up▁the▁side▁of▁a▁": 6932,
      "on▁a▁cloudy▁day.": 6933,
      "bus▁stop.": 6934,
      "overlooking▁the▁": 6935,
      "ka▁do": 6936,
      "SE▁": 6937,
      "A▁road▁": 6938,
      "A▁double▁": 6939,
      "on▁a▁desk▁": 6940,
      "wading▁": 6941,
      "with▁a▁big▁": 6942,
      "people▁.": 6943,
      "A▁coun": 6944,
      "boarding▁": 6945,
      "laying▁next▁to▁a▁": 6946,
      "batting▁": 6947,
      "sits▁on▁a▁bench▁": 6948,
      "brick▁building▁": 6949,
      "string▁": 6950,
      "sunny▁day.": 6951,
      "pond▁": 6952,
      "pose▁for▁a▁picture▁": 6953,
      "setting▁.": 6954,
      "CH▁": 6955,
      "desktop▁computer▁": 6956,
      "sitting▁on▁the▁side▁of▁a▁road.": 6957,
      "members▁": 6958,
      "hitting▁a▁tennis▁ball▁with▁a▁": 6959,
      "tennis▁racquet▁on▁a▁tennis▁court.": 6960,
      "double-decker▁": 6961,
      "A▁fa": 6962,
      "on▁horses▁": 6963,
      "ching▁the▁": 6964,
      "in▁a▁room▁with▁": 6965,
      "pe.": 6966,
      "hay.": 6967,
      "A▁cow": 6968,
      "A▁woman▁standing▁on▁a▁": 6969,
      "ful": 6970,
      "player▁is▁": 6971,
      "laying▁on▁the▁ground▁": 6972,
      "embra": 6973,
      "truck▁with▁": 6974,
      "sit▁at▁a▁": 6975,
      "of▁an▁elephant▁": 6976,
      "basket▁of▁": 6977,
      "A▁man▁in▁blue▁": 6978,
      "A▁very▁large▁": 6979,
      "cabinets▁": 6980,
      "pitching▁a▁": 6981,
      "potato▁": 6982,
      "background▁.": 6983,
      "ROOM▁": 6984,
      "ast▁": 6985,
      "litt": 6986,
      "ar.": 6987,
      "on▁them.": 6988,
      "tasty▁": 6989,
      "playground▁.": 6990,
      "tables.": 6991,
      "sal": 6992,
      "saying▁": 6993,
      "wooden▁floor": 6994,
      "scat": 6995,
      "sink,▁and▁": 6996,
      "in▁an▁enclosure.": 6997,
      "carry": 6998,
      "smiling▁at▁the▁": 6999,
      "hat▁and▁a▁": 7000,
      "looks▁like▁a▁": 7001,
      "snowboarding▁down▁a▁": 7002,
      "surrounding▁": 7003,
      "sandwich▁and▁a▁": 7004,
      "tourist": 7005,
      "bottom▁of▁a▁": 7006,
      "what▁appears▁to▁be▁a▁": 7007,
      "catcher▁and▁umpire▁": 7008,
      "flies▁a▁": 7009,
      "Big▁B": 7010,
      "delicious▁": 7011,
      "pump": 7012,
      "set": 7013,
      "which": 7014,
      "motorbike▁": 7015,
      "duck": 7016,
      "cordi": 7017,
      "telescop": 7018,
      "miss": 7019,
      "sitting▁on▁some▁": 7020,
      "shelve": 7021,
      "soda▁": 7022,
      "An▁older▁woman▁": 7023,
      "helmet▁is▁": 7024,
      "post.": 7025,
      "fountain": 7026,
      "urinals▁": 7027,
      "▁appliances.": 7028,
      "charac": 7029,
      "A▁cute▁": 7030,
      "jar▁": 7031,
      "o.": 7032,
      "uto": 7033,
      "▁amoun": 7034,
      "rack.": 7035,
      "rist▁": 7036,
      "standing▁by▁the▁": 7037,
      "next▁to▁it": 7038,
      "A▁large▁elephant▁": 7039,
      "teen▁": 7040,
      "behind▁him▁": 7041,
      "hot▁dog.": 7042,
      "enclosed▁": 7043,
      "scaff": 7044,
      "stretching▁": 7045,
      "toaster▁": 7046,
      "connected▁": 7047,
      "barbecu": 7048,
      "mattre": 7049,
      "tool": 7050,
      "ched": 7051,
      "a▁bird▁": 7052,
      "in▁the▁mid": 7053,
      "urban": 7054,
      "Two▁birds▁": 7055,
      "grabb": 7056,
      "rusted▁": 7057,
      "look▁at▁a▁": 7058,
      "water▁from▁a▁": 7059,
      "from▁an▁": 7060,
      "bar.": 7061,
      "polka▁do": 7062,
      "parking▁meters▁": 7063,
      "sailing▁": 7064,
      "green▁and▁yellow▁": 7065,
      "knife▁and▁": 7066,
      "cree": 7067,
      "ming": 7068,
      "mple▁": 7069,
      "A▁black": 7070,
      "A▁stuffed▁": 7071,
      "A▁view▁of▁": 7072,
      "lass": 7073,
      "sters▁": 7074,
      "a▁kid▁": 7075,
      "lding▁": 7076,
      "on▁the▁wall▁": 7077,
      "playing▁video▁game": 7078,
      "bikers▁": 7079,
      "tower": 7080,
      "outside▁the▁": 7081,
      "league▁": 7082,
      "hydrant▁": 7083,
      "plate▁of▁food.": 7084,
      "interac": 7085,
      "speci": 7086,
      "busy▁street.": 7087,
      "girl▁and▁": 7088,
      "blue▁and▁red▁": 7089,
      "grand": 7090,
      "figure▁": 7091,
      "PLAYING▁": 7092,
      "Kids▁": 7093,
      "inflatable▁": 7094,
      "demonstra": 7095,
      "City▁": 7096,
      "blin": 7097,
      "et": 7098,
      "on▁a▁couch▁": 7099,
      "with▁flowers▁": 7100,
      "with▁a▁sign▁": 7101,
      "button▁": 7102,
      "white▁toilet▁": 7103,
      "tusk": 7104,
      "viol": 7105,
      "running▁through▁a▁": 7106,
      "workers▁are▁": 7107,
      "hanging▁out▁": 7108,
      "ances▁": 7109,
      "tub▁and▁": 7110,
      "A▁guy▁is▁": 7111,
      "s▁as▁she▁": 7112,
      "TOP▁": 7113,
      "vanity▁": 7114,
      "in▁mid▁air▁": 7115,
      "in▁the▁distance▁": 7116,
      "bandoned▁": 7117,
      "Stop▁": 7118,
      "Yor": 7119,
      "tid": 7120,
      "▁and▁holding▁a▁": 7121,
      "on▁a▁road▁": 7122,
      "calf▁": 7123,
      "carni": 7124,
      "s▁are▁lined▁up▁": 7125,
      "walking▁with▁a▁": 7126,
      "A▁young▁woman▁is▁": 7127,
      "A▁bir": 7128,
      "wearing▁a▁yellow▁": 7129,
      "lighthou": 7130,
      "catt": 7131,
      "help▁": 7132,
      "curtain▁": 7133,
      "near▁the▁water.": 7134,
      "cake.▁": 7135,
      "refigh": 7136,
      "in▁her▁hand": 7137,
      "plays▁the▁": 7138,
      "Bath": 7139,
      "on▁a▁white▁plate.": 7140,
      "STAN": 7141,
      "men▁and▁women▁": 7142,
      "Sheep▁": 7143,
      "tly": 7144,
      "ue▁": 7145,
      "ze▁": 7146,
      "of▁two▁": 7147,
      "on▁a▁baseball▁field.": 7148,
      "a▁female▁": 7149,
      "in▁the▁kitchen.": 7150,
      "standing▁with▁": 7151,
      "holds▁an▁": 7152,
      "ss▁of▁": 7153,
      "▁at▁a▁table.": 7154,
      "stora": 7155,
      "child's▁": 7156,
      "piece": 7157,
      "s▁on▁her▁": 7158,
      "standing▁in▁a▁kitchen▁": 7159,
      "laptop,▁": 7160,
      "houses▁": 7161,
      "typing▁": 7162,
      "dining▁table.": 7163,
      "on▁a▁wooden▁table.": 7164,
      "vanit": 7165,
      "Close▁": 7166,
      "Male▁": 7167,
      "We▁are▁": 7168,
      "freezer▁": 7169,
      "Food▁": 7170,
      "Brown▁": 7171,
      "SU": 7172,
      "Train▁": 7173,
      "here▁": 7174,
      "zy▁": 7175,
      "on▁snow▁": 7176,
      "ates▁": 7177,
      "wel": 7178,
      "haw": 7179,
      "goat▁": 7180,
      "near▁many▁": 7181,
      "on▁his▁skateboard▁": 7182,
      "juic": 7183,
      "book▁.": 7184,
      "One▁man▁": 7185,
      "A▁crowded▁": 7186,
      "shoulder": 7187,
      "tree▁branch.": 7188,
      "separate▁": 7189,
      "A▁man▁flying▁through▁the▁air▁while▁riding▁a▁": 7190,
      "twin▁": 7191,
      "thick▁": 7192,
      "Banan": 7193,
      "on▁the▁water.": 7194,
      "on▁the▁edge▁of▁a▁": 7195,
      "coast": 7196,
      "rows▁of▁": 7197,
      "next▁to▁a▁building.": 7198,
      "cut▁a▁": 7199,
      "heal": 7200,
      "city▁street▁with▁": 7201,
      "snowboarding▁": 7202,
      "tower▁with▁a▁clock▁": 7203,
      "enjoy▁": 7204,
      "A▁brown▁horse▁": 7205,
      "candles.": 7206,
      "swimming▁in▁a▁": 7207,
      "hair.": 7208,
      "layer▁": 7209,
      "his▁arm▁": 7210,
      "remote▁control.": 7211,
      "habitat": 7212,
      "ry": 7213,
      "in▁progre": 7214,
      "of▁some▁sor": 7215,
      "peel": 7216,
      ",▁both▁": 7217,
      "Two▁girls▁are▁": 7218,
      "cart▁.": 7219,
      "bathroom▁sink▁": 7220,
      "umbrellas": 7221,
      "desk▁and▁": 7222,
      "ski▁slope▁": 7223,
      "counter▁top.": 7224,
      "tro▁": 7225,
      "skiing▁down▁a▁snowy▁": 7226,
      "finished▁": 7227,
      "udience▁.": 7228,
      "sausage": 7229,
      "▁artist▁": 7230,
      "second▁": 7231,
      "A▁middle-aged▁": 7232,
      "lab▁": 7233,
      "stal▁": 7234,
      "man▁'s▁": 7235,
      "A▁woman▁standing▁next▁to▁a▁": 7236,
      "confer": 7237,
      "bus▁driving▁down▁a▁": 7238,
      "horse▁.": 7239,
      "that's▁": 7240,
      "langu": 7241,
      "portra": 7242,
      "A▁street▁scene▁": 7243,
      "hooded▁": 7244,
      "parade▁.": 7245,
      "tallic▁": 7246,
      "sitting▁on▁top▁of▁an▁airport▁": 7247,
      "consisting▁": 7248,
      "where▁a▁": 7249,
      "bble▁": 7250,
      "on▁a▁grassy▁": 7251,
      "to▁eat▁": 7252,
      "to▁get▁": 7253,
      "happi": 7254,
      "getting▁a▁": 7255,
      "young▁children▁": 7256,
      "down▁.": 7257,
      "water▁with▁": 7258,
      "sandals▁": 7259,
      "cats▁are▁": 7260,
      "mouse▁and▁": 7261,
      "on▁his▁skateboard.": 7262,
      "on▁an▁outdoor▁": 7263,
      "instrument▁": 7264,
      "Black▁and▁white▁photograph▁of▁a▁": 7265,
      "A▁hand▁holding▁a▁": 7266,
      "taxi▁": 7267,
      "blond-hair▁": 7268,
      "Adul": 7269,
      "cone▁": 7270,
      "ized▁": 7271,
      "in▁a▁dark▁": 7272,
      "ts▁on▁a▁": 7273,
      "hip": 7274,
      "bathroom▁sink.": 7275,
      "signs.": 7276,
      "plane▁is▁": 7277,
      "outside▁of▁": 7278,
      "behind▁her▁.": 7279,
      "longside▁a▁": 7280,
      "white▁and▁red▁": 7281,
      "pool.": 7282,
      "poster▁": 7283,
      "ITE▁": 7284,
      "toothbrush.": 7285,
      "suppl": 7286,
      "neckla": 7287,
      "helping▁a▁": 7288,
      "listening▁to▁": 7289,
      "dorable▁": 7290,
      "umpire": 7291,
      "A▁chef▁": 7292,
      "sts▁": 7293,
      "in▁the▁park.": 7294,
      "A▁cro": 7295,
      "A▁woman▁stands▁": 7296,
      "ball▁in▁a▁": 7297,
      "A▁group▁of▁zebras▁": 7298,
      "nearby": 7299,
      "old▁fashioned▁": 7300,
      "from▁his▁": 7301,
      "dispen": 7302,
      "▁atta": 7303,
      "highway.": 7304,
      "naked▁": 7305,
      "rocks▁.": 7306,
      "A▁close▁up▁of▁": 7307,
      "circle▁": 7308,
      "features▁": 7309,
      "Snow": 7310,
      "FF": 7311,
      "GH": 7312,
      "brow": 7313,
      "ee▁": 7314,
      "mom": 7315,
      "py▁": 7316,
      "A▁collection▁of▁": 7317,
      "roccoli": 7318,
      "in▁the▁back▁of▁a▁": 7319,
      "Two▁sheep▁": 7320,
      "puddle▁": 7321,
      "that▁is▁flying▁": 7322,
      "plant.": 7323,
      "riding▁a▁bicycle▁": 7324,
      "down▁the▁street": 7325,
      "A▁small▁girl▁": 7326,
      "in▁an▁enclosure▁": 7327,
      "tall▁grass▁": 7328,
      "dirt▁field.": 7329,
      "with▁an▁umbrella": 7330,
      "roadway▁": 7331,
      "cutting▁board": 7332,
      "carrots.": 7333,
      "facing▁the▁": 7334,
      "A▁pizza▁sitting▁on▁top▁of▁a▁": 7335,
      "lays▁on▁a▁": 7336,
      "individuals▁": 7337,
      "Man▁and▁woman▁": 7338,
      "nur": 7339,
      "A▁public▁": 7340,
      "ch▁and▁": 7341,
      "a▁horse▁": 7342,
      "of▁a▁man▁": 7343,
      "with▁a▁frisbee▁": 7344,
      "icop": 7345,
      "tile": 7346,
      "desk.▁": 7347,
      "press": 7348,
      "chair,▁": 7349,
      "brick": 7350,
      "wine▁glasses▁": 7351,
      "s▁as▁they▁": 7352,
      "intersection▁with▁": 7353,
      "seagull▁": 7354,
      "festival▁": 7355,
      "trampo": 7356,
      "AIR": 7357,
      "GE▁": 7358,
      "ef": 7359,
      "without▁": 7360,
      "form▁.": 7361,
      "tter.": 7362,
      "jumbo▁": 7363,
      "wooden▁table▁": 7364,
      "cat▁sitting▁on▁a▁": 7365,
      "looking▁through▁a▁": 7366,
      "wall▁and▁": 7367,
      "s▁on▁their▁": 7368,
      "vegetables": 7369,
      "stairs.": 7370,
      "multi▁": 7371,
      "bath▁tub▁": 7372,
      "pool▁of▁": 7373,
      "riding▁skis▁on▁a▁snowy▁": 7374,
      "lap▁top▁": 7375,
      "steps▁.": 7376,
      "weather▁": 7377,
      "instruments▁.": 7378,
      "tice▁": 7379,
      "A▁M": 7380,
      "A▁microwave▁": 7381,
      "lane": 7382,
      "baking▁": 7383,
      "order▁": 7384,
      "a▁couple▁": 7385,
      "with▁a▁cat▁": 7386,
      "on▁the▁table▁": 7387,
      "car.▁": 7388,
      "cars▁are▁": 7389,
      "while▁his▁": 7390,
      "comes▁": 7391,
      "walkway.": 7392,
      "bus▁is▁parked▁": 7393,
      "A▁man▁in▁a▁gray▁": 7394,
      "shot▁of▁": 7395,
      "dress▁and▁": 7396,
      "A▁couple▁of▁giraffe▁": 7397,
      "waiting▁at▁a▁": 7398,
      "refrigerator▁and▁": 7399,
      "eating▁a▁piece▁of▁": 7400,
      "es,▁and▁": 7401,
      "AR▁": 7402,
      "hoodie▁": 7403,
      "knee▁": 7404,
      "stick▁.": 7405,
      "cut▁in▁half▁": 7406,
      "fabric▁": 7407,
      "dvertise": 7408,
      "odd▁": 7409,
      "UP▁": 7410,
      "A▁se": 7411,
      "is▁sitting▁in▁a▁": 7412,
      "unk▁": 7413,
      "on▁the▁grass.": 7414,
      "paw▁": 7415,
      "The▁dog▁": 7416,
      "eat▁a▁": 7417,
      "computer▁keyboard.": 7418,
      "walking▁across▁the▁": 7419,
      "Four▁people▁are▁": 7420,
      "parked▁at▁the▁": 7421,
      "in▁the▁woods▁.": 7422,
      "Little▁girl▁": 7423,
      "clouds.": 7424,
      "US": 7425,
      "cid": 7426,
      "ing▁an": 7427,
      "A▁box▁": 7428,
      "toy.": 7429,
      "radi": 7430,
      "a▁bathroom▁": 7431,
      "a▁very▁": 7432,
      "a▁bear▁": 7433,
      "butter": 7434,
      "cage▁": 7435,
      "move": 7436,
      "tennis▁match.": 7437,
      "baseball▁players▁are▁": 7438,
      "dusk": 7439,
      "many▁different▁": 7440,
      "An▁animal▁": 7441,
      "laptop.▁": 7442,
      "ther▁and▁": 7443,
      "pair▁of▁scissor": 7444,
      "food.▁": 7445,
      "contains▁a▁": 7446,
      "doing▁a▁trick": 7447,
      "wards▁": 7448,
      "cut▁into▁": 7449,
      "slides▁": 7450,
      "bunk▁": 7451,
      "control▁": 7452,
      "cowboy▁hat▁": 7453,
      "a▁couple▁of▁people▁that▁are▁": 7454,
      "stool▁": 7455,
      "dump▁": 7456,
      "THIS▁IS▁A▁": 7457,
      "Can": 7458,
      "gate": 7459,
      "playground▁": 7460,
      "The▁kitchen▁": 7461,
      "design▁": 7462,
      "A▁group▁of▁four▁": 7463,
      "stall.": 7464,
      "buildings▁.": 7465,
      "panese▁": 7466,
      "softball▁": 7467,
      "construction▁workers▁": 7468,
      "shion▁": 7469,
      "pieces▁": 7470,
      "balloon▁": 7471,
      "laid▁out▁": 7472,
      "fluffy▁": 7473,
      "neighborhoo": 7474,
      "Pizza▁": 7475,
      "LI": 7476,
      "cy▁": 7477,
      "▁ab": 7478,
      "thers▁": 7479,
      "A▁building▁": 7480,
      "A▁television▁": 7481,
      "A▁tan▁": 7482,
      "robe▁": 7483,
      "place▁.": 7484,
      "tag": 7485,
      "Two▁older▁": 7486,
      "ing▁area.": 7487,
      "The▁three▁": 7488,
      "pher": 7489,
      "desc": 7490,
      "An▁old": 7491,
      "wooded▁": 7492,
      "trees▁and▁a▁": 7493,
      "phone▁while▁": 7494,
      "herd▁": 7495,
      "white.": 7496,
      "flat": 7497,
      "helicop": 7498,
      "A▁man▁riding▁a▁snowboard▁": 7499,
      "A▁person▁on▁a▁surfboard▁": 7500,
      "on▁a▁table.▁": 7501,
      "guitar▁and▁": 7502,
      "framed▁": 7503,
      "reads▁a▁": 7504,
      "pepperoni": 7505,
      "police▁officers▁": 7506,
      "rope▁.": 7507,
      "SID": 7508,
      "raised▁": 7509,
      "Eu": 7510,
      "is▁filled▁with▁": 7511,
      "loy": 7512,
      "hold▁a▁": 7513,
      "people▁in▁": 7514,
      "waters▁": 7515,
      "The▁boy▁is▁": 7516,
      "really▁": 7517,
      "down▁on▁a▁": 7518,
      "swing.": 7519,
      "nap▁": 7520,
      "restaurant.▁": 7521,
      "snowboarders▁": 7522,
      "dress▁.": 7523,
      "eye": 7524,
      "coat▁is▁": 7525,
      "wire▁fence.": 7526,
      "structure▁.": 7527,
      "Sa": 7528,
      "s▁her▁": 7529,
      "A▁toy▁": 7530,
      "on▁an▁a": 7531,
      "without▁a▁": 7532,
      "is▁displayed▁": 7533,
      "on▁a▁bike▁": 7534,
      "a▁street▁sign▁": 7535,
      "cau": 7536,
      "polo▁": 7537,
      "A▁group▁of▁giraffes▁": 7538,
      "A▁bright▁": 7539,
      "up▁at▁a▁": 7540,
      "standing▁on▁a▁beach▁": 7541,
      "umbrella▁.": 7542,
      "ski▁lif": 7543,
      "railway▁": 7544,
      "ERS": 7545,
      "counter▁top▁": 7546,
      "racquet▁": 7547,
      "talking▁on▁a▁cell▁phone▁": 7548,
      "beverage": 7549,
      "Giraffe▁": 7550,
      "nicely▁": 7551,
      "peeking▁": 7552,
      "squatting▁": 7553,
      "▁amount▁of▁": 7554,
      "ky▁": 7555,
      "kno": 7556,
      "A▁fire▁": 7557,
      "tossing▁a▁": 7558,
      "on▁a▁road.": 7559,
      "A▁man▁dressed▁in▁": 7560,
      "lum": 7561,
      "one▁way▁": 7562,
      "gall": 7563,
      "next▁to▁a▁white▁": 7564,
      "card▁": 7565,
      "corn▁": 7566,
      "passing▁a▁": 7567,
      "mountains▁.": 7568,
      "in▁his▁mouth": 7569,
      "A▁little▁boy▁is▁": 7570,
      "reflected▁": 7571,
      "OUN": 7572,
      "heart▁": 7573,
      "loung": 7574,
      "African▁American▁": 7575,
      "entertainment▁": 7576,
      "leafy▁": 7577,
      "ring": 7578,
      "ery.": 7579,
      "ery▁.": 7580,
      "net.": 7581,
      "up▁to▁the▁": 7582,
      "A▁woman▁standing▁": 7583,
      "next▁to▁a▁▁": 7584,
      "carts▁": 7585,
      "A▁group▁of▁people▁standing▁around▁a▁": 7586,
      "boat▁on▁a▁": 7587,
      "train▁at▁a▁": 7588,
      "skate▁park▁": 7589,
      "struction": 7590,
      "There▁are▁three▁": 7591,
      "shirts▁are▁": 7592,
      "beach.▁": 7593,
      "glasses": 7594,
      "Young▁man▁": 7595,
      "sitting▁in▁the▁grass▁": 7596,
      "on▁the▁side▁of▁a▁road.": 7597,
      "railroad▁track": 7598,
      "A▁blond▁woman▁": 7599,
      "▁appliances▁and▁": 7600,
      "A▁women▁who▁is▁": 7601,
      "ICT": 7602,
      "booth▁": 7603,
      "goats▁": 7604,
      "New▁Yor": 7605,
      "Color": 7606,
      "camouflage▁": 7607,
      "a▁bath▁room▁with▁a▁": 7608,
      "CK": 7609,
      "TS▁": 7610,
      "cing▁": 7611,
      "into▁an▁": 7612,
      "A▁kitchen": 7613,
      "stro": 7614,
      "on▁a▁tennis▁court▁": 7615,
      "ors▁": 7616,
      "in▁a▁restaurant.": 7617,
      "shie": 7618,
      "A▁man▁riding▁on▁the▁back▁of▁a▁": 7619,
      "on▁the▁sidewalk": 7620,
      "ing▁at▁an▁": 7621,
      "wearing▁glasses▁": 7622,
      "women▁in▁": 7623,
      "fire▁.": 7624,
      "unique▁": 7625,
      "posing▁with▁a▁": 7626,
      "catcher": 7627,
      "by▁the▁water.": 7628,
      "sleeping▁in▁a▁": 7629,
      "monitor.": 7630,
      "posing▁for▁a▁picture": 7631,
      "sandwich,▁": 7632,
      "under▁an▁umbrella.": 7633,
      "lounge▁": 7634,
      "beneath▁": 7635,
      "docked": 7636,
      "coach▁": 7637,
      "Green▁": 7638,
      "cobblestone▁": 7639,
      "A▁food▁": 7640,
      "on▁a▁street": 7641,
      "in▁a▁living▁room": 7642,
      "a▁zebra▁": 7643,
      "on▁the▁back▁": 7644,
      "pot.": 7645,
      "while▁other▁": 7646,
      "near▁a▁building.": 7647,
      "milk▁": 7648,
      "flying▁kit": 7649,
      "skateboarders▁": 7650,
      "older▁man▁": 7651,
      "cell▁phones▁": 7652,
      "wine▁glass▁": 7653,
      "A▁herd▁of▁zebra▁": 7654,
      "ear.": 7655,
      "branch.": 7656,
      "fence▁and▁": 7657,
      "in▁a▁white▁shirt▁": 7658,
      "tiled▁floor": 7659,
      "in▁a▁small▁room.": 7660,
      "garden": 7661,
      "yellow▁and▁red▁": 7662,
      "presen": 7663,
      "blonde▁": 7664,
      "WOMAN▁": 7665,
      "stroller▁": 7666,
      "thumbs▁": 7667,
      "escala": 7668,
      "is▁at▁a▁": 7669,
      "nintendo▁": 7670,
      "A▁dirty▁": 7671,
      "A▁living▁area▁": 7672,
      "on▁a▁rainy▁": 7673,
      "The▁lady▁": 7674,
      "front": 7675,
      "playing▁Wii▁": 7676,
      "skies▁": 7677,
      "gue": 7678,
      "Three▁zebras▁": 7679,
      "empty": 7680,
      "off▁of▁": 7681,
      "skis▁in▁the▁snow.": 7682,
      "standing▁in▁the▁snow.": 7683,
      "A▁young▁man▁holding▁a▁": 7684,
      "stares▁": 7685,
      "next▁to▁the▁ocean.": 7686,
      "pillow.": 7687,
      "with▁trees▁in▁the▁background": 7688,
      "party▁.": 7689,
      "rodeo▁": 7690,
      "Skateboarder▁": 7691,
      "caught▁": 7692,
      "WAL": 7693,
      "able▁": 7694,
      "ces▁": 7695,
      "lit": 7696,
      "A▁D": 7697,
      "A▁police▁officer▁": 7698,
      "ong▁": 7699,
      "is▁the▁": 7700,
      "A▁man▁sitting▁": 7701,
      "gestu": 7702,
      "one▁of▁the▁": 7703,
      "ttle▁": 7704,
      "stage": 7705,
      "overa": 7706,
      "emer": 7707,
      "cat▁laying▁on▁a▁": 7708,
      "A▁small▁white▁": 7709,
      "bed▁.": 7710,
      "woman's▁": 7711,
      "walking▁around▁a▁": 7712,
      "juice▁": 7713,
      "step▁": 7714,
      "yellow▁and▁white▁": 7715,
      "buses▁parked▁": 7716,
      "Cars▁": 7717,
      "chain▁l": 7718,
      "maroon▁": 7719,
      "AM": 7720,
      "xe": 7721,
      "A▁light▁": 7722,
      "chand": 7723,
      "on▁a▁brick▁": 7724,
      "on▁a▁track▁": 7725,
      "on▁a▁skate▁board▁": 7726,
      "with▁umbrellas▁": 7727,
      "A▁man▁sits▁": 7728,
      "on▁the▁road▁": 7729,
      "ies": 7730,
      "The▁tennis▁player▁": 7731,
      "front▁of▁": 7732,
      "while▁the▁other▁": 7733,
      "fair▁": 7734,
      "ative▁": 7735,
      "course▁": 7736,
      "▁at▁his▁": 7737,
      "bananas": 7738,
      "door▁.": 7739,
      "prepares▁": 7740,
      "bird▁is▁": 7741,
      "clutter": 7742,
      "flowered▁": 7743,
      "photographer▁": 7744,
      "bags▁of▁": 7745,
      "staring▁at▁a▁": 7746,
      "sweater▁is▁": 7747,
      "▁as▁a▁man▁": 7748,
      "ceramic▁": 7749,
      "▁adjust": 7750,
      "glass▁of▁wine.": 7751,
      "bath▁tub": 7752,
      "tropical▁": 7753,
      "fenced▁in▁": 7754,
      "fork▁and▁": 7755,
      "tattoo▁": 7756,
      "cheese,▁": 7757,
      "complete▁": 7758,
      "pastries▁": 7759,
      "STANDING▁": 7760,
      "tin▁": 7761,
      "things▁": 7762,
      "A▁snowboarder▁is▁": 7763,
      "▁an▁air▁": 7764,
      "on▁the▁field▁": 7765,
      "kee": 7766,
      "skii": 7767,
      "zebras▁in▁a▁": 7768,
      "handle▁": 7769,
      "game▁controller.": 7770,
      "sunglasses▁and▁a▁": 7771,
      "shape": 7772,
      "▁arch": 7773,
      "helping▁": 7774,
      "exer": 7775,
      "navy▁": 7776,
      "clown▁": 7777,
      "man▁in▁a▁blue▁": 7778,
      "glass▁of▁wine▁": 7779,
      "A▁white▁plate▁topped▁with▁a▁": 7780,
      "A▁shirtless▁man▁": 7781,
      "though": 7782,
      "crying▁": 7783,
      "obstacle▁": 7784,
      "Female▁": 7785,
      "Kitch": 7786,
      "ingredients▁": 7787,
      "Un": 7788,
      "mers▁": 7789,
      "slightly▁": 7790,
      "retri": 7791,
      "on▁grass▁": 7792,
      "in▁a▁city": 7793,
      "Two▁zebra▁": 7794,
      "camp": 7795,
      "grab": 7796,
      "A▁woman▁holds▁a▁": 7797,
      "young▁boys▁": 7798,
      "plate▁and▁": 7799,
      "cart.": 7800,
      "mans▁": 7801,
      "sides.": 7802,
      "chal": 7803,
      "looking▁out▁a▁": 7804,
      "kiss": 7805,
      "engin": 7806,
      "hillside▁": 7807,
      "ears▁": 7808,
      "holding▁an▁umbrella": 7809,
      "A▁man▁with▁glasses▁": 7810,
      "practice▁": 7811,
      "scarf": 7812,
      "bathing▁suit▁": 7813,
      "organized▁": 7814,
      "Blue▁": 7815,
      "PHO": 7816,
      "ds.": 7817,
      "jean▁": 7818,
      "A▁gray": 7819,
      "main": 7820,
      "stir": 7821,
      "with▁different▁": 7822,
      "A▁man▁walks▁": 7823,
      "ar▁to▁be▁": 7824,
      "red▁shirt▁": 7825,
      "A▁clu": 7826,
      "reak": 7827,
      "while▁playing▁": 7828,
      "sub▁": 7829,
      "train▁car▁": 7830,
      "train▁engine▁": 7831,
      "sign▁that▁says▁": 7832,
      "mound▁": 7833,
      "▁at▁the▁beach▁.": 7834,
      "bedroom": 7835,
      "hill.▁": 7836,
      "curled▁up▁": 7837,
      "boy▁are▁": 7838,
      "A▁bus▁is▁": 7839,
      "pose▁for▁a▁": 7840,
      "on▁the▁side▁of▁the▁road▁": 7841,
      "rubber▁": 7842,
      "A▁close-up▁of▁a▁": 7843,
      "STREET▁": 7844,
      "Su": 7845,
      "cop": 7846,
      "t▁are▁": 7847,
      "on▁tracks▁": 7848,
      "ouse▁": 7849,
      "a▁green▁": 7850,
      "in▁the▁street": 7851,
      "in▁the▁park▁": 7852,
      "coho": 7853,
      "▁and▁a▁black▁": 7854,
      "The▁little▁girl▁": 7855,
      "A▁group▁of▁sheep▁": 7856,
      "image": 7857,
      "emon": 7858,
      "with▁his▁head▁": 7859,
      "▁attra": 7860,
      "mill": 7861,
      "food▁at▁a▁": 7862,
      "▁apples▁and▁": 7863,
      "jump.": 7864,
      "center": 7865,
      "playing▁a▁game▁of▁tennis.": 7866,
      "slice▁of▁pizza.": 7867,
      "chopped▁": 7868,
      "in▁the▁foreground▁": 7869,
      "concert▁.": 7870,
      "that▁includes▁": 7871,
      "karate▁": 7872,
      "khaki▁": 7873,
      "four": 7874,
      "ian▁": 7875,
      "A▁kitten▁": 7876,
      "in▁hand": 7877,
      "▁and▁the▁other▁": 7878,
      "growing▁": 7879,
      "A▁group▁of▁kids▁": 7880,
      "tennis▁match▁": 7881,
      "A▁blurry▁": 7882,
      "fries▁": 7883,
      "lighted▁": 7884,
      "riding▁bikes▁": 7885,
      "A▁large▁jetliner▁": 7886,
      "▁an▁adult▁": 7887,
      "monum": 7888,
      "monkey▁": 7889,
      "a▁person▁is▁": 7890,
      "standing▁alone▁": 7891,
      "A▁man▁in▁white▁": 7892,
      "in▁its▁mouth": 7893,
      "center.": 7894,
      "bove▁the▁": 7895,
      "sharing▁a▁": 7896,
      "A▁brown▁and▁white▁dog▁": 7897,
      "hallway▁": 7898,
      "position▁": 7899,
      "vol": 7900,
      "A▁football▁player▁": 7901,
      "a▁long▁": 7902,
      "neu": 7903,
      "pose": 7904,
      "pots▁and▁": 7905,
      "by▁another▁": 7906,
      "near▁trees.": 7907,
      "outside▁on▁a▁": 7908,
      "toilet▁with▁a▁": 7909,
      "working▁in▁a▁": 7910,
      "paper▁.": 7911,
      "outdoors.": 7912,
      "spoon.": 7913,
      "smoking▁": 7914,
      "sitting▁next▁to▁each▁other.": 7915,
      "cell▁phone.▁": 7916,
      "collar": 7917,
      "delivery▁": 7918,
      "denim▁": 7919,
      "Motorcyc": 7920,
      "Crow": 7921,
      "US▁": 7922,
      "eli": 7923,
      "sme": 7924,
      "▁is▁": 7925,
      "labe": 7926,
      "in▁black▁and▁": 7927,
      "▁and▁green▁": 7928,
      "on▁a▁plate▁with▁a▁": 7929,
      "pean": 7930,
      "Two▁cows▁": 7931,
      "happ": 7932,
      "ride▁.": 7933,
      "fast": 7934,
      "fauce": 7935,
      "eating▁at▁a▁": 7936,
      "ches.": 7937,
      "a▁man▁holding▁a▁": 7938,
      "pizza▁and▁a▁": 7939,
      "engine": 7940,
      "mirror.▁": 7941,
      "cell▁phones.": 7942,
      "s▁in▁it.": 7943,
      "meat.": 7944,
      "keyboard,▁": 7945,
      "basketball▁player▁": 7946,
      "tile▁floor": 7947,
      "trail▁.": 7948,
      "VER": 7949,
      "jar": 7950,
      "A▁happy▁": 7951,
      "in▁a▁busy▁": 7952,
      "Two▁giraffe▁": 7953,
      "street▁next▁to▁": 7954,
      "suit.": 7955,
      "shower▁and▁": 7956,
      "s▁on▁a▁table.": 7957,
      "child.": 7958,
      "together▁and▁": 7959,
      "through▁some▁": 7960,
      "vegetables▁are▁": 7961,
      "A▁train▁that▁is▁": 7962,
      "treat": 7963,
      "A▁black▁and▁white▁photo▁of▁": 7964,
      "strapped▁": 7965,
      "refere": 7966,
      "controllers▁": 7967,
      "candy▁": 7968,
      "branches▁": 7969,
      "cerea": 7970,
      "wrap": 7971,
      "biting▁": 7972,
      "spraying▁": 7973,
      "▁animals▁are▁": 7974,
      "teenager▁": 7975,
      "librar": 7976,
      "A▁counter▁": 7977,
      "Sh": 7978,
      "A▁man▁sits▁on▁a▁": 7979,
      "ing▁along▁": 7980,
      "street▁light▁": 7981,
      "downtown▁": 7982,
      "eating▁and▁": 7983,
      "female": 7984,
      "ING": 7985,
      "standing▁in▁a▁field.": 7986,
      "bowl▁filled▁with▁": 7987,
      "ski▁slope": 7988,
      "rocks": 7989,
      "on▁a▁beach▁.": 7990,
      "in▁a▁parking▁lot▁": 7991,
      "leaves▁.": 7992,
      "commercial": 7993,
      "designed▁": 7994,
      "sausage▁": 7995,
      "seems▁to▁be▁": 7996,
      "WHITE▁": 7997,
      "h▁": 7998,
      "wand": 7999,
      "A▁F": 8000,
      "bell▁": 8001,
      "in▁the▁rain": 8002,
      "The▁cat▁": 8003,
      "next▁to▁a▁window.": 8004,
      "some▁people▁are▁": 8005,
      "playing▁video▁games▁": 8006,
      "park.▁": 8007,
      "images▁": 8008,
      "handle": 8009,
      "skateboarding▁on▁a▁": 8010,
      "talks▁": 8011,
      "pizza.▁": 8012,
      "swings▁a▁": 8013,
      "Two▁people▁in▁": 8014,
      "pulled▁by▁a▁": 8015,
      "vase▁filled▁with▁": 8016,
      "silhoue": 8017,
      "\"▁.": 8018,
      "kitchen.▁": 8019,
      "throwing▁a▁frisbee▁": 8020,
      "on▁the▁side▁of▁the▁street.": 8021,
      "time▁.": 8022,
      "harness▁": 8023,
      "swimming▁pool▁.": 8024,
      "urinal▁": 8025,
      "finger▁": 8026,
      "knitt": 8027,
      "wrapped▁in▁": 8028,
      "hung▁": 8029,
      "laundry▁": 8030,
      "quiet▁": 8031,
      "Oly": 8032,
      "A▁co": 8033,
      "the▁ball▁.": 8034,
      "is▁trying▁to▁": 8035,
      "a▁tall▁": 8036,
      "wearing▁sunglasses▁": 8037,
      "hind▁": 8038,
      "checks▁": 8039,
      "dirt▁.": 8040,
      "sink.▁": 8041,
      "colors▁": 8042,
      "hats▁and▁": 8043,
      "curly▁": 8044,
      "a▁close▁up▁": 8045,
      "enclose": 8046,
      "game.▁": 8047,
      "have▁been▁": 8048,
      "objects▁": 8049,
      "bushes▁": 8050,
      "THERE▁IS▁": 8051,
      "railroad▁tracks.": 8052,
      "rear▁view▁": 8053,
      "NO": 8054,
      "Yellow▁": 8055,
      "war▁": 8056,
      "on▁a▁snowboard▁": 8057,
      "on▁a▁snowboard.": 8058,
      "A▁man▁carrying▁a▁": 8059,
      "people▁that▁are▁": 8060,
      "A▁woman▁in▁black▁": 8061,
      "playing▁tennis": 8062,
      "A▁person▁on▁skis▁": 8063,
      "A▁bed▁with▁": 8064,
      "iled▁": 8065,
      "near▁by": 8066,
      "mud▁": 8067,
      "leaf▁": 8068,
      "stands▁in▁the▁": 8069,
      "missing▁": 8070,
      "lley▁.": 8071,
      "drawing▁": 8072,
      "corner▁of▁": 8073,
      "in▁her▁hand.": 8074,
      "peace▁": 8075,
      "site▁.": 8076,
      "olive": 8077,
      "being▁flown▁": 8078,
      "Colorful▁": 8079,
      "exerci": 8080,
      ",▁as▁": 8081,
      "k▁and▁": 8082,
      "pand": 8083,
      "usual▁": 8084,
      "wn": 8085,
      "yon": 8086,
      "▁alone▁": 8087,
      "roo": 8088,
      "in▁uniform▁": 8089,
      "on▁a▁court.": 8090,
      "peri": 8091,
      "reach▁": 8092,
      "sax": 8093,
      "near▁one▁another▁": 8094,
      "pizza▁sitting▁on▁a▁": 8095,
      "giraffe▁is▁": 8096,
      "in▁front▁of▁two▁": 8097,
      "behind▁it": 8098,
      "collage▁": 8099,
      "kicking▁": 8100,
      "shore▁.": 8101,
      "hats▁are▁": 8102,
      "a▁close▁up▁of▁a▁plate▁of▁food▁": 8103,
      "cutting▁into▁a▁": 8104,
      "carriage": 8105,
      "swinging▁a▁bat▁at▁a▁": 8106,
      "dancing▁.": 8107,
      "grill": 8108,
      "on▁a▁sunny▁day": 8109,
      "lettu": 8110,
      "raising▁": 8111,
      "A▁soccer▁player▁": 8112,
      "-up▁": 8113,
      "T-": 8114,
      "tight▁": 8115,
      "A▁team▁": 8116,
      "with▁graffiti▁": 8117,
      "p▁of▁": 8118,
      "A▁man▁sitting▁on▁a▁bench▁": 8119,
      "papers": 8120,
      "savan": 8121,
      "near▁two▁": 8122,
      "watching▁.": 8123,
      "dirt▁and▁": 8124,
      "motorcycle▁.": 8125,
      "serve.": 8126,
      "sled▁": 8127,
      "boats▁in▁the▁": 8128,
      "standing▁around": 8129,
      "ocean.▁": 8130,
      "high▁up▁": 8131,
      "carrots": 8132,
      "t-shirt▁and▁": 8133,
      "smiles▁while▁": 8134,
      "cars▁parked▁": 8135,
      "frisbee.▁": 8136,
      "shaped▁like▁a▁": 8137,
      "Black▁and▁white▁photograph▁of▁": 8138,
      "clock▁tower": 8139,
      "A▁closeup▁of▁a▁": 8140,
      "sofa.": 8141,
      "courtyard▁": 8142,
      "carnival▁": 8143,
      "Banana": 8144,
      "than▁": 8145,
      "mak": 8146,
      "in▁a▁brown▁": 8147,
      "on▁the▁grass▁.": 8148,
      ",▁blue▁": 8149,
      "grown▁": 8150,
      "Two▁woman▁": 8151,
      "cage.": 8152,
      "hau": 8153,
      "for▁an▁": 8154,
      "foggy▁": 8155,
      "super": 8156,
      "down▁at▁a▁": 8157,
      "woods.": 8158,
      "looking▁for▁": 8159,
      "females▁": 8160,
      "People▁walking▁": 8161,
      "motorcycle▁with▁a▁": 8162,
      "toilet▁seat▁": 8163,
      "children▁.": 8164,
      "piece▁of▁cake▁": 8165,
      "standing▁at▁": 8166,
      "wood▁floor.": 8167,
      "counter▁with▁": 8168,
      "▁above.": 8169,
      "near▁the▁ocean.": 8170,
      "look▁on.": 8171,
      "bbles▁": 8172,
      "swimming▁in▁the▁": 8173,
      "dish.": 8174,
      "tools▁": 8175,
      "plaid▁shirt▁": 8176,
      "crowd▁of▁people▁.": 8177,
      "Giraffes▁": 8178,
      "skinned▁": 8179,
      "Japanese▁": 8180,
      "mustard": 8181,
      "is▁attempting▁to▁": 8182,
      "A▁cell▁": 8183,
      "happily▁": 8184,
      "Lu": 8185,
      "ages▁": 8186,
      "d-haired▁": 8187,
      "elabo": 8188,
      "furry▁": 8189,
      "mun": 8190,
      "on▁each▁": 8191,
      "raft▁": 8192,
      "in▁a▁gray▁": 8193,
      "to▁their▁": 8194,
      "side▁walk▁": 8195,
      "cart": 8196,
      "tuxe": 8197,
      "med": 8198,
      "playing▁baseball.": 8199,
      "course.": 8200,
      "Seven▁": 8201,
      "driving▁a": 8202,
      "bananas▁are▁": 8203,
      "shirt▁is▁holding▁a▁": 8204,
      "crosses▁": 8205,
      "snow▁covered▁ground.": 8206,
      "warm▁": 8207,
      "flip": 8208,
      "sailboat▁": 8209,
      "A▁city▁bus▁": 8210,
      "pasture": 8211,
      "fixture": 8212,
      "rug.": 8213,
      "train▁traveling▁down▁": 8214,
      "spina": 8215,
      "meeting▁": 8216,
      "con▁": 8217,
      "pra": 8218,
      "sly▁": 8219,
      "tigh": 8220,
      "tho": 8221,
      "there": 8222,
      "A▁huge▁": 8223,
      "A▁painting▁": 8224,
      "on▁a▁boat▁": 8225,
      "with▁water▁": 8226,
      "with▁skis▁": 8227,
      "take": 8228,
      "to▁take▁a▁": 8229,
      "bush▁": 8230,
      "standing▁outside▁a▁": 8231,
      "Two▁boys▁are▁": 8232,
      "pots▁": 8233,
      "skiing.": 8234,
      "A▁large▁passenger▁": 8235,
      "A▁group▁of▁people▁in▁": 8236,
      "chair▁and▁a▁": 8237,
      "married▁": 8238,
      "A▁white▁cat▁": 8239,
      "glass▁vase▁": 8240,
      "A▁bathroom▁sink▁": 8241,
      "shopp": 8242,
      "couch▁and▁a▁": 8243,
      "garage.": 8244,
      "using▁her▁": 8245,
      "structure.": 8246,
      "flags▁": 8247,
      "in▁an▁open▁field.": 8248,
      "a▁person▁riding▁a▁surf▁board▁": 8249,
      "A▁mother▁and▁": 8250,
      "inside▁an▁": 8251,
      "TABLE▁": 8252,
      "reakfast▁": 8253,
      "GE": 8254,
      "▁the▁": 8255,
      "▁apron▁": 8256,
      "A▁traffic▁": 8257,
      "A▁worker▁": 8258,
      "rose▁": 8259,
      "lamb▁": 8260,
      "one▁of▁": 8261,
      "tables▁with▁": 8262,
      "snow.▁": 8263,
      "giraffe▁and▁": 8264,
      "looking▁over▁a▁": 8265,
      "ppli": 8266,
      "banner▁": 8267,
      "An▁adul": 8268,
      "woman▁and▁a▁": 8269,
      "running▁in▁a▁": 8270,
      "On▁a▁": 8271,
      "rock▁climb": 8272,
      "way.▁": 8273,
      "facing▁a▁": 8274,
      "self.": 8275,
      "with▁its▁head▁": 8276,
      "driving▁down▁a▁street.": 8277,
      "ledge.": 8278,
      "reaching▁for▁a▁": 8279,
      "A▁vase▁of▁": 8280,
      "There▁is▁an▁": 8281,
      "crossing▁the▁street▁": 8282,
      "dressed▁as▁": 8283,
      "musician▁": 8284,
      "gate.": 8285,
      "scaffold": 8286,
      "retrie": 8287,
      "It▁": 8288,
      "d,▁": 8289,
      "with▁multiple▁": 8290,
      "unmade▁": 8291,
      "pear": 8292,
      "ica": 8293,
      "Two▁zebras▁are▁": 8294,
      "while▁being▁": 8295,
      "tube▁": 8296,
      "court▁.": 8297,
      "A▁little▁kid▁": 8298,
      "jumping▁off▁a▁": 8299,
      "donut.": 8300,
      "Two▁women▁in▁": 8301,
      "on▁an▁empty▁": 8302,
      "points▁": 8303,
      "themed▁": 8304,
      "chool▁": 8305,
      "tv.": 8306,
      "tomatoes▁and▁": 8307,
      "side▁by▁side.": 8308,
      "potatoes▁and▁": 8309,
      "figure": 8310,
      "A▁white▁toilet▁sitting▁next▁to▁a▁": 8311,
      "A▁train▁traveling▁down▁": 8312,
      "rollerbla": 8313,
      "Cat": 8314,
      "bles▁": 8315,
      "gree": 8316,
      "A▁pole▁": 8317,
      "on▁a▁plate▁with▁": 8318,
      "in▁a▁mirror.": 8319,
      "two▁dogs▁": 8320,
      "cars▁on▁a▁": 8321,
      "train▁on▁the▁": 8322,
      "An▁office▁": 8323,
      "out▁to▁": 8324,
      "brown▁hair▁": 8325,
      "studi": 8326,
      "Several▁men▁": 8327,
      "boogie▁": 8328,
      "Two▁men▁,▁one▁": 8329,
      "standing▁in▁a▁field": 8330,
      "visit": 8331,
      "snowy▁hill.": 8332,
      "in▁his▁mouth▁.": 8333,
      "looks▁on.": 8334,
      "bread▁and▁": 8335,
      "There▁are▁several▁": 8336,
      "dressed▁in▁white▁": 8337,
      "An▁asian▁": 8338,
      "Boat": 8339,
      "crowd▁of▁people.": 8340,
      "shirt▁and▁blue▁jeans▁": 8341,
      "engaged▁": 8342,
      "London▁": 8343,
      "Apple▁": 8344,
      "▁and▁people▁": 8345,
      "a▁clock▁": 8346,
      "whil": 8347,
      "large▁white▁": 8348,
      "wearing▁all▁": 8349,
      "green▁shirt▁": 8350,
      "▁at▁a▁zoo.": 8351,
      "goali": 8352,
      "stool": 8353,
      ",▁and▁one▁": 8354,
      "baby▁.": 8355,
      "grazing▁on▁the▁": 8356,
      "brick▁wall▁": 8357,
      "busy▁street▁": 8358,
      "pictures▁of▁a▁": 8359,
      "warning▁": 8360,
      "doing▁tricks▁on▁a▁": 8361,
      "machine": 8362,
      "ledge": 8363,
      "flag▁.": 8364,
      "folding▁": 8365,
      "dressed▁as▁a▁": 8366,
      "ay▁": 8367,
[...]
